{
  "version": "1.0",
  "truncation": null,
  "padding": null,
  "added_tokens": [
    {
      "id": 0,
      "content": "<|bos|>",
      "single_word": false,
      "lstrip": false,
      "rstrip": false,
      "normalized": false,
      "special": true
    },
    {
      "id": 1,
      "content": "<|eos|>",
      "single_word": false,
      "lstrip": false,
      "rstrip": false,
      "normalized": false,
      "special": true
    },
    {
      "id": 2,
      "content": "<|pad|>",
      "single_word": false,
      "lstrip": false,
      "rstrip": false,
      "normalized": false,
      "special": true
    }
  ],
  "normalizer": null,
  "pre_tokenizer": {
    "type": "ByteLevel",
    "add_prefix_space": false,
    "trim_offsets": true,
    "use_regex": true
  },
  "post_processor": null,
  "decoder": {
    "type": "ByteLevel",
    "add_prefix_space": true,
    "trim_offsets": true,
    "use_regex": true
  },
  "model": {
    "type": "BPE",
    "dropout": null,
    "unk_token": null,
    "continuing_subword_prefix": null,
    "end_of_word_suffix": null,
    "fuse_unk": false,
    "byte_fallback": false,
    "ignore_merges": false,
    "vocab": {
      "<|bos|>": 0,
      "<|eos|>": 1,
      "<|pad|>": 2,
      "!": 3,
      "\"": 4,
      "#": 5,
      "$": 6,
      "%": 7,
      "&": 8,
      "'": 9,
      "(": 10,
      ")": 11,
      "*": 12,
      "+": 13,
      ",": 14,
      "-": 15,
      ".": 16,
      "/": 17,
      "0": 18,
      "1": 19,
      "2": 20,
      "3": 21,
      "4": 22,
      "5": 23,
      "6": 24,
      "7": 25,
      "8": 26,
      "9": 27,
      ":": 28,
      ";": 29,
      "<": 30,
      "=": 31,
      ">": 32,
      "?": 33,
      "@": 34,
      "A": 35,
      "B": 36,
      "C": 37,
      "D": 38,
      "E": 39,
      "F": 40,
      "G": 41,
      "H": 42,
      "I": 43,
      "J": 44,
      "K": 45,
      "L": 46,
      "M": 47,
      "N": 48,
      "O": 49,
      "P": 50,
      "Q": 51,
      "R": 52,
      "S": 53,
      "T": 54,
      "U": 55,
      "V": 56,
      "W": 57,
      "X": 58,
      "Y": 59,
      "Z": 60,
      "[": 61,
      "\\": 62,
      "]": 63,
      "^": 64,
      "_": 65,
      "`": 66,
      "a": 67,
      "b": 68,
      "c": 69,
      "d": 70,
      "e": 71,
      "f": 72,
      "g": 73,
      "h": 74,
      "i": 75,
      "j": 76,
      "k": 77,
      "l": 78,
      "m": 79,
      "n": 80,
      "o": 81,
      "p": 82,
      "q": 83,
      "r": 84,
      "s": 85,
      "t": 86,
      "u": 87,
      "v": 88,
      "w": 89,
      "x": 90,
      "y": 91,
      "z": 92,
      "{": 93,
      "|": 94,
      "}": 95,
      "~": 96,
      "¡": 97,
      "¢": 98,
      "£": 99,
      "¤": 100,
      "¥": 101,
      "¦": 102,
      "§": 103,
      "¨": 104,
      "©": 105,
      "ª": 106,
      "«": 107,
      "¬": 108,
      "®": 109,
      "¯": 110,
      "°": 111,
      "±": 112,
      "²": 113,
      "³": 114,
      "´": 115,
      "µ": 116,
      "¶": 117,
      "·": 118,
      "¸": 119,
      "¹": 120,
      "º": 121,
      "»": 122,
      "¼": 123,
      "½": 124,
      "¾": 125,
      "¿": 126,
      "À": 127,
      "Á": 128,
      "Â": 129,
      "Ã": 130,
      "Ä": 131,
      "Å": 132,
      "Æ": 133,
      "Ç": 134,
      "È": 135,
      "É": 136,
      "Ê": 137,
      "Ë": 138,
      "Ì": 139,
      "Í": 140,
      "Î": 141,
      "Ï": 142,
      "Ð": 143,
      "Ñ": 144,
      "Ò": 145,
      "Ó": 146,
      "Ô": 147,
      "Õ": 148,
      "Ö": 149,
      "×": 150,
      "Ø": 151,
      "Ù": 152,
      "Ú": 153,
      "Û": 154,
      "Ü": 155,
      "Ý": 156,
      "Þ": 157,
      "ß": 158,
      "à": 159,
      "á": 160,
      "â": 161,
      "ã": 162,
      "ä": 163,
      "å": 164,
      "æ": 165,
      "ç": 166,
      "è": 167,
      "é": 168,
      "ê": 169,
      "ë": 170,
      "ì": 171,
      "í": 172,
      "î": 173,
      "ï": 174,
      "ð": 175,
      "ñ": 176,
      "ò": 177,
      "ó": 178,
      "ô": 179,
      "õ": 180,
      "ö": 181,
      "÷": 182,
      "ø": 183,
      "ù": 184,
      "ú": 185,
      "û": 186,
      "ü": 187,
      "ý": 188,
      "þ": 189,
      "ÿ": 190,
      "Ā": 191,
      "ā": 192,
      "Ă": 193,
      "ă": 194,
      "Ą": 195,
      "ą": 196,
      "Ć": 197,
      "ć": 198,
      "Ĉ": 199,
      "ĉ": 200,
      "Ċ": 201,
      "ċ": 202,
      "Č": 203,
      "č": 204,
      "Ď": 205,
      "ď": 206,
      "Đ": 207,
      "đ": 208,
      "Ē": 209,
      "ē": 210,
      "Ĕ": 211,
      "ĕ": 212,
      "Ė": 213,
      "ė": 214,
      "Ę": 215,
      "ę": 216,
      "Ě": 217,
      "ě": 218,
      "Ĝ": 219,
      "ĝ": 220,
      "Ğ": 221,
      "ğ": 222,
      "Ġ": 223,
      "ġ": 224,
      "Ģ": 225,
      "ģ": 226,
      "Ĥ": 227,
      "ĥ": 228,
      "Ħ": 229,
      "ħ": 230,
      "Ĩ": 231,
      "ĩ": 232,
      "Ī": 233,
      "ī": 234,
      "Ĭ": 235,
      "ĭ": 236,
      "Į": 237,
      "į": 238,
      "İ": 239,
      "ı": 240,
      "Ĳ": 241,
      "ĳ": 242,
      "Ĵ": 243,
      "ĵ": 244,
      "Ķ": 245,
      "ķ": 246,
      "ĸ": 247,
      "Ĺ": 248,
      "ĺ": 249,
      "Ļ": 250,
      "ļ": 251,
      "Ľ": 252,
      "ľ": 253,
      "Ŀ": 254,
      "ŀ": 255,
      "Ł": 256,
      "ł": 257,
      "Ń": 258,
      "Ġt": 259,
      "he": 260,
      "Ġa": 261,
      "in": 262,
      "Ġthe": 263,
      "Ġs": 264,
      "Ġw": 265,
      "er": 266,
      "Ġo": 267,
      "nd": 268,
      "re": 269,
      "ou": 270,
      "at": 271,
      "it": 272,
      "Ġb": 273,
      "is": 274,
      "Ġf": 275,
      "Ġc": 276,
      "or": 277,
      "ing": 278,
      "en": 279,
      "Ġm": 280,
      "ed": 281,
      "ar": 282,
      "Ġand": 283,
      "ll": 284,
      "on": 285,
      "Ġh": 286,
      "es": 287,
      "ĠĠ": 288,
      "an": 289,
      "Ġto": 290,
      "Ġp": 291,
      "Ġd": 292,
      "Ġof": 293,
      "Ġth": 294,
      "Ġl": 295,
      "as": 296,
      "Ġin": 297,
      "Ġy": 298,
      "Ġn": 299,
      "le": 300,
      "Ġit": 301,
      "ĠI": 302,
      "Ġyou": 303,
      "ow": 304,
      "Ġe": 305,
      "ĠT": 306,
      "om": 307,
      "Ġis": 308,
      "ot": 309,
      "ic": 310,
      "Ġg": 311,
      "ay": 312,
      "et": 313,
      "ver": 314,
      "Ġon": 315,
      "st": 316,
      "Ġbe": 317,
      "ld": 318,
      "ad": 319,
      "ly": 320,
      "id": 321,
      "ut": 322,
      "se": 323,
      "im": 324,
      "Ġst": 325,
      "al": 326,
      "gh": 327,
      "ac": 328,
      "Ġre": 329,
      "ent": 330,
      "Ġthat": 331,
      "Ġhe": 332,
      "ĠĠĠĠ": 333,
      "ve": 334,
      "oo": 335,
      "Ġwh": 336,
      "Ġr": 337,
      "Ġfor": 338,
      "Ġu": 339,
      "ion": 340,
      "Ġwas": 341,
      "ke": 342,
      "ith": 343,
      "ir": 344,
      "all": 345,
      "am": 346,
      "ter": 347,
      "ĠS": 348,
      "Ġwith": 349,
      "Ġan": 350,
      "ght": 351,
      "ce": 352,
      "ĠW": 353,
      "Ġat": 354,
      "ĠA": 355,
      "ill": 356,
      "ur": 357,
      "ee": 358,
      "ĠThe": 359,
      "th": 360,
      "Ġnot": 361,
      "ain": 362,
      "Ġas": 363,
      "'s": 364,
      "Ġli": 365,
      "op": 366,
      "ould": 367,
      "Ġha": 368,
      "her": 369,
      "very": 370,
      "ct": 371,
      "un": 372,
      "Ġsh": 373,
      "il": 374,
      "Ġne": 375,
      "ch": 376,
      "Ġme": 377,
      "ĠC": 378,
      "ĠM": 379,
      "ĠH": 380,
      "ell": 381,
      "Ġdo": 382,
      "--": 383,
      "if": 384,
      "qu": 385,
      "ul": 386,
      "est": 387,
      "Ġwor": 388,
      "ri": 389,
      "Ġmo": 390,
      "Ġhis": 391,
      "Ġsa": 392,
      "hen": 393,
      "ind": 394,
      "um": 395,
      "Ġby": 396,
      "ard": 397,
      "hat": 398,
      "ap": 399,
      "Ġk": 400,
      "ight": 401,
      "Ġso": 402,
      "Ġall": 403,
      "and": 404,
      "ag": 405,
      "Ġfr": 406,
      "ome": 407,
      "Ġex": 408,
      "ood": 409,
      "Ġare": 410,
      "ĠB": 411,
      "ĠE": 412,
      "our": 413,
      "ep": 414,
      "out": 415,
      "one": 416,
      "us": 417,
      "Ġone": 418,
      "ro": 419,
      "ust": 420,
      "Ġwe": 421,
      "ound": 422,
      "ong": 423,
      "Ġor": 424,
      "ĠIt": 425,
      "Ġthis": 426,
      "ĠY": 427,
      "Ġhad": 428,
      "ice": 429,
      "Ġpl": 430,
      "Ġwill": 431,
      "ook": 432,
      "Ġsaid": 433,
      "ear": 434,
      "Ġbut": 435,
      "ant": 436,
      "ĠN": 437,
      "el": 438,
      "Ġyour": 439,
      "Ġwho": 440,
      "ak": 441,
      "Ġch": 442,
      "ast": 443,
      "ers": 444,
      "pp": 445,
      "Ġ\"": 446,
      "ake": 447,
      "ate": 448,
      "Ġevery": 449,
      "Ġab": 450,
      "Ġfrom": 451,
      "ess": 452,
      "ame": 453,
      "Ġsp": 454,
      "Ġtr": 455,
      "here": 456,
      "Ġno": 457,
      "Ġhave": 458,
      "Ġal": 459,
      "Ġtim": 460,
      "ore": 461,
      "ĠR": 462,
      "Ġcan": 463,
      "au": 464,
      "Ġqu": 465,
      "ally": 466,
      "to": 467,
      "Ġthey": 468,
      "Ġsee": 469,
      "em": 470,
      "ough": 471,
      "art": 472,
      "The": 473,
      "ater": 474,
      "ack": 475,
      "ation": 476,
      "Ġkn": 477,
      "ang": 478,
      "ĠP": 479,
      "Ġup": 480,
      "Ġcon": 481,
      "ec": 482,
      "Ġle": 483,
      "imp": 484,
      "Ġco": 485,
      "ning": 486,
      "Ġtime": 487,
      "ab": 488,
      "way": 489,
      "ĠL": 490,
      "ide": 491,
      "Ġar": 492,
      "ich": 493,
      "Ġgr": 494,
      "Ġout": 495,
      "ere": 496,
      "oc": 497,
      "Ġthem": 498,
      "ist": 499,
      "Ġlike": 500,
      "Ġ_": 501,
      "res": 502,
      "Ġcom": 503,
      "ĠĠĠĠĠĠĠĠ": 504,
      "Ġ'": 505,
      "Ġv": 506,
      "ect": 507,
      "os": 508,
      "end": 509,
      "ry": 510,
      "ĠD": 511,
      "Ġtw": 512,
      "Ġhim": 513,
      "are": 514,
      "nt": 515,
      "ĠO": 516,
      "Ġpr": 517,
      "'t": 518,
      "ĠThat": 519,
      "Ġabout": 520,
      "ĠF": 521,
      "Ġsu": 522,
      "Ġsm": 523,
      "Ġwhen": 524,
      "ort": 525,
      "av": 526,
      "ence": 527,
      "pl": 528,
      "Ġj": 529,
      "Ġwhich": 530,
      "itt": 531,
      "ive": 532,
      "ks": 533,
      "Ġif": 534,
      "own": 535,
      "Ġany": 536,
      "Ġthere": 537,
      "ous": 538,
      "hed": 539,
      "fter": 540,
      "od": 541,
      "Ġday": 542,
      "act": 543,
      "ff": 544,
      "Ġwater": 545,
      "Ġag": 546,
      "Ġits": 547,
      "ire": 548,
      "Ġus": 549,
      "ach": 550,
      "Ġthan": 551,
      "ĠYou": 552,
      "Ġlook": 553,
      "ol": 554,
      "ved": 555,
      "Ġhow": 556,
      "hing": 557,
      "Ġwhat": 558,
      "ace": 559,
      "ie": 560,
      "ull": 561,
      "Ġinto": 562,
      "irst": 563,
      "Ġwould": 564,
      "nder": 565,
      "ure": 566,
      "Ġgo": 567,
      "Ġcl": 568,
      "Ġke": 569,
      "Ġbr": 570,
      "ree": 571,
      "ick": 572,
      "ig": 573,
      "Ġthing": 574,
      "alk": 575,
      "Ġgre": 576,
      "fore": 577,
      "ther": 578,
      "ark": 579,
      "Ġbeen": 580,
      "thing": 581,
      "ause": 582,
      "Ġcould": 583,
      "Ġtwo": 584,
      "wn": 585,
      "Ġway": 586,
      "day": 587,
      "ĠCh": 588,
      "Ġafter": 589,
      "Ġtoo": 590,
      "Ġmy": 591,
      "the": 592,
      "ine": 593,
      "Ġsl": 594,
      "ite": 595,
      "ish": 596,
      "pt": 597,
      "Ġfl": 598,
      "Ġnever": 599,
      "ass": 600,
      "ue": 601,
      "eop": 602,
      "ful": 603,
      "iver": 604,
      ".\"": 605,
      "Ġhas": 606,
      "Ġwere": 607,
      "Ġen": 608,
      "orning": 609,
      "fer": 610,
      "ave": 611,
      "Ġwr": 612,
      "ĠTh": 613,
      "ory": 614,
      "ft": 615,
      "Ġmu": 616,
      "ittle": 617,
      "Ġfirst": 618,
      "Ġro": 619,
      "Ġbec": 620,
      "ĠĠĠ": 621,
      "ew": 622,
      "arm": 623,
      "ven": 624,
      "Ġdr": 625,
      "ink": 626,
      "Ġtheir": 627,
      "Ġsimp": 628,
      "Ġbefore": 629,
      "ĠMo": 630,
      "Ġse": 631,
      "Ġmore": 632,
      "ary": 633,
      "Ġget": 634,
      "Ġmorning": 635,
      "Ġwork": 636,
      "Ġsmall": 637,
      "Ġvery": 638,
      "sel": 639,
      "eople": 640,
      "Ġold": 641,
      "Ġother": 642,
      "Ġback": 643,
      "ity": 644,
      "Ġlittle": 645,
      "ment": 646,
      "og": 647,
      "Ġlong": 648,
      "Ġdown": 649,
      "able": 650,
      "ge": 651,
      "ia": 652,
      "ies": 653,
      "ions": 654,
      "Ġsay": 655,
      "ade": 656,
      "Ġgood": 657,
      "ward": 658,
      "urn": 659,
      "Ġ(": 660,
      "Ġshould": 661,
      "Ġword": 662,
      "Ġsome": 663,
      "ose": 664,
      "ank": 665,
      "ber": 666,
      "Ġad": 667,
      "ail": 668,
      "ile": 669,
      "Ġthen": 670,
      "age": 671,
      "Ġwhere": 672,
      "ĠG": 673,
      "Ġam": 674,
      "Ġsame": 675,
      "ise": 676,
      "Ġpo": 677,
      "Ġkeep": 678,
      "Ġ1": 679,
      "Ġdid": 680,
      "Ġknow": 681,
      "Ġover": 682,
      "Ġfar": 683,
      "Ġmin": 684,
      "ather": 685,
      "Ġfo": 686,
      "Ġagain": 687,
      "omet": 688,
      "ĠK": 689,
      "Ġstr": 690,
      "Ġwalk": 691,
      "Ġright": 692,
      "Ġun": 693,
      "Ġsc": 694,
      "Ġbet": 695,
      "ĠIn": 696,
      "other": 697,
      "Ġshe": 698,
      "Ġunder": 699,
      "Ġthr": 700,
      "hy": 701,
      "Ġcar": 702,
      "ways": 703,
      "Ġrem": 704,
      "Ġneed": 705,
      "----": 706,
      "ody": 707,
      "Ġwind": 708,
      "be": 709,
      "Ġonly": 710,
      "Ġminut": 711,
      "ving": 712,
      "ĠHe": 713,
      ",\"": 714,
      "ip": 715,
      "ans": 716,
      "Ġbl": 717,
      "ĠWhat": 718,
      "ix": 719,
      "ount": 720,
      ".'": 721,
      "Ġpart": 722,
      "âĢ": 723,
      "Ġpro": 724,
      "ara": 725,
      "âĢĶ": 726,
      "les": 727,
      "ears": 728,
      "ma": 729,
      "ble": 730,
      "Ġoff": 731,
      "ĠAnd": 732,
      "self": 733,
      "ĠJ": 734,
      "ĠâĢĶ": 735,
      "Ġher": 736,
      "ock": 737,
      "Ġatt": 738,
      "row": 739,
      "Ġdif": 740,
      "Ġmuch": 741,
      "ĠRat": 742,
      "Ġwell": 743,
      "Ġac": 744,
      "ict": 745,
      "Ġman": 746,
      "Ġlight": 747,
      "hes": 748,
      "Ġde": 749,
      "Ġmost": 750,
      "akes": 751,
      "ves": 752,
      "orm": 753,
      "Ġbecause": 754,
      "iet": 755,
      "atter": 756,
      "Ġwhole": 757,
      "we": 758,
      "ought": 759,
      "Ġstre": 760,
      "per": 761,
      "Ġapp": 762,
      "ool": 763,
      "Ġjust": 764,
      "ance": 765,
      "aw": 766,
      "Ġthrough": 767,
      "ud": 768,
      "'ll": 769,
      "Ġte": 770,
      "Ġthink": 771,
      "oth": 772,
      "Ġminutes": 773,
      "air": 774,
      "uc": 775,
      "ild": 776,
      "xt": 777,
      "Ġmade": 778,
      "Ġonce": 779,
      "Ġdis": 780,
      "Ġalways": 781,
      "Ġdiffer": 782,
      ",'": 783,
      "sw": 784,
      "Ġhapp": 785,
      "Ġthings": 786,
      "Ġ[": 787,
      "ress": 788,
      "fe": 789,
      "Ġwee": 790,
      "Ġstep": 791,
      "ĠMole": 792,
      "Ġcome": 793,
      "Ġhand": 794,
      "Ġcall": 795,
      "ĠIf": 796,
      "Ġpeople": 797,
      "Ġrest": 798,
      "Ġmay": 799,
      "oon": 800,
      "read": 801,
      "ped": 802,
      "old": 803,
      "ĠNot": 804,
      "iz": 805,
      "ated": 806,
      "ors": 807,
      "ĠSun": 808,
      "int": 809,
      "Ġsound": 810,
      "Ġask": 811,
      "Ġexpl": 812,
      "ocal": 813,
      "ious": 814,
      "Ġeach": 815,
      "Ġriver": 816,
      "Ġslow": 817,
      "body": 818,
      "ub": 819,
      "Ġknew": 820,
      "Ġgreat": 821,
      "aff": 822,
      "not": 823,
      "ove": 824,
      "Ġtell": 825,
      "Ġwarm": 826,
      "ord": 827,
      "ĠSt": 828,
      "ĠWhen": 829,
      "Ġquiet": 830,
      "Ġwhy": 831,
      "llow": 832,
      "Ġread": 833,
      "ĠAn": 834,
      "ried": 835,
      "Ġreally": 836,
      "oy": 837,
      "Ġfind": 838,
      "Ġhour": 839,
      "Ġthese": 840,
      "Ġcame": 841,
      "Ġseem": 842,
      "Ġmake": 843,
      "Ġend": 844,
      "co": 845,
      "ty": 846,
      "Ġleft": 847,
      "Ġcour": 848,
      "ait": 849,
      "Ġsomet": 850,
      "Ġhappen": 851,
      "ily": 852,
      "Ġten": 853,
      "Ġturn": 854,
      "li": 855,
      "Ġaway": 856,
      "red": 857,
      "Ġmust": 858,
      "als": 859,
      "Ġrep": 860,
      "Ġeverything": 861,
      "cl": 862,
      "rap": 863,
      "Ġstory": 864,
      "ations": 865,
      "Ġsimple": 866,
      "get": 867,
      "Ġansw": 868,
      "Ġnew": 869,
      "ĠĠĠĠĠĠĠĠĠ": 870,
      "side": 871,
      "Ġsun": 872,
      "Ġhard": 873,
      "ĠWe": 874,
      "ces": 875,
      "ched": 876,
      "Ġair": 877,
      "Ġsent": 878,
      "Ġsec": 879,
      "Ġput": 880,
      "ention": 881,
      "pen": 882,
      "te": 883,
      "Ġfull": 884,
      "Ġanswer": 885,
      "gg": 886,
      "ng": 887,
      "Ġwhile": 888,
      "Ġshort": 889,
      "!\"": 890,
      "Ġtown": 891,
      "Ġunt": 892,
      "Ġdoes": 893,
      "ends": 894,
      "Ġlast": 895,
      "ost": 896,
      "ris": 897,
      "Ġper": 898,
      "br": 899,
      "of": 900,
      "ond": 901,
      "Ġlet": 902,
      "Ġbeg": 903,
      "Ġcomp": 904,
      "ase": 905,
      "Ġstill": 906,
      "Ġstop": 907,
      "Ġfollow": 908,
      "eel": 909,
      "ah": 910,
      "Ġside": 911,
      "Ġbus": 912,
      "Ġhome": 913,
      "ĠBut": 914,
      "Local": 915,
      "ss": 916,
      "Ġimp": 917,
      "Ġbest": 918,
      "Ġcourse": 919,
      "Ġcor": 920,
      "umm": 921,
      "Ġcare": 922,
      "ings": 923,
      "Ġear": 924,
      "Ġexp": 925,
      "Ġroom": 926,
      "ert": 927,
      "Ġwait": 928,
      "Ġown": 929,
      "Ġbo": 930,
      "asy": 931,
      "Ġind": 932,
      "ween": 933,
      "_,": 934,
      "Ġwords": 935,
      "ead": 936,
      "led": 937,
      "Ġyears": 938,
      "Ġform": 939,
      "aking": 940,
      "Ġwent": 941,
      "Ġthree": 942,
      "Ġuse": 943,
      "ai": 944,
      "ian": 945,
      "zu": 946,
      "Ġph": 947,
      "Ġuntil": 948,
      "ger": 949,
      "Ġser": 950,
      "Ġsur": 951,
      "ction": 952,
      "ĠCH": 953,
      "ember": 954,
      "Ġbetween": 955,
      "aul": 956,
      "Ġcle": 957,
      "der": 958,
      "ject": 959,
      "Ġsw": 960,
      "ena": 961,
      "ross": 962,
      "Ġweather": 963,
      "Ġcont": 964,
      "Ġarm": 965,
      "ph": 966,
      "ually": 967,
      "ener": 968,
      "ons": 969,
      "Ġgl": 970,
      "sh": 971,
      "alf": 972,
      "iv": 973,
      "Ġpre": 974,
      "ĠSo": 975,
      "ung": 976,
      "Ġsomething": 977,
      "up": 978,
      "und": 979,
      "Ġkind": 980,
      "Ġplan": 981,
      "Ġob": 982,
      "Ġthough": 983,
      "Ġcomm": 984,
      "Ġremember": 985,
      "Ġdes": 986,
      "Ġthought": 987,
      "Ġnow": 988,
      "Mar": 989,
      "ier": 990,
      "Ġche": 991,
      "Ġpass": 992,
      "ĠSh": 993,
      "Ġcr": 994,
      "ĠTzu": 995,
      "ird": 996,
      "ĠHow": 997,
      "Ġquest": 998,
      "ner": 999,
      "iss": 1000,
      "Ġeven": 1001,
      "ĠTo": 1002,
      "ĠWhy": 1003,
      "Ġdoor": 1004,
      "ails": 1005,
      "Ġsk": 1006,
      "Ġwithout": 1007,
      "Ġcold": 1008,
      "Th": 1009,
      "Ġ2": 1010,
      "Ġset": 1011,
      "Ġour": 1012,
      "Ġfound": 1013,
      "ical": 1014,
      "uth": 1015,
      "ĠThen": 1016,
      "Ġlife": 1017,
      "Ġanything": 1018,
      "ines": 1019,
      "Ġsal": 1020,
      "Ġstart": 1021,
      "Ġrec": 1022,
      "Ġadv": 1023,
      "Ġstreet": 1024,
      "ows": 1025,
      "aint": 1026,
      "Ġalong": 1027,
      "Ġwar": 1028,
      "Ġwant": 1029,
      "Ġem": 1030,
      "amp": 1031,
      "ĠAny": 1032,
      "Ġple": 1033,
      "ĠWu": 1034,
      "Ġcannot": 1035,
      "ied": 1036,
      "use": 1037,
      "Ġfour": 1038,
      "Ġhold": 1039,
      "ĠCan": 1040,
      "ign": 1041,
      "eg": 1042,
      "Ġmark": 1043,
      "ott": 1044,
      "oor": 1045,
      "ts": 1046,
      "Ġsin": 1047,
      "atch": 1048,
      "Ġbel": 1049,
      "Ġwrit": 1050,
      "ever": 1051,
      "Ġmind": 1052,
      "Ġexplain": 1053,
      "Ġseemed": 1054,
      "ana": 1055,
      "pr": 1056,
      "ina": 1057,
      "Ġmil": 1058,
      "Ġmakes": 1059,
      "Ġnothing": 1060,
      "onest": 1061,
      "Ġmean": 1062,
      "ĠNo": 1063,
      "--------": 1064,
      "Ġfri": 1065,
      "Ġinst": 1066,
      "stand": 1067,
      "ĠThey": 1068,
      "Ġnobody": 1069,
      "?'": 1070,
      "ient": 1071,
      "ness": 1072,
      "so": 1073,
      "Ġent": 1074,
      "Ġwall": 1075,
      "ition": 1076,
      "Ġbook": 1077,
      "Ġboth": 1078,
      "Ġfeel": 1079,
      "Ġweek": 1080,
      "raph": 1081,
      "oud": 1082,
      "Ġinv": 1083,
      "ĠIs": 1084,
      "Ġpoint": 1085,
      "Ġopen": 1086,
      "ora": 1087,
      "Ġshow": 1088,
      "ĠOn": 1089,
      "Ġbetter": 1090,
      "!'": 1091,
      "ug": 1092,
      "Ġhalf": 1093,
      "Ġhere": 1094,
      "Ġhead": 1095,
      "cept": 1096,
      "ange": 1097,
      "Ġused": 1098,
      "ible": 1099,
      "ya": 1100,
      "Ġsch": 1101,
      "orrow": 1102,
      "Ġdon": 1103,
      "Ġbring": 1104,
      "'m": 1105,
      "It": 1106,
      "ery": 1107,
      "etails": 1108,
      "Ġplace": 1109,
      "Ġquite": 1110,
      "ĠV": 1111,
      "ouse": 1112,
      "Ġnear": 1113,
      "Ġarri": 1114,
      "Ġgrow": 1115,
      "ĠFr": 1116,
      "actly": 1117,
      "igh": 1118,
      "Ġed": 1119,
      "Ġtake": 1120,
      "reat": 1121,
      "eep": 1122,
      "oss": 1123,
      "Ġgoing": 1124,
      "Ġworking": 1125,
      "Ġsecond": 1126,
      "Paul": 1127,
      "Ġgone": 1128,
      "Ġnext": 1129,
      "Ġplay": 1130,
      "Ġhimself": 1131,
      "aves": 1132,
      "Ġsounds": 1133,
      "Ġquietly": 1134,
      "Ġmarket": 1135,
      "sc": 1136,
      "Ġtom": 1137,
      "Ġtold": 1138,
      "ters": 1139,
      "Ġpat": 1140,
      "add": 1141,
      "Ġres": 1142,
      "affy": 1143,
      "eed": 1144,
      "ĠU": 1145,
      "Ġsat": 1146,
      "Ġlear": 1147,
      "Ġhel": 1148,
      "Ġworld": 1149,
      "umai": 1150,
      "ĠEvery": 1151,
      "ield": 1152,
      "Ġwindow": 1153,
      "Ġdifferent": 1154,
      "la": 1155,
      "less": 1156,
      "Ġfood": 1157,
      "anc": 1158,
      "Ġdire": 1159,
      "Ġstood": 1160,
      "ĠThank": 1161,
      "Ġmany": 1162,
      "Ġmatter": 1163,
      "Ġgener": 1164,
      "Ġbeing": 1165,
      "Ġret": 1166,
      "ĠAs": 1167,
      "ope": 1168,
      "oney": 1169,
      "Ġsimply": 1170,
      "Ġattention": 1171,
      "In": 1172,
      "ates": 1173,
      "Ġmist": 1174,
      "Ġdel": 1175,
      "Ġdist": 1176,
      "Ġlar": 1177,
      "Ġever": 1178,
      "ĠThere": 1179,
      "now": 1180,
      "'ve": 1181,
      "where": 1182,
      "ither": 1183,
      "Ġdec": 1184,
      "Ġheat": 1185,
      "Ġforward": 1186,
      "Ġmoving": 1187,
      "elt": 1188,
      "Ġunderstand": 1189,
      "No": 1190,
      "oes": 1191,
      "Ġfam": 1192,
      "Ġfell": 1193,
      "ĠEx": 1194,
      "Ġbegin": 1195,
      "On": 1196,
      "Ġhonest": 1197,
      "Ġdark": 1198,
      "Ġey": 1199,
      "idd": 1200,
      "Ġrun": 1201,
      "Ġaround": 1202,
      "Ġsub": 1203,
      "Ġdifference": 1204,
      "ting": 1205,
      "Ġmet": 1206,
      "arl": 1207,
      "Ġnight": 1208,
      "Ġjo": 1209,
      "Ġcarry": 1210,
      "Ġacross": 1211,
      "Ġschool": 1212,
      "You": 1213,
      "cc": 1214,
      "Ġfin": 1215,
      "Ġhum": 1216,
      "Ġgot": 1217,
      "oof": 1218,
      "une": 1219,
      "Ġsupp": 1220,
      "ience": 1221,
      "ently": 1222,
      "ĠThis": 1223,
      "ao": 1224,
      "ges": 1225,
      "man": 1226,
      "mma": 1227,
      "isit": 1228,
      "Ġpast": 1229,
      "Ġel": 1230,
      "ots": 1231,
      "imes": 1232,
      "Ġanother": 1233,
      "Ġeveryone": 1234,
      "Ġlearn": 1235,
      "ule": 1236,
      "ences": 1237,
      "Ġdetails": 1238,
      "Ġnum": 1239,
      "Ġegg": 1240,
      "ides": 1241,
      "ĠPeople": 1242,
      "Ġsalt": 1243,
      "con": 1244,
      "ures": 1245,
      "Ġsumm": 1246,
      "ered": 1247,
      "Ġbu": 1248,
      "Ġdep": 1249,
      "ĠTaffy": 1250,
      "Ġreas": 1251,
      "Ġfloor": 1252,
      "Ġadvice": 1253,
      "noon": 1254,
      "ating": 1255,
      "Ġbeh": 1256,
      "ĠAll": 1257,
      "aps": 1258,
      "Ġconf": 1259,
      "'re": 1260,
      "Then": 1261,
      "Ġtalk": 1262,
      "Ġsqu": 1263,
      "Ġpot": 1264,
      "Ġinter": 1265,
      "ĠSee": 1266,
      "ĠEng": 1267,
      "osa": 1268,
      "ared": 1269,
      "ĠGood": 1270,
      "St": 1271,
      "ense": 1272,
      "ona": 1273,
      "Ġdone": 1274,
      "Ġhear": 1275,
      "Ġorder": 1276,
      "Ġpract": 1277,
      "Ġlooking": 1278,
      "Ġhelp": 1279,
      "full": 1280,
      "ature": 1281,
      "Ġpar": 1282,
      "Ġgard": 1283,
      "Ġanim": 1284,
      "Ġafternoon": 1285,
      "egumai": 1286,
      "'d": 1287,
      "ale": 1288,
      "cle": 1289,
      "ra": 1290,
      "Ġwin": 1291,
      "Ġfive": 1292,
      "Ġround": 1293,
      "ecause": 1294,
      "Ġlooked": 1295,
      "ickly": 1296,
      "Ġsentence": 1297,
      "form": 1298,
      "lish": 1299,
      "tle": 1300,
      "Ġtop": 1301,
      "Ġexactly": 1302,
      "emy": 1303,
      "Ġleaves": 1304,
      "ĠLe": 1305,
      "Ġprop": 1306,
      "Ġoffice": 1307,
      "Ġacc": 1308,
      "He": 1309,
      "ren": 1310,
      "Ġmother": 1311,
      "Ġpers": 1312,
      "Ġland": 1313,
      "Ġless": 1314,
      "Ġforg": 1315,
      "Ġdays": 1316,
      "Ġturned": 1317,
      "fully": 1318,
      "?\"": 1319,
      "dd": 1320,
      "Ġim": 1321,
      "atur": 1322,
      "Ġcent": 1323,
      "Ġtoday": 1324,
      "Ġthose": 1325,
      "Ġeasy": 1326,
      "vers": 1327,
      "Ġplant": 1328,
      "ĠĠĠĠĠĠĠĠĠĠĠĠĠĠĠĠ": 1329,
      "ected": 1330,
      "Ġenough": 1331,
      "Ġwrong": 1332,
      "Ġdrop": 1333,
      "An": 1334,
      "Ġide": 1335,
      "ats": 1336,
      "Ġyet": 1337,
      "leph": 1338,
      "Ġev": 1339,
      "ĠTegumai": 1340,
      "ĠMay": 1341,
      "ands": 1342,
      "ĠBy": 1343,
      "Ġvisit": 1344,
      "Ġslowly": 1345,
      "Ġmeaning": 1346,
      ".=": 1347,
      "joy": 1348,
      "round": 1349,
      "wh": 1350,
      "Ġtre": 1351,
      "oun": 1352,
      "oup": 1353,
      "Ġbig": 1354,
      "ents": 1355,
      "Ġrain": 1356,
      "Ġanyone": 1357,
      "ired": 1358,
      "Ġtook": 1359,
      "ictor": 1360,
      "for": 1361,
      "Ġap": 1362,
      "Ġsit": 1363,
      "Ġyear": 1364,
      "adi": 1365,
      "ĠWh": 1366,
      "Ġmeet": 1367,
      "Ġlonger": 1368,
      "Ġkeeps": 1369,
      "Ġagainst": 1370,
      "ertain": 1371,
      "Ġquestion": 1372,
      "ler": 1373,
      "Ġact": 1374,
      "iced": 1375,
      "Ġshop": 1376,
      "Ġmeas": 1377,
      "Ġmeans": 1378,
      "ella": 1379,
      "Ġcol": 1380,
      "ĠLet": 1381,
      "Ġpost": 1382,
      "Ġelse": 1383,
      "ci": 1384,
      "Ġtill": 1385,
      "atched": 1386,
      "Ġfire": 1387,
      "ens": 1388,
      "Ġinside": 1389,
      "Ġgi": 1390,
      "Ġreach": 1391,
      "ĠĠĠĠĠĠ": 1392,
      "Ġworth": 1393,
      "Ġsoon": 1394,
      "Ġsoft": 1395,
      "ready": 1396,
      "Ġpleas": 1397,
      "ĠEnglish": 1398,
      "Ġfield": 1399,
      "Ġfelt": 1400,
      "Ġcount": 1401,
      "Ġmiss": 1402,
      "imon": 1403,
      "ĠMr": 1404,
      "Ġworks": 1405,
      "Ġhist": 1406,
      "addy": 1407,
      "),": 1408,
      "Ch": 1409,
      "Gr": 1410,
      "bs": 1411,
      "gs": 1412,
      "lena": 1413,
      "Ġbird": 1414,
      "ane": 1415,
      "Ġpull": 1416,
      "Ġdry": 1417,
      "ices": 1418,
      "Ġforget": 1419,
      "that": 1420,
      "Ġlibr": 1421,
      "ular": 1422,
      "ĠOf": 1423,
      "ments": 1424,
      "Ġsays": 1425,
      "Ġadd": 1426,
      "Ġhours": 1427,
      "Ġarmy": 1428,
      "Ġeyes": 1429,
      "Ġbehind": 1430,
      "NG": 1431,
      "bor": 1432,
      "Ġwo": 1433,
      "Ġfall": 1434,
      "Ġcur": 1435,
      "any": 1436,
      "Ġpie": 1437,
      "Ġshall": 1438,
      "ĠNow": 1439,
      "aught": 1440,
      "Ġstrang": 1441,
      "uck": 1442,
      "Ġcareful": 1443,
      "Ġearly": 1444,
      "Marco": 1445,
      "most": 1446,
      "era": 1447,
      "ĠTu": 1448,
      "Ġsmell": 1449,
      "Ġkept": 1450,
      "Ġenemy": 1451,
      "Ġroad": 1452,
      "wards": 1453,
      "Ġwalking": 1454,
      "com": 1455,
      "ished": 1456,
      "Ġfore": 1457,
      "enry": 1458,
      "enty": 1459,
      "ĠĠĠĠĠĠĠ": 1460,
      "than": 1461,
      "ĠMar": 1462,
      "Ġtrave": 1463,
      "ĠPer": 1464,
      "ountain": 1465,
      "Ġgarden": 1466,
      "Ġperson": 1467,
      "mar": 1468,
      "ins": 1469,
      "Ġpres": 1470,
      "Ġstay": 1471,
      "ult": 1472,
      "Ġcons": 1473,
      "Ġgrass": 1474,
      "endy": 1475,
      "Ġsea": 1476,
      "ĠToad": 1477,
      "Carl": 1478,
      "ex": 1479,
      "na": 1480,
      "ping": 1481,
      "rang": 1482,
      "ual": 1483,
      "Ġtin": 1484,
      "Ġsix": 1485,
      "lla": 1486,
      "ics": 1487,
      "str": 1488,
      "oose": 1489,
      "Ġsaw": 1490,
      "Ġalready": 1491,
      "Ġtea": 1492,
      "Ġcalled": 1493,
      "ize": 1494,
      "Ġsince": 1495,
      "Ġgeneral": 1496,
      "Bella": 1497,
      "Elena": 1498,
      "cuse": 1499,
      "fan": 1500,
      "njoy": 1501,
      "Ġtri": 1502,
      "Ġfair": 1503,
      "Ġmon": 1504,
      "onah": 1505,
      "Ġhouse": 1506,
      "Ġreal": 1507,
      "Ġwithin": 1508,
      "Ġnoticed": 1509,
      "ĠRe": 1510,
      "Ġdraw": 1511,
      "Ken": 1512,
      "_.": 1513,
      "but": 1514,
      "ck": 1515,
      "oved": 1516,
      "sp": 1517,
      "outh": 1518,
      "Ġlater": 1519,
      "Ġref": 1520,
      "ĠWhere": 1521,
      "right": 1522,
      "agic": 1523,
      "osed": 1524,
      "Ġgreen": 1525,
      "lias": 1526,
      "Ġcorner": 1527,
      "This": 1528,
      "Ġbelong": 1529,
      "Ġfriends": 1530,
      "iddle": 1531,
      "Ġreason": 1532,
      "..": 1533,
      "bit": 1534,
      "fect": 1535,
      "Ġwood": 1536,
      "Ġbak": 1537,
      "Ġbread": 1538,
      "Ġfe": 1539,
      "Ġname": 1540,
      "ĠĠĠĠĠ": 1541,
      "Ġalso": 1542,
      "ffee": 1543,
      "Ġtomorrow": 1544,
      "Mona": 1545,
      "Ġwhe": 1546,
      "Ġfact": 1547,
      "Ġlay": 1548,
      "eter": 1549,
      "ush": 1550,
      "usted": 1551,
      "Ġabove": 1552,
      "Ġremembered": 1553,
      "Ġreturn": 1554,
      "Ġpleasant": 1555,
      "Ġpiece": 1556,
      "And": 1557,
      "Is": 1558,
      "Jake": 1559,
      "Li": 1560,
      "Nina": 1561,
      "you": 1562,
      "rect": 1563,
      "ont": 1564,
      "Ġhoney": 1565,
      "Ġdri": 1566,
      "Ġoffer": 1567,
      "Ġrel": 1568,
      "Ġmoon": 1569,
      "Ġupon": 1570,
      "Ġcoll": 1571,
      "isten": 1572,
      "ĠDaddy": 1573,
      "ĠOh": 1574,
      "ĠJust": 1575,
      "Ġready": 1576,
      "gether": 1577,
      "Ġclean": 1578,
      "undred": 1579,
      "Ġarrived": 1580,
      "Ġsquare": 1581,
      "Ġidea": 1582,
      ".]": 1583,
      "pe": 1584,
      "Ġsle": 1585,
      "Ġpe": 1586,
      "aster": 1587,
      "urs": 1588,
      "urch": 1589,
      "Ġnotice": 1590,
      "agraph": 1591,
      "Ġchar": 1592,
      "olog": 1593,
      "Ġobject": 1594,
      "ugo": 1595,
      "Ste": 1596,
      "light": 1597,
      "ten": 1598,
      "Ġsil": 1599,
      "Ġbody": 1600,
      "Ġhar": 1601,
      "Ġhur": 1602,
      "Ġhundred": 1603,
      "Ġpap": 1604,
      "Ġint": 1605,
      "ames": 1606,
      "uring": 1607,
      "ulia": 1608,
      "ĠBecause": 1609,
      "Ġspoon": 1610,
      "Ġarg": 1611,
      "Ġusually": 1612,
      "Ġblack": 1613,
      "Ġdepends": 1614,
      "lephant": 1615,
      "Ġhistory": 1616,
      "Victor": 1617,
      "ial": 1618,
      "ipp": 1619,
      "ole": 1620,
      "inks": 1621,
      "rew": 1622,
      "itary": 1623,
      "Ġbro": 1624,
      "Ġcook": 1625,
      "Ġcup": 1626,
      "Ġlate": 1627,
      "Ġitself": 1628,
      "vered": 1629,
      "vel": 1630,
      "ĠSH": 1631,
      "ellow": 1632,
      "Ġmoved": 1633,
      "augh": 1634,
      "Ġcoffee": 1635,
      "resh": 1636,
      "Ġslight": 1637,
      "Ġbusy": 1638,
      "ĠCHI": 1639,
      "Ġmistake": 1640,
      "Ġlibrary": 1641,
      "Ġtravel": 1642,
      "Lena": 1643,
      "Rosa": 1644,
      "ring": 1645,
      "wo": 1646,
      "Ġ3": 1647,
      "Ġtable": 1648,
      "Ġsing": 1649,
      "Ġline": 1650,
      "Ġnice": 1651,
      "Ġele": 1652,
      "Ġstand": 1653,
      "ĠHave": 1654,
      "ages": 1655,
      "Ġexcept": 1656,
      "ĠEar": 1657,
      "Ġchild": 1658,
      "Ġval": 1659,
      "Ġsuch": 1660,
      "ucas": 1661,
      "Ġhands": 1662,
      "ubb": 1663,
      "Ġhappened": 1664,
      "Ġsentences": 1665,
      "ofia": 1666,
      "Ġimport": 1667,
      "Ġwaited": 1668,
      "Ġwriting": 1669,
      "Ġlarge": 1670,
      "ĠReally": 1671,
      "Ġoffered": 1672,
      "Tara": 1673,
      "Vera": 1674,
      "ax": 1675,
      "gy": 1676,
      "gar": 1677,
      "haps": 1678,
      "ric": 1679,
      "with": 1680,
      "inc": 1681,
      "Ġsense": 1682,
      "ath": 1683,
      "Ġfast": 1684,
      "Ġmen": 1685,
      "ash": 1686,
      "adger": 1687,
      "iday": 1688,
      "unt": 1689,
      "ĠHs": 1690,
      "Ġbutter": 1691,
      "Ġtimes": 1692,
      "erely": 1693,
      "Ġthank": 1694,
      "Ġsaying": 1695,
      "Ġblue": 1696,
      "Ġfollowing": 1697,
      "Ġclear": 1698,
      "Grace": 1699,
      "Stefan": 1700,
      "AN": 1701,
      "June": 1702,
      "When": 1703,
      "Wendy": 1704,
      "his": 1705,
      "oe": 1706,
      "iter": 1707,
      "Ġfew": 1708,
      "Ġmar": 1709,
      "Ġmiddle": 1710,
      "ester": 1711,
      "Ġinform": 1712,
      "Ġeff": 1713,
      "oment": 1714,
      "ote": 1715,
      "Ġstation": 1716,
      "kend": 1717,
      "ules": 1718,
      "elix": 1719,
      "Ġchurch": 1720,
      "Ġtrain": 1721,
      "avi": 1722,
      "avier": 1723,
      "Ġseen": 1724,
      "Ġseed": 1725,
      "Ġshel": 1726,
      "Ġcarried": 1727,
      "Ġweekend": 1728,
      "clock": 1729,
      "Ġproper": 1730,
      "Anna": 1731,
      "ĠMaybe": 1732,
      "adiya": 1733,
      "Ġtiny": 1734,
      "Yara": 1735,
      "aid": 1736,
      "ea": 1737,
      "ned": 1738,
      "Ġcat": 1739,
      "Ġmention": 1740,
      "anks": 1741,
      "ĠAre": 1742,
      "ĠNe": 1743,
      "Ġchap": 1744,
      "Ġlegs": 1745,
      "Ġcomment": 1746,
      "Ġphot": 1747,
      "Ġbooks": 1748,
      "Ġedges": 1749,
      "ĠExcuse": 1750,
      "Ġnumber": 1751,
      "Ġparagraph": 1752,
      ".)": 1753,
      "Here": 1754,
      "ien": 1755,
      "ling": 1756,
      "lara": 1757,
      "itc": 1758,
      "Ġbre": 1759,
      "Ġcool": 1760,
      "Ġcertain": 1761,
      "Ġhot": 1762,
      "ower": 1763,
      "idge": 1764,
      "Ġstorm": 1765,
      "aches": 1766,
      "ĠWell": 1767,
      "ĠEnjoy": 1768,
      "Ġchange": 1769,
      "Ġtrue": 1770,
      "Ġexplan": 1771,
      "Ġquestions": 1772,
      "Ġbirds": 1773,
      "ĠEarth": 1774,
      "Ethan": 1775,
      "Jonah": 1776,
      "Simon": 1777,
      "Sofia": 1778,
      "Xavier": 1779,
      "cise": 1780,
      "Ġcut": 1781,
      "Ġdeep": 1782,
      "Ġreg": 1783,
      "ĠSatur": 1784,
      "ĠBadger": 1785,
      "Ġeveryday": 1786,
      "ĠĠĠĠĠĠĠĠĠĠĠ": 1787,
      "ĠFirst": 1788,
      "Ġgoes": 1789,
      "Ġcorrect": 1790,
      "Ġexpress": 1791,
      "Ġskin": 1792,
      "ĠFriday": 1793,
      "Ġsummer": 1794,
      "ĠLeave": 1795,
      "Isla": 1796,
      "ĠSaturday": 1797,
      "But": 1798,
      "Ruth": 1799,
      "Sam": 1800,
      "That": 1801,
      "ived": 1802,
      "liver": 1803,
      "vy": 1804,
      "Ġter": 1805,
      "Ġtree": 1806,
      "ative": 1807,
      "Ġfresh": 1808,
      "Ġmis": 1809,
      "Ġpick": 1810,
      "Ġthous": 1811,
      "Ġlove": 1812,
      "Ġeas": 1813,
      "Ġheart": 1814,
      "ĠSund": 1815,
      "Ġnote": 1816,
      "unch": 1817,
      "Ġsand": 1818,
      "ape": 1819,
      "ours": 1820,
      "Ġplain": 1821,
      "Ġagree": 1822,
      "ief": 1823,
      "Ġbegan": 1824,
      "ainted": 1825,
      "Ġshowed": 1826,
      "scar": 1827,
      "Ġdirect": 1828,
      "Ġphotog": 1829,
      "ĠSunday": 1830,
      "Dana": 1831,
      "Elias": 1832,
      "Now": 1833,
      "ey": 1834,
      "face": 1835,
      "me": 1836,
      "ying": 1837,
      "Ġwise": 1838,
      "Ġhigh": 1839,
      "esday": 1840,
      "Ġtogether": 1841,
      "Ġstud": 1842,
      "Ġrequ": 1843,
      "Ġrepl": 1844,
      "ument": 1845,
      "Ġsold": 1846,
      "Ġexam": 1847,
      "ĠEasy": 1848,
      "ĠElephant": 1849,
      "elen": 1850,
      "Ġchain": 1851,
      "ĠFor": 1852,
      "Ġsugar": 1853,
      "Ġmornings": 1854,
      "Ġscr": 1855,
      "Ġstret": 1856,
      "Ġsecre": 1857,
      "Ġswim": 1858,
      "Maria": 1859,
      "----------------": 1860,
      "Noah": 1861,
      "Ġeggs": 1862,
      "Ġimportant": 1863,
      "If": 1864,
      "Iris": 1865,
      "Lucas": 1866,
      "Omar": 1867,
      "oice": 1868,
      "wen": 1869,
      "was": 1870,
      "Ġsign": 1871,
      "Ġfish": 1872,
      "Ġmoment": 1873,
      "Ġpict": 1874,
      "ased": 1875,
      "Ġeight": 1876,
      "omm": 1877,
      "seum": 1878,
      "Ġstate": 1879,
      "Ġkitc": 1880,
      "Ġfront": 1881,
      "ĠYu": 1882,
      "Ġalmost": 1883,
      "ĠDo": 1884,
      "Ġmuseum": 1885,
      "Ġattack": 1886,
      "Ġindeed": 1887,
      "Thank": 1888,
      "Ġmilk": 1889,
      "Paula": 1890,
      "Ġdirection": 1891,
      "Ġanimals": 1892,
      "Ġharbor": 1893,
      "Ġslightly": 1894,
      "Ġkitchen": 1895,
      "Henry": 1896,
      "Helen": 1897,
      "Oliver": 1898,
      "Oscar": 1899,
      "Tom": 1900,
      "There": 1901,
      "ef": 1902,
      "Ġsnow": 1903,
      "Ġbat": 1904,
      "Ġmight": 1905,
      "Ġmaking": 1906,
      "Ġposs": 1907,
      "Ġgu": 1908,
      "Ġgive": 1909,
      "aces": 1910,
      "Ġlived": 1911,
      "ĠMe": 1912,
      "ife": 1913,
      "ump": 1914,
      "ushed": 1915,
      "ably": 1916,
      "Ġsmo": 1917,
      "avy": 1918,
      "iew": 1919,
      "Ġdef": 1920,
      "Ġcalling": 1921,
      "ĠNothing": 1922,
      "Ġasked": 1923,
      "Ġwriter": 1924,
      "Ġbelonged": 1925,
      "esterday": 1926,
      "Felix": 1927,
      "Ravi": 1928,
      "dam": 1929,
      "land": 1930,
      "su": 1931,
      "Ġ4": 1932,
      "ined": 1933,
      "Ġwatch": 1934,
      "ited": 1935,
      "Ġbad": 1936,
      "Ġbott": 1937,
      "Ġcaught": 1938,
      "arrow": 1939,
      "Ġequ": 1940,
      "ĠTake": 1941,
      "Ġisn": 1942,
      "ets": 1943,
      "ached": 1944,
      "used": 1945,
      "Ġplans": 1946,
      "ateful": 1947,
      "ocks": 1948,
      "Ġago": 1949,
      "Ġworked": 1950,
      "selves": 1951,
      "ĠKing": 1952,
      "Ġinstead": 1953,
      "Ġtrees": 1954,
      "Ġwonder": 1955,
      "How": 1956,
      "Nora": 1957,
      "Uma": 1958,
      "aut": 1959,
      "aight": 1960,
      "ib": 1961,
      "king": 1962,
      "ted": 1963,
      "uct": 1964,
      "Ġ5": 1965,
      "Ġtem": 1966,
      "Ġsy": 1967,
      "Ġhat": 1968,
      "Ġhop": 1969,
      "Ġpol": 1970,
      "Ġlamp": 1971,
      "Ġyesterday": 1972,
      "Ġwhite": 1973,
      "Ġrice": 1974,
      "ĠSomet": 1975,
      "ĠAt": 1976,
      "ĠAfter": 1977,
      "Ġhair": 1978,
      "ĠMagic": 1979,
      "Ġext": 1980,
      "ĠEach": 1981,
      "eps": 1982,
      "uses": 1983,
      "ĠYears": 1984,
      "aste": 1985,
      "essa": 1986,
      "ement": 1987,
      "Ġgray": 1988,
      "Ġground": 1989,
      "Ġeng": 1990,
      "Ġstraight": 1991,
      "airs": 1992,
      "Ġstopped": 1993,
      "Ġevening": 1994,
      "Ġsky": 1995,
      "Ġdistance": 1996,
      "Ġjob": 1997,
      "Ġmonth": 1998,
      "Hugo": 1999,
      "Kate": 2000,
      "awn": 2001,
      "Ġwatched": 2002,
      "Ġbit": 2003,
      "ided": 2004,
      "urp": 2005,
      "Ġspee": 2006,
      "Ġgrateful": 2007,
      "ĠChild": 2008,
      "pty": 2009,
      "Ġboat": 2010,
      "Ġglass": 2011,
      "otten": 2012,
      "Ġwinter": 2013,
      "Ġpaper": 2014,
      "Ġexplanations": 2015,
      "So": 2016,
      "Ġfree": 2017,
      "Ġfarm": 2018,
      "orn": 2019,
      "ars": 2020,
      "ese": 2021,
      "Ġthin": 2022,
      "Ġones": 2023,
      "ider": 2024,
      "Ġstead": 2025,
      "ury": 2026,
      "Ġmem": 2027,
      "aken": 2028,
      "ately": 2029,
      "hered": 2030,
      "ĠMost": 2031,
      "Ġsteps": 2032,
      "uby": 2033,
      "Ġreply": 2034,
      "Ġexpected": 2035,
      "Ġwaiting": 2036,
      "Ġmilitary": 2037,
      "Ġimag": 2038,
      "Ġstrangers": 2039,
      "Ġphotograph": 2040,
      "Hana": 2041,
      "Let": 2042,
      "Nadiya": 2043,
      "Owen": 2044,
      "eor": 2045,
      "ze": 2046,
      "Ġtur": 2047,
      "head": 2048,
      "oub": 2049,
      "atoes": 2050,
      "Ġfav": 2051,
      "eng": 2052,
      "ani": 2053,
      "Ġoften": 2054,
      "Ġyard": 2055,
      "Ġran": 2056,
      "Ġrather": 2057,
      "eeper": 2058,
      "riya": 2059,
      "Ġmove": 2060,
      "ĠNear": 2061,
      "Ġyourself": 2062,
      "Ġtrusted": 2063,
      "Ġleast": 2064,
      "osition": 2065,
      "Ġproud": 2066,
      "Ġclose": 2067,
      "Ġserious": 2068,
      "Ġempty": 2069,
      "Ġsinc": 2070,
      "Ġforgotten": 2071,
      "Ġsingle": 2072,
      "Ġspeech": 2073,
      "eorge": 2074,
      "Dear": 2075,
      "Julia": 2076,
      "Le": 2077,
      "Pr": 2078,
      "Zoe": 2079,
      "uis": 2080,
      "inally": 2081,
      "Ġbag": 2082,
      "Ġface": 2083,
      "Ġcap": 2084,
      "orth": 2085,
      "Ġpress": 2086,
      "Ġdam": 2087,
      "owl": 2088,
      "owed": 2089,
      "ĠTs": 2090,
      "Ġred": 2091,
      "oop": 2092,
      "Ġrough": 2093,
      "unity": 2094,
      "ilt": 2095,
      "ĠCould": 2096,
      "ific": 2097,
      "Ġsoil": 2098,
      "Ġspec": 2099,
      "Ġcond": 2100,
      "Ġart": 2101,
      "Ġtwenty": 2102,
      "Ġgold": 2103,
      "Ġbridge": 2104,
      "Ġwrite": 2105,
      "ĠKung": 2106,
      "Ġproble": 2107,
      "Ġuseful": 2108,
      "Ġplease": 2109,
      "Ġsubject": 2110,
      "Ġpractice": 2111,
      "Ġapolog": 2112,
      "Ġbakery": 2113,
      "Liam": 2114,
      "Ġchildren": 2115,
      "ĠSometimes": 2116,
      "aniel": 2117,
      "Ġproblem": 2118,
      "Adam": 2119,
      "Clara": 2120,
      "Yours": 2121,
      "iod": 2122,
      "over": 2123,
      "there": 2124,
      "Ġtou": 2125,
      "inning": 2126,
      "its": 2127,
      "Ġcross": 2128,
      "Ġdin": 2129,
      "Ġlost": 2130,
      "ask": 2131,
      "Ġinc": 2132,
      "owers": 2133,
      "Ġeat": 2134,
      "Ġeither": 2135,
      "icks": 2136,
      "ĠHo": 2137,
      "umn": 2138,
      "angu": 2139,
      "isha": 2140,
      "Ġener": 2141,
      "Ġremain": 2142,
      "ipe": 2143,
      "Ġparts": 2144,
      "Ġpartic": 2145,
      "ummy": 2146,
      "Ġsurv": 2147,
      "proof": 2148,
      "Ġfriend": 2149,
      "Ġunderstanding": 2150,
      "Ġtalking": 2151,
      "Chris": 2152,
      "Ġsincerely": 2153,
      "Al": 2154,
      "Aisha": 2155,
      "Dora": 2156,
      "Every": 2157,
      "Emma": 2158,
      "May": 2159,
      "We": 2160,
      "What": 2161,
      "by": 2162,
      "bers": 2163,
      "ced": 2164,
      "ken": 2165,
      "uar": 2166,
      "Ġsight": 2167,
      "Ġwet": 2168,
      "ities": 2169,
      "Ġbatter": 2170,
      "ises": 2171,
      "Ġfight": 2172,
      "Ġmix": 2173,
      "Ġhill": 2174,
      "Ġlad": 2175,
      "Ġlunch": 2176,
      "ldest": 2177,
      "ime": 2178,
      "ĠSea": 2179,
      "ĠAl": 2180,
      "ĠAmma": 2181,
      "illage": 2182,
      "ĠPau": 2183,
      "ĠLi": 2184,
      "Ġusual": 2185,
      "Ġstrong": 2186,
      "ormal": 2187,
      "Ġapples": 2188,
      "Ġtext": 2189,
      "Ġdisc": 2190,
      "Ġmaybe": 2191,
      "ized": 2192,
      "Ġreport": 2193,
      "Ġentire": 2194,
      "ĠFrom": 2195,
      "Ġconfuse": 2196,
      "Ġsleep": 2197,
      "Ġvalue": 2198,
      "Lily": 2199,
      "Mark": 2200,
      "Tessa": 2201,
      "rom": 2202,
      "yn": 2203,
      "Ġtall": 2204,
      "Ġocc": 2205,
      "Ġbed": 2206,
      "Ġbowl": 2207,
      "Ġmach": 2208,
      "Ġpin": 2209,
      "Ġdust": 2210,
      "Ġduring": 2211,
      "Ġdeeper": 2212,
      "Ġthird": 2213,
      "Ġrece": 2214,
      "ented": 2215,
      "Ġheavy": 2216,
      "Ġrule": 2217,
      "amel": 2218,
      "ĠBest": 2219,
      "uss": 2220,
      "eloved": 2221,
      "avid": 2222,
      "Ġclock": 2223,
      "Ġcloud": 2224,
      "Ġbrought": 2225,
      "Ġgrew": 2226,
      "Ġgreet": 2227,
      "Ġappre": 2228,
      "Ġhappens": 2229,
      "Ġperiod": 2230,
      "Ġletter": 2231,
      "ĠMagician": 2232,
      "Maya": 2233,
      "Daniel": 2234,
      "EN": 2235,
      "Ella": 2236,
      "cess": 2237,
      "Ġsort": 2238,
      "ators": 2239,
      "Ġbes": 2240,
      "Ġfill": 2241,
      "Ġfix": 2242,
      "Ġmain": 2243,
      "Ġmountain": 2244,
      "Ġmouth": 2245,
      "Ġpatter": 2246,
      "Ġpurp": 2247,
      "Ġdue": 2248,
      "Ġlow": 2249,
      "ute": 2250,
      "Ġstone": 2251,
      "acy": 2252,
      "ĠShe": 2253,
      "ĠAround": 2254,
      "ĠMu": 2255,
      "ĠMan": 2256,
      "ĠHis": 2257,
      "aguar": 2258,
      "ĠEldest": 2259,
      "roc": 2260,
      "els": 2261,
      "Ġtry": 2262,
      "Ġquot": 2263,
      "They": 2264,
      "Ġoutside": 2265,
      "Ġthemselves": 2266,
      "Ġtwice": 2267,
      "ĠFinally": 2268,
      "Ġafterwards": 2269,
      ".\"]": 2270,
      "Ġbecome": 2271,
      "Ġsimpler": 2272,
      "Ġsomeone": 2273,
      "Ġfindings": 2274,
      "Ġweatherproof": 2275,
      "ĠOne": 2276,
      "Ġbuild": 2277,
      "Steps": 2278,
      "Ġmeasure": 2279,
      "Ġgiven": 2280,
      "ranger": 2281,
      "incip": 2282,
      "Ġfavor": 2283,
      "Leo": 2284,
      "Ġenergy": 2285,
      "00": 2286,
      "Not": 2287,
      "Priya": 2288,
      "gre": 2289,
      "under": 2290,
      "Ġtried": 2291,
      "Ġsn": 2292,
      "Ġsoup": 2293,
      "ouble": 2294,
      "Ġbright": 2295,
      "Ġfence": 2296,
      "Ġcal": 2297,
      "Ġcity": 2298,
      "Ġmoney": 2299,
      "Ġhope": 2300,
      "Ġlocal": 2301,
      "Ġlangu": 2302,
      "ĠTr": 2303,
      "omes": 2304,
      "Ġass": 2305,
      "Ġhaving": 2306,
      "ĠHere": 2307,
      "Ġdoing": 2308,
      "ests": 2309,
      "Ġspe": 2310,
      "Ġtrick": 2311,
      "Ġvoice": 2312,
      "itten": 2313,
      "eopard": 2314,
      "Ġcommon": 2315,
      "Ġfamily": 2316,
      "ĠPerhaps": 2317,
      "Ġfeet": 2318,
      "Ġshelf": 2319,
      "Ġbottom": 2320,
      "ynast": 2321,
      "Ivy": 2322,
      "Ruby": 2323,
      "Why": 2324,
      "ls": 2325,
      "mb": 2326,
      "mer": 2327,
      "uce": 2328,
      "Ġes": 2329,
      "Ġ--": 2330,
      "ream": 2331,
      "ances": 2332,
      "Ġpool": 2333,
      "ĠTwo": 2334,
      "irty": 2335,
      "ection": 2336,
      "ended": 2337,
      "itting": 2338,
      "action": 2339,
      "Ġlooks": 2340,
      "Ġroll": 2341,
      "Ġfollowed": 2342,
      "uthor": 2343,
      "ĠTuesday": 2344,
      "ĠNext": 2345,
      "Ġeasier": 2346,
      "Ġimagine": 2347,
      "Ġdinner": 2348,
      "Alice": 2349,
      "As": 2350,
      "UAN": 2351,
      "Zane": 2352,
      "auses": 2353,
      "hill": 2354,
      "hog": 2355,
      "pers": 2356,
      "¿½": 2357,
      "ï¿½": 2358,
      "Ġ6": 2359,
      "Ġoil": 2360,
      "Ġbar": 2361,
      "Ġbur": 2362,
      "orry": 2363,
      "inger": 2364,
      "Ġmag": 2365,
      "edi": 2366,
      "Ġdrew": 2367,
      "Ġgave": 2368,
      "ident": 2369,
      "Ġheard": 2370,
      "Ġmeant": 2371,
      "ĠMummy": 2372,
      "ĠHu": 2373,
      "rod": 2374,
      "ĠYes": 2375,
      "Ġchang": 2376,
      "Ġspear": 2377,
      "Ġconc": 2378,
      "Ġlead": 2379,
      "ĠLu": 2380,
      "ĠLeopard": 2381,
      "Ġlikely": 2382,
      "Ġcompl": 2383,
      "Ġvillage": 2384,
      "ĠDon": 2385,
      "Ġagre": 2386,
      "Ġflour": 2387,
      "Ġolder": 2388,
      "Ġdidn": 2389,
      "Ġshell": 2390,
      "ips": 2391,
      "ĠJaguar": 2392,
      "Ġmostly": 2393,
      "Ġseems": 2394,
      "Ġsometimes": 2395,
      "ngth": 2396,
      "Ġcompany": 2397,
      "Ġbuilt": 2398,
      "Ġvisited": 2399,
      "ĠWho": 2400,
      "Ġbreak": 2401,
      "Ġsecrets": 2402,
      "==": 2403,
      "ged": 2404,
      "no": 2405,
      "rit": 2406,
      "wor": 2407,
      "Ġir": 2408,
      "Ġsorry": 2409,
      "nday": 2410,
      "Ġbreat": 2411,
      "Ġfre": 2412,
      "Ġcause": 2413,
      "Ġcried": 2414,
      "Ġpaw": 2415,
      "Ġdynast": 2416,
      "aded": 2417,
      "aced": 2418,
      "Ġrev": 2419,
      "ards": 2420,
      "Ġexer": 2421,
      "Ġexist": 2422,
      "ushes": 2423,
      "Ġwhose": 2424,
      "Ġnose": 2425,
      "ĠRiver": 2426,
      "osing": 2427,
      "Ġprincip": 2428,
      "Ġwrote": 2429,
      "ĠMonday": 2430,
      "gehog": 2431,
      "Ġamount": 2432,
      "ictory": 2433,
      "Ġdisco": 2434,
      "iously": 2435,
      "Ġimpro": 2436,
      "Ġcommunity": 2437,
      "Ġcheese": 2438,
      "ĠEveryone": 2439,
      "Ġfinish": 2440,
      "dden": 2441,
      "Ġpulled": 2442,
      "aughter": 2443,
      "Ġeffect": 2444,
      "Ġpattern": 2445,
      ");": 2446,
      "II": 2447,
      "Peter": 2448,
      "bot": 2449,
      "cri": 2450,
      "fort": 2451,
      "pect": 2452,
      "Ġ|": 2453,
      "oured": 2454,
      "itions": 2455,
      "isible": 2456,
      "ened": 2457,
      "Ġmus": 2458,
      "arp": 2459,
      "Ġhor": 2460,
      "Ġlinks": 2461,
      "verb": 2462,
      "Ġrhy": 2463,
      "ĠSl": 2464,
      "Ġant": 2465,
      "ceed": 2466,
      "ained": 2467,
      "ume": 2468,
      "ĠYour": 2469,
      "Ġspring": 2470,
      "Ġleave": 2471,
      "ĠDan": 2472,
      "ples": 2473,
      "Ġclim": 2474,
      "Ġflowers": 2475,
      "Ġdrink": 2476,
      "Ġothers": 2477,
      "Ġfold": 2478,
      "Ġminute": 2479,
      "Ġdefe": 2480,
      "udd": 2481,
      "Ġteaches": 2482,
      "Ġgreatest": 2483,
      "Ġfinding": 2484,
      "Ġperfect": 2485,
      "Ġsurface": 2486,
      "Ġpoints": 2487,
      "Ġpatience": 2488,
      "Ġhonestly": 2489,
      "Ġanimal": 2490,
      "Ġapart": 2491,
      "Ġmeasures": 2492,
      "Ġsmelled": 2493,
      "Ġwooden": 2494,
      "ursday": 2495,
      "Ġpicture": 2496,
      "Prickly": 2497,
      "Ġappreci": 2498,
      "rocod": 2499,
      "George": 2500,
      "Luis": 2501,
      "bed": 2502,
      "bar": 2503,
      "net": 2504,
      "ron": 2505,
      "uit": 2506,
      "Ġtail": 2507,
      "Ġaut": 2508,
      "iness": 2509,
      "Ġwon": 2510,
      "Ġfur": 2511,
      "orto": 2512,
      "ene": 2513,
      "Ġlaw": 2514,
      "Ġliter": 2515,
      "icy": 2516,
      "see": 2517,
      "Ġstir": 2518,
      "Ġrock": 2519,
      "alls": 2520,
      "ĠSimp": 2521,
      "Ġanc": 2522,
      "thm": 2523,
      "Ġhabit": 2524,
      "ility": 2525,
      "Ġneither": 2526,
      "ĠMy": 2527,
      "elling": 2528,
      "Ġsol": 2529,
      "ĠRead": 2530,
      "emon": 2531,
      "Ġcover": 2532,
      "Ġvi": 2533,
      "arent": 2534,
      "Ġsudden": 2535,
      "Ġclosed": 2536,
      "ĠThursday": 2537,
      "venience": 2538,
      "Ġsever": 2539,
      "Ġ19": 2540,
      "Ġunbot": 2541,
      "Ġcarp": 2542,
      "Ġforms": 2543,
      "Ġrecomm": 2544,
      "Ġwalls": 2545,
      "Ġopening": 2546,
      "Ġfamous": 2547,
      "Ġpractical": 2548,
      "Ġcollect": 2549,
      "ĠSHI": 2550,
      "Ġthousand": 2551,
      "Ġsteady": 2552,
      "Ġparticular": 2553,
      "Ġunbothered": 2554,
      "James": 2555,
      "Qu": 2556,
      "Rose": 2557,
      "can": 2558,
      "ches": 2559,
      "iop": 2560,
      "ple": 2561,
      "Ġtick": 2562,
      "Ġtaste": 2563,
      "atic": 2564,
      "Ġbank": 2565,
      "ised": 2566,
      "Ġhung": 2567,
      "Ġtoward": 2568,
      "Ġpan": 2569,
      "Ġlau": 2570,
      "ases": 2571,
      "Ġins": 2572,
      "Ġbend": 2573,
      "tern": 2574,
      "thiop": 2575,
      "Ġlive": 2576,
      "ĠCon": 2577,
      "Ġworse": 2578,
      "aped": 2579,
      "ĠBeloved": 2580,
      "Ġyours": 2581,
      "Ġtrans": 2582,
      "Ġquick": 2583,
      "ables": 2584,
      "Ġprice": 2585,
      "Ġproof": 2586,
      "Ġprices": 2587,
      "ively": 2588,
      "Ġanyway": 2589,
      "irect": 2590,
      "Ġwritten": 2591,
      "armacy": 2592,
      "Ġamong": 2593,
      "Ġ13": 2594,
      "Ġattend": 2595,
      "pens": 2596,
      "Ġdeliver": 2597,
      "Ġinterest": 2598,
      "Ġlesson": 2599,
      "Ġstretched": 2600,
      "Ġrhythm": 2601,
      "thiopian": 2602,
      "Well": 2603,
      "az": 2604,
      "book": 2605,
      "fl": 2606,
      "ives": 2607,
      "lic": 2608,
      "pre": 2609,
      "uff": 2610,
      "uction": 2611,
      "Ġ8": 2612,
      "Ġauthor": 2613,
      "inal": 2614,
      "ishing": 2615,
      "Ġincon": 2616,
      "Ġyellow": 2617,
      "Ġnarrow": 2618,
      "stood": 2619,
      "stant": 2620,
      "Ġbeat": 2621,
      "Ġstri": 2622,
      "Ġstore": 2623,
      "app": 2624,
      "ĠEthiopian": 2625,
      "ustom": 2626,
      "Ġtrouble": 2627,
      "Ġnoise": 2628,
      "Ġkey": 2629,
      "Ġbecomes": 2630,
      "Ġgets": 2631,
      "Ġdownhill": 2632,
      "Ġbox": 2633,
      "Ġformal": 2634,
      "Ġpharmacy": 2635,
      "ĠShop": 2636,
      "Ġcrushed": 2637,
      "One": 2638,
      "Ġaccount": 2639,
      "Ġpresent": 2640,
      "Ġtrip": 2641,
      "Ġelect": 2642,
      "Ġreplied": 2643,
      "Ġsmooth": 2644,
      "Ġtemper": 2645,
      "Ġappreciate": 2646,
      "rocodile": 2647,
      "For": 2648,
      "Mia": 2649,
      "af": 2650,
      "house": 2651,
      "ior": 2652,
      "ming": 2653,
      "men": 2654,
      "night": 2655,
      "tr": 2656,
      "ugg": 2657,
      "Ġtired": 2658,
      "Ġtaken": 2659,
      "inn": 2660,
      "Ġsim": 2661,
      "Ġopp": 2662,
      "ision": 2663,
      "Ġfun": 2664,
      "Ġfountain": 2665,
      "Ġcart": 2666,
      "Ġcase": 2667,
      "Ġmess": 2668,
      "Ġhole": 2669,
      "Ġpay": 2670,
      "Ġdear": 2671,
      "Ġdate": 2672,
      "Ġdoub": 2673,
      "Ġthick": 2674,
      "Ġlisten": 2675,
      "Ġincl": 2676,
      "stem": 2677,
      "Ġbead": 2678,
      "Ġbeaut": 2679,
      "idy": 2680,
      "Ġheld": 2681,
      "Ġrules": 2682,
      "Ġann": 2683,
      "ĠWood": 2684,
      "ĠAh": 2685,
      "ĠAdd": 2686,
      "ctor": 2687,
      "apor": 2688,
      "aged": 2689,
      "acked": 2690,
      "Ġsure": 2691,
      "Ġsugg": 2692,
      "ĠChines": 2693,
      "Ġmud": 2694,
      "Ġrose": 2695,
      "ĠKeep": 2696,
      "Ġcontact": 2697,
      "Ġglad": 2698,
      "Ġprep": 2699,
      "Ġdesk": 2700,
      "Ġwanted": 2701,
      "Ġrunning": 2702,
      "Ġcentury": 2703,
      "Ġdropped": 2704,
      "Ġcolor": 2705,
      "Ġforest": 2706,
      "Ġargue": 2707,
      "Ġbroken": 2708,
      "Ġcertainly": 2709,
      "Ġbattle": 2710,
      "Everyone": 2711,
      "Ġdiscuss": 2712,
      "Ġpurpose": 2713,
      "ortoise": 2714,
      "ĠChinese": 2715,
      "'_": 2716,
      "Max": 2717,
      "UNG": 2718,
      "dom": 2719,
      "eal": 2720,
      "ghed": 2721,
      "ms": 2722,
      "nake": 2723,
      "tter": 2724,
      "va": 2725,
      "what": 2726,
      "zz": 2727,
      "Ġ9": 2728,
      "Ġaw": 2729,
      "Ġsell": 2730,
      "Ġsus": 2731,
      "ering": 2732,
      "ator": 2733,
      "Ġfine": 2734,
      "Ġfail": 2735,
      "Ġcake": 2736,
      "ingo": 2737,
      "Ġmap": 2738,
      "Ġpushes": 2739,
      "Ġyoung": 2740,
      "ution": 2741,
      "iraff": 2742,
      "ĠAr": 2743,
      "though": 2744,
      "Ġworry": 2745,
      "Ġfruit": 2746,
      "Ġexc": 2747,
      "Ġeverywhere": 2748,
      "Ġtrail": 2749,
      "ĠPainted": 2750,
      "Ġvictory": 2751,
      "Ġwhenever": 2752,
      "aving": 2753,
      "Ġuses": 2754,
      "oles": 2755,
      "Ġhowever": 2756,
      "Ġflood": 2757,
      "ĠThanks": 2758,
      "Ġbecame": 2759,
      "Ġseas": 2760,
      "ĠGive": 2761,
      "Ġkeeping": 2762,
      "Ġfox": 2763,
      "Ġsched": 2764,
      "ording": 2765,
      "ĠStickly": 2766,
      "Ġnews": 2767,
      "Ġdoesn": 2768,
      "Ġstopping": 2769,
      "Ġphone": 2770,
      "Ġdesp": 2771,
      "Ġrecord": 2772,
      "Ġinstr": 2773,
      "ĠVery": 2774,
      "Ġpath": 2775,
      "ĠUn": 2776,
      "Ġbeginning": 2777,
      "Ġsupper": 2778,
      "Ġforgot": 2779,
      "Ġplants": 2780,
      "Ġwhether": 2781,
      "Ġobjects": 2782,
      "Ġhurry": 2783,
      "ĠSHU": 2784,
      "ubbles": 2785,
      "Ġchapters": 2786,
      "Ġlanguage": 2787,
      "Ġexercise": 2788,
      "ĠReading": 2789,
      "iraffe": 2790,
      ").": 2791,
      "fic": 2792,
      "hod": 2793,
      "ike": 2794,
      "mist": 2795,
      "vo": 2796,
      "Ġ7": 2797,
      "ĠZ": 2798,
      "Ġill": 2799,
      "ati": 2800,
      "Ġfif": 2801,
      "Ġmill": 2802,
      "aring": 2803,
      "ones": 2804,
      "Ġtool": 2805,
      "Ġlo": 2806,
      "Ġlist": 2807,
      "Ġloud": 2808,
      "Ġgas": 2809,
      "Ġgent": 2810,
      "iding": 2811,
      "acing": 2812,
      "ĠWith": 2813,
      "ĠAct": 2814,
      "ains": 2815,
      "Ġliving": 2816,
      "Ġshr": 2817,
      "Ġdoc": 2818,
      "iful": 2819,
      "Ġplaces": 2820,
      "ession": 2821,
      "Ġalone": 2822,
      "Ġcomes": 2823,
      "ĠDid": 2824,
      "ĠDingo": 2825,
      "Ġanywhere": 2826,
      "oloured": 2827,
      "ieve": 2828,
      "they": 2829,
      "anked": 2830,
      "Ġ18": 2831,
      "Ġherbs": 2832,
      "ude": 2833,
      "Ġweeks": 2834,
      "order": 2835,
      "Ġsideways": 2836,
      "ival": 2837,
      "Ġcheck": 2838,
      "Ġarrive": 2839,
      "Ġdeli": 2840,
      "Ġlarger": 2841,
      "Ġactually": 2842,
      "Ġcountry": 2843,
      "Ġproperly": 2844,
      "Ġwonderful": 2845,
      "Ġpressure": 2846,
      "ĠSlow": 2847,
      "ĠSHIH": 2848,
      "Do": 2849,
      "David": 2850,
      "cul": 2851,
      "ebr": 2852,
      "fric": 2853,
      "him": 2854,
      "ih": 2855,
      "ially": 2856,
      "ny": 2857,
      "ners": 2858,
      "pris": 2859,
      "said": 2860,
      "ued": 2861,
      "uly": 2862,
      "vice": 2863,
      "yard": 2864,
      "ĠQu": 2865,
      "Ġtreat": 2866,
      "Ġaff": 2867,
      "inary": 2868,
      "Ġss": 2869,
      "Ġbri": 2870,
      "Ġbubbles": 2871,
      "Ġmot": 2872,
      "Ġdiv": 2873,
      "Ġthirty": 2874,
      "ĠTell": 2875,
      "icated": 2876,
      "sect": 2877,
      "this": 2878,
      "unk": 2879,
      "ilar": 2880,
      "ching": 2881,
      "room": 2882,
      "Ġord": 2883,
      "elf": 2884,
      "Ġchance": 2885,
      "Ġspo": 2886,
      "Ġknown": 2887,
      "Ġknife": 2888,
      "Ġcomb": 2889,
      "Ġcoming": 2890,
      "Ġprom": 2891,
      "ittee": 2892,
      "Ġgover": 2893,
      "Ġpoem": 2894,
      "Ġknows": 2895,
      "Ġprob": 2896,
      "ĠStranger": 2897,
      "Ġhardest": 2898,
      "Ġearli": 2899,
      "Ġserve": 2900,
      "ĠCHUAN": 2901,
      "ĠShould": 2902,
      "Ġholds": 2903,
      "Ġholding": 2904,
      "Ġpatient": 2905,
      "anced": 2906,
      "Ġdelay": 2907,
      "Nobody": 2908,
      "Ġfinally": 2909,
      "Ġmeeting": 2910,
      "Ġstayed": 2911,
      "...": 2912,
      "Ġintrod": 2913,
      "Ġswimming": 2914,
      "Ġsystem": 2915,
      "Ġagreed": 2916,
      "Ġancient": 2917,
      "Ġseveral": 2918,
      "By": 2919,
      "Un": 2920,
      "fast": 2921,
      "gr": 2922,
      "lace": 2923,
      "ract": 2924,
      "sm": 2925,
      "ser": 2926,
      "Ġest": 2927,
      "Ġtakes": 2928,
      "Ġwit": 2929,
      "ato": 2930,
      "ital": 2931,
      "Ġbicy": 2932,
      "ishes": 2933,
      "Ġcir": 2934,
      "Ġcell": 2935,
      "Ġcand": 2936,
      "aries": 2937,
      "Ġhall": 2938,
      "Ġinsp": 2939,
      "Ġinsect": 2940,
      "owing": 2941,
      "omp": 2942,
      "oman": 2943,
      "stit": 2944,
      "adow": 2945,
      "Ġhed": 2946,
      "Ġwhate": 2947,
      "Ġra": 2948,
      "irm": 2949,
      "amed": 2950,
      "ĠSure": 2951,
      "Ġliqu": 2952,
      "Ġshape": 2953,
      "ĠCrocodile": 2954,
      "ĠMorning": 2955,
      "Ġweak": 2956,
      "Ġspent": 2957,
      "ĠRosa": 2958,
      "ĠPar": 2959,
      "Ġcomfort": 2960,
      "Ġthanks": 2961,
      "olid": 2962,
      "Ġgetting": 2963,
      "Ġ14": 2964,
      "Ġfoot": 2965,
      "ĠJune": 2966,
      "Ġdiffic": 2967,
      "Ġasking": 2968,
      "ĠState": 2969,
      "Ġreading": 2970,
      "like": 2971,
      "clus": 2972,
      "Ġhardly": 2973,
      "Ġcarefully": 2974,
      "Ġwarning": 2975,
      "ĠOnce": 2976,
      "Ġfamil": 2977,
      "Ġmetal": 2978,
      "Ġvisitors": 2979,
      "ĠPerfect": 2980,
      "Ġpeace": 2981,
      "Ġexpression": 2982,
      "Ġengine": 2983,
      "Ġroughly": 2984,
      "Ġbeside": 2985,
      "ĠTrue": 2986,
      "Ġdiscovered": 2987,
      "Ġwhatever": 2988,
      "Ġliquid": 2989,
      "Ben": 2990,
      "Solid": 2991,
      "bo": 2992,
      "dis": 2993,
      "oors": 2994,
      "ollow": 2995,
      "tled": 2996,
      "uan": 2997,
      "uation": 2998,
      "vious": 2999,
      "your": 3000,
      "ination": 3001,
      "Ġsitting": 3002,
      "erve": 3003,
      "eros": 3004,
      "rent": 3005,
      "Ġcrow": 3006,
      "antern": 3007,
      "Ġpub": 3008,
      "Ġpaint": 3009,
      "Ġled": 3010,
      "Ġlaugh": 3011,
      "Ġnatur": 3012,
      "ically": 3013,
      "Ġgame": 3014,
      "Ġgently": 3015,
      "ays": 3016,
      "idence": 3017,
      "idered": 3018,
      "sequ": 3019,
      "Ġforty": 3020,
      "ĠSay": 3021,
      "ĠSec": 3022,
      "ĠWild": 3023,
      "ĠAfric": 3024,
      "unct": 3025,
      "Ġworn": 3026,
      "ribe": 3027,
      "Ġmoder": 3028,
      "apped": 3029,
      "Ġket": 3030,
      "Ġable": 3031,
      "Ġspend": 3032,
      "Ġspread": 3033,
      "Ġquar": 3034,
      "Ġquiz": 3035,
      "Ġconqu": 3036,
      "Ġcovered": 3037,
      "Ġgroup": 3038,
      "Ġcomma": 3039,
      "Ġvar": 3040,
      "oses": 3041,
      "Ġprin": 3042,
      "Ġsucc": 3043,
      "ĠThus": 3044,
      "arah": 3045,
      "Ġdead": 3046,
      "Ġappear": 3047,
      "Ġhappy": 3048,
      "Ġtells": 3049,
      "ĠStalls": 3050,
      "Ġsurpris": 3051,
      "Ġstreets": 3052,
      "Ġresume": 3053,
      "ĠAsking": 3054,
      "ĠExactly": 3055,
      "Ġnumbers": 3056,
      "which": 3057,
      "Ġgives": 3058,
      "Ġstays": 3059,
      "Ġpeas": 3060,
      "Ġmentioned": 3061,
      "Ġlovely": 3062,
      "Ġscratched": 3063,
      "Ġhoping": 3064,
      "Ġapologize": 3065,
      "Ġsurvived": 3066,
      "Ġpinch": 3067,
      "ĠTuesdays": 3068,
      "Ġmagnet": 3069,
      "Ġiron": 3070,
      "Ġdynasty": 3071,
      "Ġautumn": 3072,
      "Ġticket": 3073,
      "Ġlaughed": 3074,
      "ĠShoppers": 3075,
      "Ġtemperature": 3076,
      "Ġseller": 3077,
      "Ġsusp": 3078,
      "Ġbicycle": 3079,
      "cy": 3080,
      "from": 3081,
      "how": 3082,
      "just": 3083,
      "ton": 3084,
      "tles": 3085,
      "will": 3086,
      "Ġahead": 3087,
      "inate": 3088,
      "itch": 3089,
      "Ġborrow": 3090,
      "Ġbask": 3091,
      "ories": 3092,
      "Ġpen": 3093,
      "Ġpil": 3094,
      "Ġpock": 3095,
      "Ġda": 3096,
      "Ġnames": 3097,
      "lect": 3098,
      "lete": 3099,
      "ĠTortoise": 3100,
      "Ġbeach": 3101,
      "Ġste": 3102,
      "Ġstick": 3103,
      "acter": 3104,
      "Ġrout": 3105,
      "Ġforce": 3106,
      "irl": 3107,
      "ĠSp": 3108,
      "ĠWater": 3109,
      "ĠWang": 3110,
      "Ġshoes": 3111,
      "Ġsharp": 3112,
      "ĠCr": 3113,
      "Ġdoctor": 3114,
      "ries": 3115,
      "Ġsafe": 3116,
      "Ġfrog": 3117,
      "ĠEm": 3118,
      "ustr": 3119,
      "Ġwel": 3120,
      "ĠListen": 3121,
      "Ġtherefore": 3122,
      "ĠGr": 3123,
      "ĠGet": 3124,
      "Ġblood": 3125,
      "ĠRatty": 3126,
      "Ġthinking": 3127,
      "Ġsunlight": 3128,
      "Ġboard": 3129,
      "ivil": 3130,
      "Ġcommittee": 3131,
      "Ġsalad": 3132,
      "Ġinvisible": 3133,
      "Ġnearly": 3134,
      "ancy": 3135,
      "Ġmatters": 3136,
      "ĠAsk": 3137,
      "Ġhumans": 3138,
      "Ġpotatoes": 3139,
      "Ġstranger": 3140,
      "ĠMarco": 3141,
      "Ġreasonable": 3142,
      "ĠHsi": 3143,
      "Ġseeds": 3144,
      "Ġturb": 3145,
      "Ġmachine": 3146,
      "ĠHuh": 3147,
      "work": 3148,
      "Ġreview": 3149,
      "Ġprinciple": 3150,
      "Ġrecommends": 3151,
      "Ġinconvenience": 3152,
      "Ġdocument": 3153,
      "ebra": 3154,
      "Ġwitness": 3155,
      "IEN": 3156,
      "Oh": 3157,
      "aver": 3158,
      "iar": 3159,
      "ius": 3160,
      "ob": 3161,
      "ru": 3162,
      "ught": 3163,
      "well": 3164,
      "yle": 3165,
      "Ġaction": 3166,
      "Ġsep": 3167,
      "Ġsides": 3168,
      "Ġbir": 3169,
      "Ġbree": 3170,
      "Ġboy": 3171,
      "Ġbanks": 3172,
      "Ġfurn": 3173,
      "Ġcop": 3174,
      "Ġcamp": 3175,
      "Ġcatch": 3176,
      "orough": 3177,
      "ingers": 3178,
      "aroo": 3179,
      "arian": 3180,
      "Ġpower": 3181,
      "Ġdig": 3182,
      "Ġdried": 3183,
      "Ġlit": 3184,
      "Ġloose": 3185,
      "Ġnine": 3186,
      "Ġnature": 3187,
      "Ġnoun": 3188,
      "ĠTew": 3189,
      "Ġgather": 3190,
      "Ġgoose": 3191,
      "Ġonion": 3192,
      "Ġsteel": 3193,
      "Ġreached": 3194,
      "Ġrich": 3195,
      "Ġrubb": 3196,
      "irt": 3197,
      "ĠSpe": 3198,
      "Ġants": 3199,
      "Ġlift": 3200,
      "Ġmel": 3201,
      "ĠCo": 3202,
      "ĠHenry": 3203,
      "Ġdog": 3204,
      "iff": 3205,
      "ift": 3206,
      "umph": 3207,
      "ourn": 3208,
      "epend": 3209,
      "Ġweight": 3210,
      "ĠNormal": 3211,
      "ored": 3212,
      "ĠRule": 3213,
      "angaroo": 3214,
      "Ġconn": 3215,
      "Ġconvers": 3216,
      "ĠLove": 3217,
      "Ġgrand": 3218,
      "ĠDeal": 3219,
      "Ġclause": 3220,
      "Ġbrain": 3221,
      "Ġgrey": 3222,
      "ption": 3223,
      "Ġflat": 3224,
      "ĠMoon": 3225,
      "Ġadm": 3226,
      "ĠGiraffe": 3227,
      "Ġ11": 3228,
      "Ġwalked": 3229,
      "Ġremark": 3230,
      "Ġneeds": 3231,
      "Ġattached": 3232,
      "Ġaccept": 3233,
      "Ġreader": 3234,
      "Ġearth": 3235,
      "Ġindoors": 3236,
      "Ġserving": 3237,
      "Ġservice": 3238,
      "Ġcontin": 3239,
      "Ġpret": 3240,
      "Ġobser": 3241,
      "Ġdesert": 3242,
      "Ġcheer": 3243,
      "ĠAnything": 3244,
      "Ġopened": 3245,
      "Ġedge": 3246,
      "idden": 3247,
      "Ġreasons": 3248,
      "ĠLeo": 3249,
      "Ġimm": 3250,
      "Ġaddress": 3251,
      "Ġcurrent": 3252,
      "Ġclearly": 3253,
      "Ġchurchyard": 3254,
      "Ġregard": 3255,
      "Ġextra": 3256,
      "Ġfighting": 3257,
      "Notice": 3258,
      "Ġimproved": 3259,
      "Ġviol": 3260,
      "Ġsuddenly": 3261,
      "Ġbends": 3262,
      "Ġdoubt": 3263,
      "Ġinclud": 3264,
      "Uncle": 3265,
      "Ġkettle": 3266,
      "Ġsepar": 3267,
      "ĠLovely": 3268,
      "Ava": 3269,
      "Coloured": 3270,
      "ENG": 3271,
      "Py": 3272,
      "Rock": 3273,
      "_;": 3274,
      "che": 3275,
      "fish": 3276,
      "gain": 3277,
      "hand": 3278,
      "iers": 3279,
      "ires": 3280,
      "kn": 3281,
      "rots": 3282,
      "set": 3283,
      "sent": 3284,
      "time": 3285,
      "uel": 3286,
      "would": 3287,
      "when": 3288,
      "water": 3289,
      "zon": 3290,
      "Ġvers": 3291,
      "Ġwound": 3292,
      "Ġwire": 3293,
      "Ġought": 3294,
      "Ġball": 3295,
      "Ġbul": 3296,
      "isher": 3297,
      "Ġfer": 3298,
      "Ġfil": 3299,
      "Ġfaded": 3300,
      "edgehog": 3301,
      "lly": 3302,
      "Ġtow": 3303,
      "Ġpanc": 3304,
      "Ġthus": 3305,
      "Ġthorough": 3306,
      "Ġnut": 3307,
      "ĠTribe": 3308,
      "Ġrefer": 3309,
      "Ġrocks": 3310,
      "Ġrises": 3311,
      "Ġang": 3312,
      "cell": 3313,
      "ĠAma": 3314,
      "urope": 3315,
      "thon": 3316,
      "ops": 3317,
      "unction": 3318,
      "ils": 3319,
      "ĠCamel": 3320,
      "ĠHan": 3321,
      "Ġsoap": 3322,
      "ĠIts": 3323,
      "Ġplenty": 3324,
      "Ġchair": 3325,
      "Ġspace": 3326,
      "Ġcost": 3327,
      "Ġcoast": 3328,
      "Ġprot": 3329,
      "Ġpoor": 3330,
      "Ġcarrots": 3331,
      "Ġstrength": 3332,
      "Ġappro": 3333,
      "uced": 3334,
      "Ġrivers": 3335,
      "Ġturns": 3336,
      "Ġletters": 3337,
      "Ġswall": 3338,
      "alfway": 3339,
      "Ġpassage": 3340,
      "Ġmiles": 3341,
      "Ġinvite": 3342,
      "Ġtomatoes": 3343,
      "ĠUnder": 3344,
      "Ġeye": 3345,
      "Ġmethod": 3346,
      "who": 3347,
      "Ġshops": 3348,
      "Ġrealize": 3349,
      "Ġwheel": 3350,
      "Ġeleven": 3351,
      "Ġthousands": 3352,
      "Ġrequired": 3353,
      "Ġpossible": 3354,
      "Ġdamage": 3355,
      "Ġspeak": 3356,
      "Ġbreakfast": 3357,
      "Ġfrequ": 3358,
      "Ġfurther": 3359,
      "Ġcollector": 3360,
      "Ġinteresting": 3361,
      "Ġelectric": 3362,
      "Ġbeautiful": 3363,
      "Ġdespite": 3364,
      "ĠZebra": 3365,
      "Ġgentle": 3366,
      "Ġcomfortable": 3367,
      "ĠSecond": 3368,
      "ĠAfrica": 3369,
      "Ġmodern": 3370,
      "Ġwitnesses": 3371,
      "Python": 3372,
      "ĠAmazon": 3373,
      "Come": 3374,
      "Halfway": 3375,
      "Sun": 3376,
      "Snake": 3377,
      "cent": 3378,
      "de": 3379,
      "dr": 3380,
      "every": 3381,
      "ios": 3382,
      "ky": 3383,
      "line": 3384,
      "nec": 3385,
      "nment": 3386,
      "pin": 3387,
      "pec": 3388,
      "she": 3389,
      "ture": 3390,
      "Ġice": 3391,
      "Ġtidy": 3392,
      "Ġsize": 3393,
      "Ġwish": 3394,
      "eremon": 3395,
      "Ġopin": 3396,
      "Ġban": 3397,
      "Ġbark": 3398,
      "isf": 3399,
      "Ġfat": 3400,
      "Ġfaster": 3401,
      "Ġcry": 3402,
      "Ġcoun": 3403,
      "Ġmer": 3404,
      "Ġpudd": 3405,
      "Ġparent": 3406,
      "Ġnorth": 3407,
      "ica": 3408,
      "icate": 3409,
      "Ġgen": 3410,
      "Ġginger": 3411,
      "Ġbee": 3412,
      "ades": 3413,
      "utter": 3414,
      "Ġstar": 3415,
      "acc": 3416,
      "Ġradi": 3417,
      "Ġwash": 3418,
      "Ġwaste": 3419,
      "alley": 3420,
      "ĠSome": 3421,
      "ĠSimon": 3422,
      "ĠAmer": 3423,
      "aining": 3424,
      "iled": 3425,
      "ĠHer": 3426,
      "ĠHonest": 3427,
      "ified": 3428,
      "Ġking": 3429,
      "Ġexper": 3430,
      "ĠBased": 3431,
      "ĠYue": 3432,
      "Ġchoose": 3433,
      "Ġspl": 3434,
      "Ġspanked": 3435,
      "Ġtrade": 3436,
      "ĠPour": 3437,
      "about": 3438,
      "ĠDetails": 3439,
      "ĠOr": 3440,
      "ĠOtter": 3441,
      "Ġjar": 3442,
      "ieved": 3443,
      "Ġbrass": 3444,
      "icken": 3445,
      "ĠChang": 3446,
      "Ġdram": 3447,
      "Ġdrawn": 3448,
      "Ġseven": 3449,
      "Ġsomewhere": 3450,
      "Ġblank": 3451,
      "iety": 3452,
      "Ġappears": 3453,
      "Ġquieter": 3454,
      "raphy": 3455,
      "teen": 3456,
      "Ġphr": 3457,
      "Ġclever": 3458,
      "ivid": 3459,
      "Ġpasses": 3460,
      "Ġstarting": 3461,
      "ĠAnyway": 3462,
      "Ġbelow": 3463,
      "Ġtomato": 3464,
      "Ġruns": 3465,
      "Ġhump": 3466,
      "Ġevent": 3467,
      "Ġcolors": 3468,
      "Ġconsidered": 3469,
      "Ġsilver": 3470,
      "Ġhurried": 3471,
      "velop": 3472,
      "Ġcommentators": 3473,
      "Ġexamines": 3474,
      "--------------------------------": 3475,
      "ength": 3476,
      "Ġmeasurements": 3477,
      "Ġesc": 3478,
      "ĠSimple": 3479,
      "Ġsuggests": 3480,
      "void": 3481,
      "Ġprobably": 3482,
      "clusively": 3483,
      "Ġcrowd": 3484,
      "Ġbreeze": 3485,
      "ĠYueh": 3486,
      "10": 3487,
      "Rat": 3488,
      "With": 3489,
      "aft": 3490,
      "because": 3491,
      "come": 3492,
      "cour": 3493,
      "gest": 3494,
      "hs": 3495,
      "iec": 3496,
      "erv": 3497,
      "Ġoce": 3498,
      "ret": 3499,
      "itive": 3500,
      "iture": 3501,
      "Ġbal": 3502,
      "ism": 3503,
      "Ġfacing": 3504,
      "Ġfancy": 3505,
      "Ġfingers": 3506,
      "Ġcustom": 3507,
      "Ġcivil": 3508,
      "Ġceremon": 3509,
      "Ġhang": 3510,
      "Ġhidden": 3511,
      "Ġtowards": 3512,
      "Ġpainted": 3513,
      "Ġdream": 3514,
      "Ġlake": 3515,
      "Ġlog": 3516,
      "Ġlakes": 3517,
      "Ġge": 3518,
      "Ġgate": 3519,
      "Ġbell": 3520,
      "ales": 3521,
      "Ġwhis": 3522,
      "Ġwhom": 3523,
      "ĠWill": 3524,
      "illed": 3525,
      "Ġshout": 3526,
      "Ġneck": 3527,
      "ĠMine": 3528,
      "ĠMix": 3529,
      "ĠHi": 3530,
      "ĠHence": 3531,
      "Ġmod": 3532,
      "Ġmoves": 3533,
      "umped": 3534,
      "Ġallowed": 3535,
      "ags": 3536,
      "ĠBi": 3537,
      "ĠEurope": 3538,
      "Ġorange": 3539,
      "Ġchicken": 3540,
      "Ġspots": 3541,
      "Ġspinning": 3542,
      "Ġtruth": 3543,
      "ĠPaul": 3544,
      "Ġconsequ": 3545,
      "Ġarch": 3546,
      "Ġarrang": 3547,
      "ists": 3548,
      "Ġvan": 3549,
      "Ġview": 3550,
      "plain": 3551,
      "Ġjoy": 3552,
      "itted": 3553,
      "ouses": 3554,
      "Ġclass": 3555,
      "Ġclauses": 3556,
      "Ġslice": 3557,
      "Ġslipp": 3558,
      "Ġ12": 3559,
      "Ġneeded": 3560,
      "Ġwindows": 3561,
      "Ġprod": 3562,
      "ĠJulia": 3563,
      "Ġdeal": 3564,
      "Ġdevelop": 3565,
      "Ġteleph": 3566,
      "Ġhanded": 3567,
      "inted": 3568,
      "affic": 3569,
      "Ġwarmth": 3570,
      "Ġrepe": 3571,
      "Ġcontent": 3572,
      "Ġpassed": 3573,
      "ĠShih": 3574,
      "Ġembar": 3575,
      "Ġexplained": 3576,
      "prise": 3577,
      "Ġinvest": 3578,
      "Ġheading": 3579,
      "ception": 3580,
      "ossible": 3581,
      "Ġseconds": 3582,
      "Ġrespect": 3583,
      "Ġnights": 3584,
      "Ġsuppose": 3585,
      "while": 3586,
      "Ġwoke": 3587,
      "coming": 3588,
      "Ġsilence": 3589,
      "Ġsandw": 3590,
      "Ġdirections": 3591,
      "Ġstudy": 3592,
      "Ġstatement": 3593,
      "Ġdefin": 3594,
      "Ġspecific": 3595,
      "Ġbattery": 3596,
      "Ġfixed": 3597,
      "Ġdefeat": 3598,
      "Ġloudly": 3599,
      "ĠActually": 3600,
      "Ġbrief": 3601,
      "Ġsteam": 3602,
      "ĠHonestly": 3603,
      "ieces": 3604,
      "13": 3605,
      "AO": 3606,
      "Yes": 3607,
      "ald": 3608,
      "ares": 3609,
      "ding": 3610,
      "ha": 3611,
      "junction": 3612,
      "ne": 3613,
      "oad": 3614,
      "ror": 3615,
      "rass": 3616,
      "ues": 3617,
      "uous": 3618,
      "vent": 3619,
      "Ġve": 3620,
      "Ġverb": 3621,
      "inter": 3622,
      "inem": 3623,
      "Ġsong": 3624,
      "Ġben": 3625,
      "Ġfed": 3626,
      "Ġfog": 3627,
      "Ġfever": 3628,
      "Ġce": 3629,
      "Ġcinem": 3630,
      "Ġhig": 3631,
      "Ġpain": 3632,
      "Ġpop": 3633,
      "Ġpair": 3634,
      "Ġpieces": 3635,
      "Ġlines": 3636,
      "let": 3637,
      "ster": 3638,
      "Ġreward": 3639,
      "Ġris": 3640,
      "Ġroof": 3641,
      "Ġfort": 3642,
      "ĠSu": 3643,
      "ĠTheir": 3644,
      "Ġlies": 3645,
      "Ġship": 3646,
      "Ġnecess": 3647,
      "ĠCut": 3648,
      "ĠHell": 3649,
      "ĠHap": 3650,
      "ĠHigh": 3651,
      "ĠHope": 3652,
      "uled": 3653,
      "rig": 3654,
      "Ġkil": 3655,
      "ager": 3656,
      "ĠYU": 3657,
      "antage": 3658,
      "Ġtruly": 3659,
      "Ġnoon": 3660,
      "Ġgrown": 3661,
      "Ġsuper": 3662,
      "place": 3663,
      "ploy": 3664,
      "Ġjourn": 3665,
      "Ġbrown": 3666,
      "Ġunable": 3667,
      "Ġscale": 3668,
      "Ġoffic": 3669,
      "udg": 3670,
      "ĠStre": 3671,
      "Ġglow": 3672,
      "Ġdescri": 3673,
      "ĠIsla": 3674,
      "Ġresult": 3675,
      "Ġbegins": 3676,
      "Ġhuman": 3677,
      "Ġaccording": 3678,
      "rench": 3679,
      "ĠĠĠĠĠĠĠĠĠĠĠĠĠĠĠĠĠĠĠĠĠĠĠ": 3680,
      "Ġideas": 3681,
      "ĠWhale": 3682,
      "Ġpulls": 3683,
      "Ġfalling": 3684,
      "Ġrelative": 3685,
      "Ġbroad": 3686,
      "Ġcooked": 3687,
      "Ġchapter": 3688,
      "Ġcommentary": 3689,
      "Ġstormy": 3690,
      "Ġcorrectly": 3691,
      "Ġpictures": 3692,
      "Ġmonths": 3693,
      "Ġmemory": 3694,
      "Ġclosely": 3695,
      "Ġtouch": 3696,
      "Ġfilled": 3697,
      "Ġlocals": 3698,
      "mbre": 3699,
      "Ask": 3700,
      "Ġchanged": 3701,
      "Ġcomplicated": 3702,
      "===": 3703,
      "Ġhorse": 3704,
      "Ġhungry": 3705,
      "ĠConf": 3706,
      "Ġsimilar": 3707,
      "Ġdelivery": 3708,
      "ĠQuite": 3709,
      "Ġspoke": 3710,
      "ĠSpeaking": 3711,
      "Ġferry": 3712,
      "ĠUnderstood": 3713,
      "pecially": 3714,
      "Ġocean": 3715,
      "Ġembarrass": 3716,
      "Ġcinema": 3717,
      "ĠHello": 3718,
      "ĠHappens": 3719,
      "Farah": 3720,
      "Making": 3721,
      "Sh": 3722,
      "aj": 3723,
      "aim": 3724,
      "after": 3725,
      "bl": 3726,
      "bled": 3727,
      "cr": 3728,
      "cceed": 3729,
      "direct": 3730,
      "five": 3731,
      "fra": 3732,
      "gen": 3733,
      "had": 3734,
      "ked": 3735,
      "must": 3736,
      "poon": 3737,
      "rough": 3738,
      "some": 3739,
      "Ġty": 3740,
      "Ġtides": 3741,
      "Ġtaught": 3742,
      "Ġticks": 3743,
      "het": 3744,
      "Ġwaves": 3745,
      "Ġoak": 3746,
      "Ġfaint": 3747,
      "Ġfeed": 3748,
      "Ġcre": 3749,
      "Ġcities": 3750,
      "Ġcauses": 3751,
      "Ġmaster": 3752,
      "Ġmerely": 3753,
      "Ġmedi": 3754,
      "only": 3755,
      "esh": 3756,
      "Ġpack": 3757,
      "Ġdaughter": 3758,
      "Ġthunder": 3759,
      "Ġlab": 3760,
      "Ġloved": 3761,
      "Ġnormal": 3762,
      "ley": 3763,
      "Ġeast": 3764,
      "ĠTS": 3765,
      "ĠTom": 3766,
      "store": 3767,
      "Ġbeats": 3768,
      "adows": 3769,
      "Ġstands": 3770,
      "acher": 3771,
      "Ġrele": 3772,
      "Ġreaches": 3773,
      "Ġumbre": 3774,
      "ioned": 3775,
      "ĠSam": 3776,
      "ĠSsu": 3777,
      "ĠWash": 3778,
      "illy": 3779,
      "uries": 3780,
      "ĠThese": 3781,
      "Ġshare": 3782,
      "ĠHugo": 3783,
      "ĠHedgehog": 3784,
      "ify": 3785,
      "Ġsave": 3786,
      "appe": 3787,
      "Ġsocc": 3788,
      "ounds": 3789,
      "ĠYara": 3790,
      "Ġplum": 3791,
      "ants": 3792,
      "Ġcho": 3793,
      "Ġabs": 3794,
      "Ġtrack": 3795,
      "Ġtraffic": 3796,
      "ĠRome": 3797,
      "empt": 3798,
      "Ġconstant": 3799,
      "Ġlean": 3800,
      "Ġvalley": 3801,
      "ective": 3802,
      "ending": 3803,
      "ĠFl": 3804,
      "Ġsuff": 3805,
      "Ġsucceed": 3806,
      "avity": 3807,
      "Ġwouldn": 3808,
      "Ġcloth": 3809,
      "Ġbrother": 3810,
      "Ġbrush": 3811,
      "ĠChi": 3812,
      "ĠChief": 3813,
      "ĠThin": 3814,
      "Ġsmaller": 3815,
      "Ġpoet": 3816,
      "Ġkeeper": 3817,
      "ĠKangaroo": 3818,
      "ĠInside": 3819,
      "Ġremind": 3820,
      "Ġwindy": 3821,
      "Ġprof": 3822,
      "Ġprov": 3823,
      "Ġproved": 3824,
      "ocked": 3825,
      "Ġdev": 3826,
      "swald": 3827,
      "Ġrestful": 3828,
      "izing": 3829,
      "ordinate": 3830,
      "ĠSte": 3831,
      "Ġsunny": 3832,
      "Ġcomplete": 3833,
      "Ġimpossible": 3834,
      "Ġears": 3835,
      "Ġrooms": 3836,
      "Ġchem": 3837,
      "Ġsettled": 3838,
      "Ġemploy": 3839,
      "Ġbelieve": 3840,
      "Ġentered": 3841,
      "Ġbookstore": 3842,
      "Ġheads": 3843,
      "Ġmisty": 3844,
      "Ġdecided": 3845,
      "Ġlearned": 3846,
      "Ġtopic": 3847,
      "Ġcenturies": 3848,
      "Ġargument": 3849,
      "Ġexpressions": 3850,
      "Ġsoldiers": 3851,
      "Ġpossess": 3852,
      "Ġpolite": 3853,
      "Ġcapital": 3854,
      "Ġgolden": 3855,
      "Ġentirely": 3856,
      "Ġbuilding": 3857,
      "Ġcalm": 3858,
      "Ġspeaking": 3859,
      "Ġrolled": 3860,
      "Ġburst": 3861,
      "ediately": 3862,
      "Ġschedule": 3863,
      "Ġsuccess": 3864,
      "Ġsurprised": 3865,
      "Ġdaily": 3866,
      "ĠHopefully": 3867,
      "ĠStreet": 3868,
      "directed": 3869,
      "Ġmedium": 3870,
      "Ġsoccer": 3871,
      "17": 3872,
      "CH": 3873,
      "My": 3874,
      "Rec": 3875,
      "Rules": 3876,
      "Taffy": 3877,
      "bank": 3878,
      "cast": 3879,
      "cons": 3880,
      "fin": 3881,
      "ground": 3882,
      "have": 3883,
      "hip": 3884,
      "ials": 3885,
      "jinn": 3886,
      "kes": 3887,
      "little": 3888,
      "lies": 3889,
      "mat": 3890,
      "mother": 3891,
      "nesday": 3892,
      "oing": 3893,
      "oint": 3894,
      "part": 3895,
      "paw": 3896,
      "rid": 3897,
      "sk": 3898,
      "sy": 3899,
      "somet": 3900,
      "wise": 3901,
      "yen": 3902,
      "Ġton": 3903,
      "iner": 3904,
      "erous": 3905,
      "Ġowe": 3906,
      "Ġorig": 3907,
      "att": 3908,
      "iting": 3909,
      "Ġborder": 3910,
      "ison": 3911,
      "ister": 3912,
      "Ġfet": 3913,
      "Ġfig": 3914,
      "orter": 3915,
      "Ġmid": 3916,
      "Ġmere": 3917,
      "Ġmine": 3918,
      "Ġmagic": 3919,
      "ednesday": 3920,
      "Ġhouses": 3921,
      "Ġpic": 3922,
      "Ġposition": 3923,
      "Ġlose": 3924,
      "Ġlantern": 3925,
      "Ġlength": 3926,
      "Ġnort": 3927,
      "Ġisland": 3928,
      "ety": 3929,
      "Ġrap": 3930,
      "Ġrug": 3931,
      "Ġfork": 3932,
      "Ġforth": 3933,
      "Ġforces": 3934,
      "ĠWednesday": 3935,
      "Ġlie": 3936,
      "Ġlives": 3937,
      "hern": 3938,
      "unks": 3939,
      "Ġshark": 3940,
      "Ġshaped": 3941,
      "Ġneg": 3942,
      "Ġneigh": 3943,
      "ĠHar": 3944,
      "--\"": 3945,
      "Ġsail": 3946,
      "uments": 3947,
      "usion": 3948,
      "ĠYing": 3949,
      "elve": 3950,
      "Ġchief": 3951,
      "asted": 3952,
      "Ġeverybody": 3953,
      "Ġspeed": 3954,
      "Ġconstr": 3955,
      "Ġleg": 3956,
      "Ġlevel": 3957,
      "Ġleaf": 3958,
      "ĠLI": 3959,
      "Ġgravity": 3960,
      "isted": 3961,
      "enders": 3962,
      "ĠDana": 3963,
      "Ġtwelve": 3964,
      "Ġage": 3965,
      "ulled": 3966,
      "Ġclay": 3967,
      "icked": 3968,
      "ĠChina": 3969,
      "ivers": 3970,
      "ography": 3971,
      "Ġ15": 3972,
      "Ġ17": 3973,
      "Ġunless": 3974,
      "Ġsheep": 3975,
      "bey": 3976,
      "Ġprocess": 3977,
      "peror": 3978,
      "Ġapple": 3979,
      "Ġdiss": 3980,
      "Ġhandle": 3981,
      "Ġends": 3982,
      "Ġcourage": 3983,
      "Ġindepend": 3984,
      "ĠCHENG": 3985,
      "Ġpreced": 3986,
      "Ġobvious": 3987,
      "Ġcommand": 3988,
      "Ġcrust": 3989,
      "Ġfourth": 3990,
      "atching": 3991,
      "Ġplayed": 3992,
      "laid": 3993,
      "Ġsummary": 3994,
      "Ġdrops": 3995,
      "Ġevapor": 3996,
      "Ġevidence": 3997,
      "ciples": 3998,
      "Ġfalls": 3999,
      "Ġfallen": 4000,
      "Ġcurt": 4001,
      "Ġforever": 4002,
      "Ġconsider": 4003,
      "Ġslept": 4004,
      "Ġtravels": 4005,
      "ĠHsing": 4006,
      "Ġmarks": 4007,
      "Ġmisdirected": 4008,
      "Ġmislaid": 4009,
      "Ġnotebook": 4010,
      "Ġexamples": 4011,
      "Ġsecret": 4012,
      "umps": 4013,
      "Ġsmoke": 4014,
      "Ġequal": 4015,
      "oops": 4016,
      "Ġladder": 4017,
      "Ġmachines": 4018,
      "Ġreceived": 4019,
      "Ġcloudy": 4020,
      "Ġbreath": 4021,
      "Ġmusic": 4022,
      "Ġinstruct": 4023,
      "atiable": 4024,
      "Ġtools": 4025,
      "Ġcirc": 4026,
      "Ġpainting": 4027,
      "Ġnatural": 4028,
      "Ġborrowed": 4029,
      "Ġwelcoming": 4030,
      "Ġturbid": 4031,
      "Ġconversation": 4032,
      "Ġincluding": 4033,
      "ĠAmerica": 4034,
      "Ġceremony": 4035,
      "Ġsandwich": 4036,
      "ĠConfuc": 4037,
      "Ġembarrassing": 4038,
      "eshumai": 4039,
      "Ġumbrella": 4040,
      "appeared": 4041,
      "Ġtonight": 4042,
      ";\"": 4043,
      "Bex": 4044,
      "Mr": 4045,
      "Mole": 4046,
      "People": 4047,
      "SU": 4048,
      "aign": 4049,
      "bing": 4050,
      "daughter": 4051,
      "has": 4052,
      "hold": 4053,
      "io": 4054,
      "ians": 4055,
      "lm": 4056,
      "long": 4057,
      "look": 4058,
      "my": 4059,
      "miss": 4060,
      "off": 4061,
      "ral": 4062,
      "rop": 4063,
      "sit": 4064,
      "ses": 4065,
      "sclusively": 4066,
      "tal": 4067,
      "val": 4068,
      "zer": 4069,
      "ĠX": 4070,
      "Ġtight": 4071,
      "Ġast": 4072,
      "ining": 4073,
      "inct": 4074,
      "Ġtheory": 4075,
      "Ġsour": 4076,
      "Ġsang": 4077,
      "Ġswe": 4078,
      "Ġwis": 4079,
      "Ġwed": 4080,
      "Ġwide": 4081,
      "rem": 4082,
      "rength": 4083,
      "Ġbare": 4084,
      "Ġfather": 4085,
      "Ġfaul": 4086,
      "Ġfirm": 4087,
      "Ġcoup": 4088,
      "oring": 4089,
      "orse": 4090,
      "Ġmir": 4091,
      "arks": 4092,
      "Ġholes": 4093,
      "Ġtooth": 4094,
      "Ġpal": 4095,
      "Ġport": 4096,
      "Ġdest": 4097,
      "Ġdied": 4098,
      "Ġnone": 4099,
      "Ġecon": 4100,
      "ĠTase": 4101,
      "ete": 4102,
      "eth": 4103,
      "verse": 4104,
      "Ġonions": 4105,
      "still": 4106,
      "strength": 4107,
      "lying": 4108,
      "uture": 4109,
      "Ġstyle": 4110,
      "alth": 4111,
      "Ġrate": 4112,
      "Ġrise": 4113,
      "Ġund": 4114,
      "keep": 4115,
      "ithic": 4116,
      "ams": 4117,
      "ĠWar": 4118,
      "ĠWind": 4119,
      "ills": 4120,
      "Ġnotes": 4121,
      "Ġshade": 4122,
      "Ġshows": 4123,
      "chan": 4124,
      "ĠMelt": 4125,
      "ĠMona": 4126,
      "ula": 4127,
      "ulty": 4128,
      "ribut": 4129,
      "Ġsaf": 4130,
      "Ġfraction": 4131,
      "ĠBe": 4132,
      "ĠBoth": 4133,
      "ĠBird": 4134,
      "ĠElla": 4135,
      "ĠElias": 4136,
      "usk": 4137,
      "usat": 4138,
      "road": 4139,
      "ĠItal": 4140,
      "Ġplate": 4141,
      "ĠNew": 4142,
      "pper": 4143,
      "Ġspr": 4144,
      "Ġspot": 4145,
      "Ġtrad": 4146,
      "Ġtruck": 4147,
      "Ġtrunk": 4148,
      "Ġnovel": 4149,
      "Ġleather": 4150,
      "Ġgrows": 4151,
      "ĠOld": 4152,
      "aven": 4153,
      "olithic": 4154,
      "ured": 4155,
      "Ġclot": 4156,
      "igate": 4157,
      "ĠChap": 4158,
      "them": 4159,
      "Ġwrapped": 4160,
      "ĠThree": 4161,
      "Ġroot": 4162,
      "inking": 4163,
      "Ġstrugg": 4164,
      "ĠJonah": 4165,
      "rows": 4166,
      "Ġrepair": 4167,
      "Ġperhaps": 4168,
      "Ġowner": 4169,
      "Ġboats": 4170,
      "Ġindivid": 4171,
      "Ġarms": 4172,
      "Ġarmch": 4173,
      "Ġpreface": 4174,
      "Ġcrack": 4175,
      "ample": 4176,
      "Ġentr": 4177,
      "Ġfeels": 4178,
      "Ġinvented": 4179,
      "Ġplaying": 4180,
      "ĠUse": 4181,
      "Ġmistakes": 4182,
      "nowing": 4183,
      "Ġsubstit": 4184,
      "Ġcarrying": 4185,
      "Ġfinished": 4186,
      "Ġhumid": 4187,
      "Ġhearth": 4188,
      "Ġevents": 4189,
      "Ġcolumn": 4190,
      "Ġcounted": 4191,
      "Grand": 4192,
      "exp": 4193,
      "Ġrefused": 4194,
      "Ġwheels": 4195,
      "Ġlayer": 4196,
      "Ġcharge": 4197,
      "Ġcups": 4198,
      "Ġstanding": 4199,
      "Ġeasily": 4200,
      "Ġreplaced": 4201,
      "ibly": 4202,
      "Ġengines": 4203,
      "Ġcondition": 4204,
      "Ġconditions": 4205,
      "Ġeaten": 4206,
      "Ġoccur": 4207,
      "Ġreceive": 4208,
      "Ġquoted": 4209,
      "Ġespecially": 4210,
      "Ġstrip": 4211,
      "Ġrecords": 4212,
      "Ġmillion": 4213,
      "ivalent": 4214,
      "Ġordinary": 4215,
      "Ġfamiliar": 4216,
      "Ġpeaceful": 4217,
      "Ġpocket": 4218,
      "Ġfurniture": 4219,
      "Ġcampaign": 4220,
      "necess": 4221,
      "Ġopinion": 4222,
      "Ġdramatic": 4223,
      "Ġblanket": 4224,
      "Ġbalance": 4225,
      "Ġnecessary": 4226,
      "Ġkilomet": 4227,
      "Ġpicn": 4228,
      "ĠConfucius": 4229,
      "Ġcouple": 4230,
      "Ġeconom": 4231,
      "14": 4232,
      "50": 4233,
      "At": 4234,
      "All": 4235,
      "Aunt": 4236,
      "Don": 4237,
      "Dog": 4238,
      "Enjoy": 4239,
      "Mom": 4240,
      "Ts": 4241,
      "Tu": 4242,
      "Take": 4243,
      "UN": 4244,
      "call": 4245,
      "cap": 4246,
      "down": 4247,
      "div": 4248,
      "eld": 4249,
      "east": 4250,
      "fare": 4251,
      "iam": 4252,
      "ipl": 4253,
      "mon": 4254,
      "moon": 4255,
      "ober": 4256,
      "oves": 4257,
      "phere": 4258,
      "pire": 4259,
      "two": 4260,
      "xy": 4261,
      "ym": 4262,
      "Ġer": 4263,
      "Ġess": 4264,
      "Ġtest": 4265,
      "Ġtaking": 4266,
      "Ġtables": 4267,
      "Ġaunt": 4268,
      "Ġafra": 4269,
      "Ġson": 4270,
      "Ġsend": 4271,
      "Ġself": 4272,
      "Ġwest": 4273,
      "Ġwoman": 4274,
      "erves": 4275,
      "rete": 4276,
      "Ġbound": 4277,
      "Ġbene": 4278,
      "Ġbike": 4279,
      "Ġfle": 4280,
      "Ġfinger": 4281,
      "Ġfuel": 4282,
      "Ġcris": 4283,
      "inge": 4284,
      "eness": 4285,
      "Ġmaint": 4286,
      "Ġmult": 4287,
      "oned": 4288,
      "Ġhost": 4289,
      "Ġhunt": 4290,
      "Ġpred": 4291,
      "Ġpier": 4292,
      "Ġpush": 4293,
      "Ġden": 4294,
      "Ġlame": 4295,
      "Ġlosing": 4296,
      "asion": 4297,
      "Ġyeast": 4298,
      "Ġnin": 4299,
      "Ġnor": 4300,
      "leep": 4301,
      "lets": 4302,
      "ĠInd": 4303,
      "omatic": 4304,
      "Ġgirl": 4305,
      "etter": 4306,
      "iment": 4307,
      "imeter": 4308,
      "entions": 4309,
      "Ġrow": 4310,
      "Ġrub": 4311,
      "ĠWendy": 4312,
      "ĠAgain": 4313,
      "through": 4314,
      "Ġhaven": 4315,
      "Ġshared": 4316,
      "Ġmend": 4317,
      "ĠCl": 4318,
      "ĠCave": 4319,
      "ĠClara": 4320,
      "iffer": 4321,
      "ifting": 4322,
      "Ġfrost": 4323,
      "Ġexha": 4324,
      "Ġexample": 4325,
      "ĠBr": 4326,
      "rol": 4327,
      "roll": 4328,
      "Ġwearing": 4329,
      "ĠNq": 4330,
      "ĠNadiya": 4331,
      "Ġtroops": 4332,
      "ores": 4333,
      "Ġseeing": 4334,
      "ĠPl": 4335,
      "ĠPin": 4336,
      "Ġupward": 4337,
      "Ġconjunction": 4338,
      "ĠĠĠĠĠĠĠĠĠĠĠĠĠĠĠ": 4339,
      "Ġvapor": 4340,
      "ĠDavid": 4341,
      "ĠDjinn": 4342,
      "ĠFrench": 4343,
      "Ġsmile": 4344,
      "orted": 4345,
      "ulls": 4346,
      "ickles": 4347,
      "things": 4348,
      "Ġways": 4349,
      "Ġafterward": 4350,
      "Ġflo": 4351,
      "Ġflu": 4352,
      "Ġenorm": 4353,
      "Ġdrought": 4354,
      "Ġshoulder": 4355,
      "ĠGreat": 4356,
      "Ġ10": 4357,
      "athers": 4358,
      "Ġscout": 4359,
      "Ġscrap": 4360,
      "Ġremarks": 4361,
      "ĠHead": 4362,
      "Ġproceed": 4363,
      "ĠJake": 4364,
      "Ġhandful": 4365,
      "ĠSung": 4366,
      "ords": 4367,
      "ĠStates": 4368,
      "Ġended": 4369,
      "Ġtense": 4370,
      "ĠWei": 4371,
      "Ġfully": 4372,
      "Ġseries": 4373,
      "should": 4374,
      "Ġprecise": 4375,
      "Ġplane": 4376,
      "Ġpassing": 4377,
      "ients": 4378,
      "Ġschol": 4379,
      "Ġedition": 4380,
      "Ġdistant": 4381,
      "Ġlargest": 4382,
      "Ġdecor": 4383,
      "Ġfellow": 4384,
      "Ġfellows": 4385,
      "Ġjoined": 4386,
      "Ġinterv": 4387,
      "Stranger": 4388,
      "Ġgardener": 4389,
      "ensive": 4390,
      "Ġpresently": 4391,
      "Ġdriver": 4392,
      "Ġdriving": 4393,
      "ĠCHIH": 4394,
      "Ġeffort": 4395,
      "Ġcutting": 4396,
      "Ġstretch": 4397,
      "Ġwatching": 4398,
      "Ġhopped": 4399,
      "Ġtouched": 4400,
      "Ġremains": 4401,
      "Ġfriendly": 4402,
      "Ġpinned": 4403,
      "green": 4404,
      "Ġcalcul": 4405,
      "Ġperfectly": 4406,
      "ĠSimply": 4407,
      "Ġsolid": 4408,
      "Ġtransl": 4409,
      "Ġmotion": 4410,
      "Ġearlier": 4411,
      "Ġearliest": 4412,
      "Ġestim": 4413,
      "Ġinsects": 4414,
      "Ġraised": 4415,
      "Ġdifficult": 4416,
      "Ġpublic": 4417,
      "Ġconquer": 4418,
      "Ġbirth": 4419,
      "ĠTewara": 4420,
      "Ġrubbed": 4421,
      "Ġimmediately": 4422,
      "Ġseparate": 4423,
      "Ġthoroughly": 4424,
      "iosity": 4425,
      "Ġpuddle": 4426,
      "Ġwhisper": 4427,
      "Ġveget": 4428,
      "something": 4429,
      "Ġrapid": 4430,
      "Ġaston": 4431,
      "Ġwedding": 4432,
      "necessary": 4433,
      "Ġkilometers": 4434,
      "eldt": 4435,
      "Ġafraid": 4436,
      "Ġenormous": 4437,
      ",--": 4438,
      "18": 4439,
      "Humph": 4440,
      "Re": 4441,
      "_,'": 4442,
      "could": 4443,
      "cles": 4444,
      "did": 4445,
      "field": 4446,
      "iant": 4447,
      "kward": 4448,
      "lared": 4449,
      "lands": 4450,
      "morrow": 4451,
      "por": 4452,
      "pict": 4453,
      "son": 4454,
      "sun": 4455,
      "tre": 4456,
      "tail": 4457,
      "tuce": 4458,
      "war": 4459,
      "ware": 4460,
      "writ": 4461,
      "Ġtun": 4462,
      "Ġtire": 4463,
      "Ġaver": 4464,
      "Ġavoid": 4465,
      "inse": 4466,
      "into": 4467,
      "Ġsir": 4468,
      "Ġwaving": 4469,
      "erk": 4470,
      "eral": 4471,
      "reg": 4472,
      "itude": 4473,
      "Ġbi": 4474,
      "isions": 4475,
      "Ġfuture": 4476,
      "orous": 4477,
      "orig": 4478,
      "arr": 4479,
      "Ġhun": 4480,
      "anas": 4481,
      "Ġpage": 4482,
      "Ġpadd": 4483,
      "Ġdom": 4484,
      "Ġdet": 4485,
      "Ġdang": 4486,
      "Ġdie": 4487,
      "Ġdress": 4488,
      "Ġdanced": 4489,
      "Ġlot": 4490,
      "asure": 4491,
      "Ġnation": 4492,
      "Ġeating": 4493,
      "otam": 4494,
      "ication": 4495,
      "imals": 4496,
      "Ġstall": 4497,
      "Ġstacked": 4498,
      "alog": 4499,
      "always": 4500,
      "Ġrear": 4501,
      "Ġreaction": 4502,
      "Ġwhist": 4503,
      "Ġring": 4504,
      "Ġrare": 4505,
      "cend": 4506,
      "ĠAb": 4507,
      "urse": 4508,
      "opo": 4509,
      "opotam": 4510,
      "Ġships": 4511,
      "Ġshorter": 4512,
      "ilitary": 4513,
      "Ġmechan": 4514,
      "ĠComp": 4515,
      "quired": 4516,
      "riv": 4517,
      "rier": 4518,
      "umping": 4519,
      "ague": 4520,
      "ĠElm": 4521,
      "ĠNature": 4522,
      "pped": 4523,
      "Ġspir": 4524,
      "Ġalarm": 4525,
      "ĠRose": 4526,
      "ĠRuth": 4527,
      "Ġcanoe": 4528,
      "Ġque": 4529,
      "together": 4530,
      "ĠPut": 4531,
      "imple": 4532,
      "abbit": 4533,
      "ĠDes": 4534,
      "ĠOswald": 4535,
      "Ġprinted": 4536,
      "avia": 4537,
      "Ġusing": 4538,
      "Ġusage": 4539,
      "igg": 4540,
      "their": 4541,
      "Ġroots": 4542,
      "inked": 4543,
      "ĠGeorge": 4544,
      "ĠKate": 4545,
      "ĠKnowing": 4546,
      "Ġuncle": 4547,
      "Ġscatter": 4548,
      "Ġscoop": 4549,
      "Ġunderstood": 4550,
      "before": 4551,
      "ipes": 4552,
      "Ġparty": 4553,
      "Ġproject": 4554,
      "Ġattempt": 4555,
      "Ġlights": 4556,
      "Ġdeb": 4557,
      "ucks": 4558,
      "Ġdisp": 4559,
      "Ġrestore": 4560,
      "Ġhardware": 4561,
      "Ġbusiness": 4562,
      "Ġcorners": 4563,
      "Ġexpands": 4564,
      "Ġindirect": 4565,
      "Ġsurprise": 4566,
      "Ġcontr": 4567,
      "upid": 4568,
      "Ġkindly": 4569,
      "issors": 4570,
      "Ġsettle": 4571,
      "Ġrecipe": 4572,
      "Ġadvantage": 4573,
      "eginning": 4574,
      "otted": 4575,
      "Ġinstit": 4576,
      "Ġentertain": 4577,
      "ĠVictor": 4578,
      "ĠUma": 4579,
      "Ġsatisf": 4580,
      "Ġhelped": 4581,
      "ancing": 4582,
      "Ġdeclared": 4583,
      "Ġmeters": 4584,
      "isitor": 4585,
      "Ġsquee": 4586,
      "ĠĠĠĠĠĠĠĠĠĠĠĠĠĠĠĠĠĠĠĠĠĠĠĠĠĠĠĠĠĠĠĠ": 4587,
      "Ġbigger": 4588,
      "Ġsituation": 4589,
      "Ġactive": 4590,
      "cipl": 4591,
      "Ġfireplace": 4592,
      "Ġfields": 4593,
      "Ġhistor": 4594,
      "ĠMaria": 4595,
      "Ġpersonal": 4596,
      "Ġreflect": 4597,
      "Ġbaker": 4598,
      "Ġdrizz": 4599,
      "Ġcharges": 4600,
      "Ġpapers": 4601,
      "Ġblackened": 4602,
      "ipping": 4603,
      "ipped": 4604,
      "Ġbroke": 4605,
      "ĠNeolithic": 4606,
      "Ġterm": 4607,
      "Ġsteadily": 4608,
      "Ġmember": 4609,
      "Ġturning": 4610,
      "Ġconduct": 4611,
      "Ġapology": 4612,
      "Ġladies": 4613,
      "Ġbedroom": 4614,
      "Ġlaws": 4615,
      "pret": 4616,
      "Ġillustr": 4617,
      "Ġshrinks": 4618,
      "gram": 4619,
      "Ġcells": 4620,
      "Ġhedgehog": 4621,
      "Ġdifficulty": 4622,
      "Ġquarter": 4623,
      "Ġprinciples": 4624,
      "Ġsuspic": 4625,
      "Ġbaskets": 4626,
      "ĠEmperor": 4627,
      "rupt": 4628,
      "Ġaccepted": 4629,
      "shell": 4630,
      "Ġphrase": 4631,
      "ĠWilliam": 4632,
      "Ġtelephone": 4633,
      "Ġrepeated": 4634,
      "Ġpopular": 4635,
      "aimed": 4636,
      "Ġsucceeded": 4637,
      "Ġpoetry": 4638,
      "Ġpolitely": 4639,
      "Recipe": 4640,
      "Ġconstruction": 4641,
      "Ġcircum": 4642,
      "Ġwisdom": 4643,
      "Ġfault": 4644,
      "ĠTasek": 4645,
      "Ġclothes": 4646,
      "Ġarmchairs": 4647,
      "xygen": 4648,
      "ifferent": 4649,
      "Ġfluid": 4650,
      "original": 4651,
      "aviaan": 4652,
      "Ġdrizzly": 4653,
      "''": 4654,
      ".,": 4655,
      "12": 4656,
      "16": 4657,
      "20": 4658,
      "47": 4659,
      "AI": 4660,
      "Ho": 4661,
      "Raff": 4662,
      "_'": 4663,
      "bow": 4664,
      "back": 4665,
      "bec": 4666,
      "bles": 4667,
      "boy": 4668,
      "ees": 4669,
      "ext": 4670,
      "fact": 4671,
      "ii": 4672,
      "iqu": 4673,
      "iest": 4674,
      "iots": 4675,
      "make": 4676,
      "oll": 4677,
      "pa": 4678,
      "satiable": 4679,
      "uine": 4680,
      "vol": 4681,
      "wr": 4682,
      "were": 4683,
      "yond": 4684,
      "Ġ*": 4685,
      "hest": 4686,
      "Ġaim": 4687,
      "ince": 4688,
      "Ġsem": 4689,
      "Ġsens": 4690,
      "Ġwool": 4691,
      "Ġom": 4692,
      "Ġoxygen": 4693,
      "atient": 4694,
      "athered": 4695,
      "Ġbother": 4696,
      "Ġboun": 4697,
      "Ġcaut": 4698,
      "Ġcinn": 4699,
      "enemy": 4700,
      "Ġmur": 4701,
      "Ġhollow": 4702,
      "esides": 4703,
      "Ġtotal": 4704,
      "Ġpun": 4705,
      "Ġpace": 4706,
      "Ġpark": 4707,
      "Ġpale": 4708,
      "Ġpushed": 4709,
      "Ġpipes": 4710,
      "Ġdem": 4711,
      "Ġdamp": 4712,
      "Ġditch": 4713,
      "Ġdusk": 4714,
      "Ġlatter": 4715,
      "Ġnest": 4716,
      "lec": 4717,
      "leg": 4718,
      "Ġech": 4719,
      "ĠTen": 4720,
      "ĠTeshumai": 4721,
      "oming": 4722,
      "Ġonto": 4723,
      "Ġbeyond": 4724,
      "utation": 4725,
      "seem": 4726,
      "semb": 4727,
      "Ġstove": 4728,
      "Ġsteep": 4729,
      "along": 4730,
      "alks": 4731,
      "acity": 4732,
      "Ġreb": 4733,
      "Ġreverse": 4734,
      "enth": 4735,
      "Ġhero": 4736,
      "Ġrul": 4737,
      "Ġrail": 4738,
      "Ġupper": 4739,
      "Ġwasn": 4740,
      "key": 4741,
      "amon": 4742,
      "ĠSouth": 4743,
      "ctober": 4744,
      "unche": 4745,
      "Ġshadow": 4746,
      "Ġshares": 4747,
      "iles": 4748,
      "char": 4749,
      "Ġmeadow": 4750,
      "ĠComm": 4751,
      "ĠMount": 4752,
      "Ġdoors": 4753,
      "ulated": 4754,
      "Ġmoor": 4755,
      "Ġmoist": 4756,
      "Ġmolec": 4757,
      "heng": 4758,
      "aper": 4759,
      "again": 4760,
      "ĠBra": 4761,
      "ĠEmma": 4762,
      "using": 4763,
      "rove": 4764,
      "Ġplaced": 4765,
      "ĠNina": 4766,
      "aks": 4767,
      "Ġspin": 4768,
      "Ġspins": 4769,
      "Ġtrying": 4770,
      "Ġquickly": 4771,
      "artina": 4772,
      "ĠPro": 4773,
      "ĠPusat": 4774,
      "Ġconce": 4775,
      "impopo": 4776,
      "ĠLook": 4777,
      "Ġarr": 4778,
      "Ġgrave": 4779,
      "resent": 4780,
      "Ġvase": 4781,
      "Ġvisible": 4782,
      "osite": 4783,
      "ĠDora": 4784,
      "ĠOctober": 4785,
      "Ġpride": 4786,
      "ode": 4787,
      "olute": 4788,
      "Ġgreasy": 4789,
      "Ġcouldn": 4790,
      "ĠChu": 4791,
      "Ġslices": 4792,
      "Ġdrags": 4793,
      "Ġseat": 4794,
      "mentary": 4795,
      "ogn": 4796,
      "Ġ16": 4797,
      "Ġfond": 4798,
      "ĠKen": 4799,
      "Ġstrate": 4800,
      "Ġstrict": 4801,
      "Ġstrange": 4802,
      "hys": 4803,
      "hesis": 4804,
      "Ġdegre": 4805,
      "Ġdisapp": 4806,
      "redients": 4807,
      "Ġlettuce": 4808,
      "Ġcompar": 4809,
      "Ġfollows": 4810,
      "Ġcareless": 4811,
      "Ġcontain": 4812,
      "upon": 4813,
      "Ġdescend": 4814,
      "Ġpassages": 4815,
      "ĠShakes": 4816,
      "Ġskill": 4817,
      "Ġ22": 4818,
      "Ġrecent": 4819,
      "Ġrecogn": 4820,
      "Ġadvent": 4821,
      "ĠNoah": 4822,
      "ĠVeldt": 4823,
      "Ġgrowing": 4824,
      "ĠEverything": 4825,
      "Ġdarkness": 4826,
      "Ġsupply": 4827,
      "cont": 4828,
      "Ġconfused": 4829,
      "Ġpotter": 4830,
      "Ġhearing": 4831,
      "Ġcentral": 4832,
      "Ġshopping": 4833,
      "Ġgiving": 4834,
      "Ġcountries": 4835,
      "Ġlibrarian": 4836,
      "Ġadded": 4837,
      "ĠMariner": 4838,
      "Ġbelongs": 4839,
      "Ġhoneymoon": 4840,
      "peare": 4841,
      "Ġcharacter": 4842,
      "Ġcooking": 4843,
      "Ġcools": 4844,
      "Ġterms": 4845,
      "Ġrequire": 4846,
      "Ġrequires": 4847,
      "Ġstatements": 4848,
      "Ġbattles": 4849,
      "Ġcapture": 4850,
      "Ġclouds": 4851,
      "Ġbesides": 4852,
      "Ġquotation": 4853,
      "Ġrolling": 4854,
      "Ġbreathe": 4855,
      "Ġclimate": 4856,
      "Ġvibr": 4857,
      "Ġauthority": 4858,
      "Ġopposite": 4859,
      "Ġmessage": 4860,
      "zzle": 4861,
      "Ġawkward": 4862,
      "Ġscheduled": 4863,
      "Ġorders": 4864,
      "Ġgovernment": 4865,
      "Ġintroduced": 4866,
      "ĠParsee": 4867,
      "Ġfamilies": 4868,
      "boat": 4869,
      "erosion": 4870,
      "Ġbasket": 4871,
      "ĠGrace": 4872,
      "isherman": 4873,
      "Ġpancakes": 4874,
      "Ġfrequently": 4875,
      "Ġbananas": 4876,
      "ervous": 4877,
      "Ġinvestigate": 4878,
      "Ġrising": 4879,
      "Ġjournal": 4880,
      "Ġofficers": 4881,
      "ĠTSO": 4882,
      "Ġchoir": 4883,
      "Ġchemical": 4884,
      "Ġoriginal": 4885,
      "Ġnorthern": 4886,
      "Ġpalm": 4887,
      "Ġdecorated": 4888,
      "rivate": 4889,
      "Raffi": 4890,
      "Ġcinnamon": 4891,
      "Ġruler": 4892,
      "uncheon": 4893,
      "Ġmoisture": 4894,
      "Ġdegrees": 4895,
      "15": 4896,
      "Ex": 4897,
      "His": 4898,
      "IU": 4899,
      "Tzu": 4900,
      "Yellow": 4901,
      "aly": 4902,
      "bre": 4903,
      "cup": 4904,
      "does": 4905,
      "ei": 4906,
      "even": 4907,
      "eign": 4908,
      "gu": 4909,
      "gent": 4910,
      "gener": 4911,
      "hop": 4912,
      "iot": 4913,
      "ka": 4914,
      "last": 4915,
      "more": 4916,
      "made": 4917,
      "mouth": 4918,
      "ns": 4919,
      "par": 4920,
      "rm": 4921,
      "rical": 4922,
      "sound": 4923,
      "uke": 4924,
      "yellow": 4925,
      "zen": 4926,
      "Ġid": 4927,
      "Ġign": 4928,
      "Ġtact": 4929,
      "Ġtasted": 4930,
      "Ġach": 4931,
      "Ġsession": 4932,
      "Ġwishes": 4933,
      "ern": 4934,
      "erved": 4935,
      "Ġoven": 4936,
      "Ġoper": 4937,
      "Ġobey": 4938,
      "atform": 4939,
      "itched": 4940,
      "Ġbased": 4941,
      "Ġfear": 4942,
      "Ġfaces": 4943,
      "Ġcred": 4944,
      "Ġcats": 4945,
      "oral": 4946,
      "orrect": 4947,
      "ingly": 4948,
      "enance": 4949,
      "Ġmater": 4950,
      "Ġmatch": 4951,
      "ony": 4952,
      "Ġhic": 4953,
      "Ġham": 4954,
      "Ġhook": 4955,
      "Ġharm": 4956,
      "Ġhumm": 4957,
      "Ġhorn": 4958,
      "anch": 4959,
      "Ġpu": 4960,
      "Ġpor": 4961,
      "Ġpos": 4962,
      "Ġpins": 4963,
      "Ġpages": 4964,
      "Ġpaid": 4965,
      "Ġpicks": 4966,
      "Ġdough": 4967,
      "Ġthro": 4968,
      "Ġlim": 4969,
      "Ġlent": 4970,
      "Ġluck": 4971,
      "Ġlaid": 4972,
      "Ġlower": 4973,
      "Ġlemon": 4974,
      "asis": 4975,
      "Ġnervous": 4976,
      "ĠIII": 4977,
      "ĠIbar": 4978,
      "Ġeager": 4979,
      "icient": 4980,
      "Ġgym": 4981,
      "Ġbeast": 4982,
      "Ġbeaver": 4983,
      "utions": 4984,
      "sec": 4985,
      "Ġstable": 4986,
      "Ġstated": 4987,
      "Ġstates": 4988,
      "Ġstupid": 4989,
      "Ġhesit": 4990,
      "Ġrush": 4991,
      "amm": 4992,
      "ĠSon": 4993,
      "Ġanx": 4994,
      "ĠWU": 4995,
      "ĠWink": 4996,
      "Ġate": 4997,
      "ĠAcc": 4998,
      "iller": 4999,
      "illing": 5000,
      "think": 5001,
      "Ġsho": 5002,
      "Ġshook": 5003,
      "Ġshaking": 5004,
      "Ġshadows": 5005,
      "ilos": 5006,
      "ĠCome": 5007,
      "elled": 5008,
      "Ġdogs": 5009,
      "rible": 5010,
      "Ġsaved": 5011,
      "aph": 5012,
      "Ġsoc": 5013,
      "Ġexact": 5014,
      "Ġexcell": 5015,
      "ĠBo": 5016,
      "ĠBell": 5017,
      "ĠBring": 5018,
      "ĠBeginning": 5019,
      "ĠBaviaan": 5020,
      "Ġweary": 5021,
      "Ġplast": 5022,
      "Ġplatform": 5023,
      "anted": 5024,
      "antly": 5025,
      "antry": 5026,
      "ĠNora": 5027,
      "Ġchose": 5028,
      "Ġability": 5029,
      "Ġtrust": 5030,
      "ĠRep": 5031,
      "Ġquant": 5032,
      "Ġknock": 5033,
      "anged": 5034,
      "ĠPlace": 5035,
      "Ġconvenience": 5036,
      "Ġleaving": 5037,
      "Ġgrac": 5038,
      "resently": 5039,
      "ĠĠĠĠĠĠĠĠĠĠĠĠĠ": 5040,
      "Ġvo": 5041,
      "Ġvac": 5042,
      "Ġvol": 5043,
      "Ġvirt": 5044,
      "ĠOmar": 5045,
      "Ġprickles": 5046,
      "ĠFu": 5047,
      "ĠFine": 5048,
      "ĠField": 5049,
      "ĠFarrow": 5050,
      "Ġjumped": 5051,
      "Ġjudg": 5052,
      "ffect": 5053,
      "aching": 5054,
      "olo": 5055,
      "Ġgoat": 5056,
      "Ġclocks": 5057,
      "ĠChou": 5058,
      "ineers": 5059,
      "Ġenjoy": 5060,
      "Ġshouldn": 5061,
      "berley": 5062,
      "Ġstruck": 5063,
      "Ġscissors": 5064,
      "Ġremove": 5065,
      "Ġblind": 5066,
      "Ġblade": 5067,
      "Ġproverb": 5068,
      "Ġmanner": 5069,
      "hess": 5070,
      "Ġdeath": 5071,
      "Ġstream": 5072,
      "Ġteam": 5073,
      "Ġteeth": 5074,
      "Ġdisappeared": 5075,
      "Ġdiscipl": 5076,
      "ression": 5077,
      "Ġstepped": 5078,
      "izz": 5079,
      "ints": 5080,
      "Ġslower": 5081,
      "Ġreads": 5082,
      "Ġreaders": 5083,
      "coll": 5084,
      "Ġlasted": 5085,
      "Ġperform": 5086,
      "Ġcompan": 5087,
      "Ġcompass": 5088,
      "Ġcomposed": 5089,
      "Ġcomposition": 5090,
      "Ġindic": 5091,
      "Ġsurround": 5092,
      "Ġarmies": 5093,
      "Ġdesign": 5094,
      "ĠShu": 5095,
      "Ġcrit": 5096,
      "Ġ20": 5097,
      "Ġ21": 5098,
      "Ġstarted": 5099,
      "Ġwarfare": 5100,
      "Ġemp": 5101,
      "Ġemph": 5102,
      "Ġmarked": 5103,
      "Ġwriters": 5104,
      "Ġfeeling": 5105,
      "Ġpointed": 5106,
      "ighter": 5107,
      "Ġfinal": 5108,
      "Ġsupport": 5109,
      "Ġnumerous": 5110,
      "Ġdepth": 5111,
      "ĠEngineers": 5112,
      "Ġwins": 5113,
      "Ġwinters": 5114,
      "Ġtopics": 5115,
      "Ġaccord": 5116,
      "Ġplanted": 5117,
      "ĠWhich": 5118,
      "Ġpleased": 5119,
      "Ġdrying": 5120,
      "born": 5121,
      "Ġshallow": 5122,
      "Ġsmells": 5123,
      "Ġroads": 5124,
      "insula": 5125,
      "Ġbaked": 5126,
      "Ġfacts": 5127,
      "Ġlayers": 5128,
      "Ġrelation": 5129,
      "Ġrelated": 5130,
      "ological": 5131,
      "ĠCHING": 5132,
      "Ġparagraphs": 5133,
      "Ġbreaking": 5134,
      "Ġcooler": 5135,
      "Ġregular": 5136,
      "Ġattacked": 5137,
      "ĠMei": 5138,
      "Ġequally": 5139,
      "Ġequivalent": 5140,
      "ibility": 5141,
      "Ġtemple": 5142,
      "Ġhairy": 5143,
      "Ġdamaged": 5144,
      "Ġhills": 5145,
      "Ġoccup": 5146,
      "Ġoccasion": 5147,
      "Ġgreeting": 5148,
      "Ġmountains": 5149,
      "Ġchanging": 5150,
      "Ġconcrete": 5151,
      "Ġagreement": 5152,
      "Ġdynasties": 5153,
      "cript": 5154,
      "Ġdefeated": 5155,
      "Ġliterary": 5156,
      "Ġhabits": 5157,
      "Ġmessy": 5158,
      "Ġbeads": 5159,
      "Ġannoun": 5160,
      "Ġsuggest": 5161,
      "Ġprepar": 5162,
      "Ġfailed": 5163,
      "Ġseasons": 5164,
      "Ġfifty": 5165,
      "Ġdeliber": 5166,
      "Ġmotor": 5167,
      "Ġinspection": 5168,
      "Ġpubl": 5169,
      "Ġlaughing": 5170,
      "unctuation": 5171,
      "Ġsuspenders": 5172,
      "Ġpeninsula": 5173,
      "Ġgrandmother": 5174,
      "Ġcontinued": 5175,
      "Ġobserved": 5176,
      "Ġversion": 5177,
      "Ġtowel": 5178,
      "Ġpancake": 5179,
      "Ġangry": 5180,
      "Ġcounter": 5181,
      "Ġgenuine": 5182,
      "Ġsplit": 5183,
      "Ġescape": 5184,
      "Ġlakeside": 5185,
      "Ġconsequence": 5186,
      "Ġbriefly": 5187,
      "Ġhighest": 5188,
      "Ġferryman": 5189,
      "ajest": 5190,
      "Ġreleases": 5191,
      "Ġemployed": 5192,
      "Ġfetch": 5193,
      "Ġfigure": 5194,
      "iversity": 5195,
      "Ġindependent": 5196,
      "Ġsafest": 5197,
      "ĠItalian": 5198,
      "Ġtradition": 5199,
      "Ġstruggle": 5200,
      "Ġsubstitute": 5201,
      "Ġbeneath": 5202,
      "Ġcrisp": 5203,
      "Ġmaintenance": 5204,
      "ĠNqong": 5205,
      "Ġbirthday": 5206,
      "trees": 5207,
      "writing": 5208,
      "Ġaverage": 5209,
      "arrative": 5210,
      "Ġhunting": 5211,
      "Ġinstitution": 5212,
      "ĠShakespeare": 5213,
      "Ġpottery": 5214,
      "ĠIbarra": 5215,
      "ilosop": 5216,
      "Ġplastic": 5217,
      "!--": 5218,
      "26": 5219,
      "40": 5220,
      "AR": 5221,
      "Are": 5222,
      "ANG": 5223,
      "Be": 5224,
      "Beloved": 5225,
      "Joss": 5226,
      "Mina": 5227,
      "Presently": 5228,
      "Serve": 5229,
      "Simple": 5230,
      "To": 5231,
      "Very": 5232,
      "Wh": 5233,
      "Where": 5234,
      "ZU": 5235,
      "_)": 5236,
      "aith": 5237,
      "away": 5238,
      "avers": 5239,
      "bon": 5240,
      "bark": 5241,
      "bling": 5242,
      "cil": 5243,
      "ded": 5244,
      "door": 5245,
      "fall": 5246,
      "find": 5247,
      "fers": 5248,
      "fash": 5249,
      "good": 5250,
      "hin": 5251,
      "iving": 5252,
      "iations": 5253,
      "ibit": 5254,
      "know": 5255,
      "las": 5256,
      "mis": 5257,
      "mas": 5258,
      "may": 5259,
      "met": 5260,
      "military": 5261,
      "port": 5262,
      "pao": 5263,
      "rist": 5264,
      "rane": 5265,
      "sort": 5266,
      "uch": 5267,
      "ube": 5268,
      "vinc": 5269,
      "wu": 5270,
      "yes": 5271,
      "Ġver": 5272,
      "Ġident": 5273,
      "Ġzer": 5274,
      "Ġerosion": 5275,
      "Ġtel": 5276,
      "Ġtax": 5277,
      "hef": 5278,
      "Ġastr": 5279,
      "inated": 5280,
      "Ġtherm": 5281,
      "Ġsear": 5282,
      "Ġsip": 5283,
      "Ġwom": 5284,
      "Ġwipe": 5285,
      "Ġbod": 5286,
      "Ġbought": 5287,
      "Ġbath": 5288,
      "Ġbacter": 5289,
      "Ġfit": 5290,
      "Ġfan": 5291,
      "Ġfly": 5292,
      "Ġfishing": 5293,
      "Ġcough": 5294,
      "Ġcott": 5295,
      "Ġcrew": 5296,
      "orage": 5297,
      "ening": 5298,
      "Ġmed": 5299,
      "Ġmood": 5300,
      "eds": 5301,
      "edent": 5302,
      "esc": 5303,
      "Ġpep": 5304,
      "Ġpig": 5305,
      "Ġpowers": 5306,
      "Ġdish": 5307,
      "Ġlem": 5308,
      "Ġlying": 5309,
      "Ġluncheon": 5310,
      "ashed": 5311,
      "lease": 5312,
      "Ġeats": 5313,
      "ĠTZU": 5314,
      "Ġislands": 5315,
      "icol": 5316,
      "icip": 5317,
      "Ġgar": 5318,
      "Ġgathered": 5319,
      "vereign": 5320,
      "stance": 5321,
      "stances": 5322,
      "Ġbear": 5323,
      "idently": 5324,
      "idents": 5325,
      "uted": 5326,
      "imm": 5327,
      "imately": 5328,
      "Ġstage": 5329,
      "Ġstock": 5330,
      "Ġstairs": 5331,
      "Ġstories": 5332,
      "Ġstiff": 5333,
      "alcul": 5334,
      "Ġhen": 5335,
      "Ġhealth": 5336,
      "vey": 5337,
      "Ġrot": 5338,
      "Ġrust": 5339,
      "Ġrope": 5340,
      "Ġrati": 5341,
      "Ġrude": 5342,
      "Ġrabbit": 5343,
      "Ġug": 5344,
      "aming": 5345,
      "ament": 5346,
      "ambled": 5347,
      "ĠSix": 5348,
      "ĠServe": 5349,
      "ĠWarm": 5350,
      "ĠAug": 5351,
      "urning": 5352,
      "Ġasks": 5353,
      "Ġliked": 5354,
      "Ġshore": 5355,
      "Ġshown": 5356,
      "child": 5357,
      "change": 5358,
      "ĠCom": 5359,
      "ĠMake": 5360,
      "ĠMany": 5361,
      "ĠMartina": 5362,
      "ĠHart": 5363,
      "iform": 5364,
      "ifts": 5365,
      "ults": 5366,
      "Ġworst": 5367,
      "river": 5368,
      "Ġmov": 5369,
      "hens": 5370,
      "indrow": 5371,
      "umbs": 5372,
      "hatic": 5373,
      "apons": 5374,
      "Ġallow": 5375,
      "Ġfringe": 5376,
      "Ġarea": 5377,
      "ĠBl": 5378,
      "ĠBella": 5379,
      "Ġwear": 5380,
      "ĠYao": 5381,
      "ĠYellow": 5382,
      "Ġplot": 5383,
      "eless": 5384,
      "aker": 5385,
      "Ġspell": 5386,
      "Ġspears": 5387,
      "Ġspider": 5388,
      "Ġalthough": 5389,
      "ĠRuby": 5390,
      "ĠRoman": 5391,
      "Ġqual": 5392,
      "arted": 5393,
      "ĠPress": 5394,
      "Ġconst": 5395,
      "Ġconcise": 5396,
      "ecedent": 5397,
      "Ġcoins": 5398,
      "ability": 5399,
      "ĠLight": 5400,
      "ĠLord": 5401,
      "ĠLucas": 5402,
      "ĠLimpopo": 5403,
      "Ġoutward": 5404,
      "oceros": 5405,
      "ections": 5406,
      "ĠDay": 5407,
      "ĠDoor": 5408,
      "ĠDuke": 5409,
      "Ġtwos": 5410,
      "Ġtwelf": 5411,
      "ĠOak": 5412,
      "ĠFish": 5413,
      "ĠFelix": 5414,
      "play": 5415,
      "Ġjack": 5416,
      "Ġjumping": 5417,
      "odore": 5418,
      "Ġdaylight": 5419,
      "ĠChris": 5420,
      "ĠChuan": 5421,
      "ĠChrist": 5422,
      "Ġflows": 5423,
      "Ġflower": 5424,
      "Ġenamel": 5425,
      "Ġdrinks": 5426,
      "Ġsomewhat": 5427,
      "Ġwhereas": 5428,
      "ĠGover": 5429,
      "Ġpond": 5430,
      "ometer": 5431,
      "Ġunnecessary": 5432,
      "Ġuniform": 5433,
      "Ġscent": 5434,
      "Ġscient": 5435,
      "Ġscene": 5436,
      "Ġunderne": 5437,
      "Ġthrow": 5438,
      "Ġthrust": 5439,
      "being": 5440,
      "been": 5441,
      "ĠHeat": 5442,
      "Ġprogram": 5443,
      "ĠJul": 5444,
      "iction": 5445,
      "Ġmanners": 5446,
      "Ġapplic": 5447,
      "Ġthroughout": 5448,
      "Ġteas": 5449,
      "swamp": 5450,
      "Ġrestless": 5451,
      "izes": 5452,
      "Ġriverbank": 5453,
      "Ġgreatly": 5454,
      "Ġtelling": 5455,
      "Ġfinds": 5456,
      "Ġending": 5457,
      "lived": 5458,
      "Ġreputation": 5459,
      "closed": 5460,
      "Ġanswering": 5461,
      "Ġanswered": 5462,
      "Ġpercent": 5463,
      "brarian": 5464,
      "Ġlets": 5465,
      "Ġexpect": 5466,
      "erties": 5467,
      "Ġboil": 5468,
      "ledge": 5469,
      "Ġswam": 5470,
      "Ġcontrol": 5471,
      "onsider": 5472,
      "shu": 5473,
      "Ġprefer": 5474,
      "Ġplanned": 5475,
      "Ġcraft": 5476,
      "ission": 5477,
      "uthors": 5478,
      "Ġbelieved": 5479,
      "Ġfright": 5480,
      "Ġenters": 5481,
      "Ġweekly": 5482,
      "Ġshowing": 5483,
      "Ġdonkey": 5484,
      "ossip": 5485,
      "scrap": 5486,
      "ĠUp": 5487,
      "ĠUs": 5488,
      "Ġlearning": 5489,
      "anches": 5490,
      "Ġgenerals": 5491,
      "Ġgenerations": 5492,
      "Ġretire": 5493,
      "ĠAsia": 5494,
      "Ġdistinct": 5495,
      "Ġdecade": 5496,
      "Ġsubdiv": 5497,
      "Ġjoin": 5498,
      "Ġschoolmist": 5499,
      "Ġbuy": 5500,
      "Ġconfident": 5501,
      "Ġtalked": 5502,
      "Ġinterpret": 5503,
      "Stute": 5504,
      "Ġtreated": 5505,
      "Ġacts": 5506,
      "Ġactual": 5507,
      "Ġmissing": 5508,
      "Chang": 5509,
      "Ġpulling": 5510,
      "Ġforgetting": 5511,
      "Ġadds": 5512,
      "anything": 5513,
      "ucked": 5514,
      "ĠMarsh": 5515,
      "Ġconsist": 5516,
      "Ġmonument": 5517,
      "cked": 5518,
      "Ġfeathers": 5519,
      "Librarian": 5520,
      "Ġchariots": 5521,
      "Ġhurt": 5522,
      "Ġintended": 5523,
      "Ġspoons": 5524,
      "ĠHsin": 5525,
      "iterrane": 5526,
      "Ġfewer": 5527,
      "Ġtrains": 5528,
      "Ġtraining": 5529,
      "Ġshelter": 5530,
      "Ġshelves": 5531,
      "eaver": 5532,
      "Ġstorms": 5533,
      "Ġcorrected": 5534,
      "Ġstudent": 5535,
      "Ġsoldier": 5536,
      "Ġsigns": 5537,
      "Ġattacks": 5538,
      "Ġguess": 5539,
      "Ġdefense": 5540,
      "Ġ47": 5541,
      "Ġsym": 5542,
      "Ġseriously": 5543,
      "Ġspecial": 5544,
      "Ġproblems": 5545,
      "ĠLike": 5546,
      "Ġdusty": 5547,
      "Ġquotes": 5548,
      "Nothing": 5549,
      "understand": 5550,
      "Ġsnake": 5551,
      "Ġlanguages": 5552,
      "Ġpools": 5553,
      "Ġbarn": 5554,
      "Ġchanges": 5555,
      "Ġexistence": 5556,
      "III": 5557,
      "Ġhoriz": 5558,
      "Ġclimb": 5559,
      "Ġliterature": 5560,
      "Ġparticularly": 5561,
      "Ġattendance": 5562,
      "ustomer": 5563,
      "Ġannoy": 5564,
      "ĠArm": 5565,
      "Ġexcited": 5566,
      "Ġflooded": 5567,
      "Ġseason": 5568,
      "ĠUniversity": 5569,
      "mistak": 5570,
      "Ġfifth": 5571,
      "Ġload": 5572,
      "Ġtreatise": 5573,
      "Ġestab": 5574,
      "Ġcandy": 5575,
      "Ġinspected": 5576,
      "Ġweakness": 5577,
      "ĠParis": 5578,
      "Ġnaturally": 5579,
      "Ġquarters": 5580,
      "Ġpilot": 5581,
      "Ġpockets": 5582,
      "ĠSpain": 5583,
      "Ġfrogs": 5584,
      "Ġcopper": 5585,
      "Ġremarked": 5586,
      "Ġregarded": 5587,
      "known": 5588,
      "Ġprotect": 5589,
      "Ġelectricity": 5590,
      "Ratty": 5591,
      "Ġcustomer": 5592,
      "Ġshouted": 5593,
      "Ġsuperior": 5594,
      "Ġdescription": 5595,
      "Ġtyp": 5596,
      "hetic": 5597,
      "Ġlabor": 5598,
      "ĠRomeo": 5599,
      "ĠStefan": 5600,
      "skar": 5601,
      "Ġneighb": 5602,
      "Ġdissol": 5603,
      "Ġevaporation": 5604,
      "Ġsweet": 5605,
      "Ġmirror": 5606,
      "keeper": 5607,
      "Ġentrance": 5608,
      "Grandpa": 5609,
      "Ġessent": 5610,
      "Ġtablespoon": 5611,
      "pictures": 5612,
      "Ġmechanic": 5613,
      "ĠDesert": 5614,
      "Ġsuspicious": 5615,
      "Ġsemicol": 5616,
      "Ġsteepest": 5617,
      "Ġarrange": 5618,
      "ĠWinkler": 5619,
      "Ġvoices": 5620,
      "Ġemphatic": 5621,
      "fashioned": 5622,
      "hinoceros": 5623,
      "Ġzero": 5624,
      "Ġtelesc": 5625,
      "Ġthermometer": 5626,
      "Ġwomen": 5627,
      "Ġbacteria": 5628,
      "Ġlemons": 5629,
      "Ġratio": 5630,
      "ĠAugust": 5631,
      "Ġtwelfth": 5632,
      "Ġunderneath": 5633,
      "Ġschoolmistress": 5634,
      "iterranean": 5635,
      "!_": 5636,
      ".),": 5637,
      ".ï¿½": 5638,
      "25": 5639,
      "49": 5640,
      "After": 5641,
      "Chef": 5642,
      "Customer": 5643,
      "Good": 5644,
      "Look": 5645,
      "Ms": 5646,
      "Nurse": 5647,
      "Off": 5648,
      "Pay": 5649,
      "Pete": 5650,
      "She": 5651,
      "Toad": 5652,
      "Visitor": 5653,
      "bel": 5654,
      "bask": 5655,
      "car": 5656,
      "cher": 5657,
      "certain": 5658,
      "cards": 5659,
      "carp": 5660,
      "do": 5661,
      "dist": 5662,
      "def": 5663,
      "eh": 5664,
      "ev": 5665,
      "equ": 5666,
      "fa": 5667,
      "fri": 5668,
      "first": 5669,
      "gl": 5670,
      "go": 5671,
      "ging": 5672,
      "great": 5673,
      "iation": 5674,
      "mall": 5675,
      "mag": 5676,
      "mber": 5677,
      "mons": 5678,
      "nut": 5679,
      "nel": 5680,
      "nature": 5681,
      "ney": 5682,
      "ox": 5683,
      "onder": 5684,
      "pro": 5685,
      "pie": 5686,
      "pass": 5687,
      "pared": 5688,
      "point": 5689,
      "rict": 5690,
      "same": 5691,
      "sure": 5692,
      "then": 5693,
      "took": 5694,
      "talk": 5695,
      "turn": 5696,
      "taste": 5697,
      "uum": 5698,
      "vas": 5699,
      "vest": 5700,
      "wing": 5701,
      "wood": 5702,
      "wright": 5703,
      "worth": 5704,
      "Ġ=": 5705,
      "Ġing": 5706,
      "ĠXavier": 5707,
      "ĠZoe": 5708,
      "Ġutter": 5709,
      "Ġtour": 5710,
      "Ġtong": 5711,
      "Ġtails": 5712,
      "Ġtube": 5713,
      "Ġaid": 5714,
      "Ġaud": 5715,
      "inent": 5716,
      "Ġsess": 5717,
      "Ġsouth": 5718,
      "Ġsections": 5719,
      "Ġwing": 5720,
      "Ġwore": 5721,
      "Ġwings": 5722,
      "erned": 5723,
      "ndar": 5724,
      "rel": 5725,
      "reme": 5726,
      "ata": 5727,
      "itement": 5728,
      "Ġble": 5729,
      "Ġbite": 5730,
      "Ġburn": 5731,
      "Ġbold": 5732,
      "Ġborn": 5733,
      "isc": 5734,
      "Ġced": 5735,
      "Ġcam": 5736,
      "Ġcreat": 5737,
      "Ġcale": 5738,
      "Ġchess": 5739,
      "ingu": 5740,
      "inging": 5741,
      "Ġmild": 5742,
      "Ġmentions": 5743,
      "edient": 5744,
      "onom": 5745,
      "onoun": 5746,
      "Ġhit": 5747,
      "Ġhon": 5748,
      "Ġhast": 5749,
      "Ġhither": 5750,
      "Ġhides": 5751,
      "aning": 5752,
      "Ġpet": 5753,
      "Ġpour": 5754,
      "Ġpave": 5755,
      "Ġphys": 5756,
      "Ġprivate": 5757,
      "Ġdim": 5758,
      "Ġdull": 5759,
      "Ġdawn": 5760,
      "Ġdouble": 5761,
      "Ġdirty": 5762,
      "Ġthorn": 5763,
      "Ġlump": 5764,
      "ason": 5765,
      "Ġinn": 5766,
      "Ġinit": 5767,
      "ĠIvy": 5768,
      "ĠTessa": 5769,
      "ĠTIEN": 5770,
      "Ġgir": 5771,
      "Ġgri": 5772,
      "Ġgarl": 5773,
      "Ġgossip": 5774,
      "eters": 5775,
      "vert": 5776,
      "state": 5777,
      "stud": 5778,
      "steps": 5779,
      "Ġbeavers": 5780,
      "adually": 5781,
      "imal": 5782,
      "imeters": 5783,
      "Ġsting": 5784,
      "Ġstag": 5785,
      "Ġstaff": 5786,
      "Ġstamp": 5787,
      "alia": 5788,
      "Ġreli": 5789,
      "Ġheight": 5790,
      "Ġheel": 5791,
      "Ġrid": 5792,
      "Ġride": 5793,
      "ĠSSU": 5794,
      "cel": 5795,
      "cels": 5796,
      "ĠWr": 5797,
      "ĠWatching": 5798,
      "Ġatm": 5799,
      "ĠAd": 5800,
      "ĠApp": 5801,
      "ĠAunt": 5802,
      "ĠAvoid": 5803,
      "ural": 5804,
      "urther": 5805,
      "ĠTheodore": 5806,
      "three": 5807,
      "Ġassemb": 5808,
      "Ġlif": 5809,
      "Ġlikes": 5810,
      "opes": 5811,
      "Ġshut": 5812,
      "Ġshake": 5813,
      "iling": 5814,
      "ilities": 5815,
      "chair": 5816,
      "ĠCape": 5817,
      "ĠMark": 5818,
      "ĠMeng": 5819,
      "ĠHall": 5820,
      "ĠHAN": 5821,
      "ulation": 5822,
      "rib": 5823,
      "umb": 5824,
      "apes": 5825,
      "apole": 5826,
      "Ġsofa": 5827,
      "anded": 5828,
      "agem": 5829,
      "agai": 5830,
      "Ġexped": 5831,
      "ĠBake": 5832,
      "ĠBab": 5833,
      "ĠEver": 5834,
      "ource": 5835,
      "ushing": 5836,
      "roy": 5837,
      "Ġweapons": 5838,
      "Ġorch": 5839,
      "ĠItaly": 5840,
      "ĠYet": 5841,
      "ĠNone": 5842,
      "ĠNever": 5843,
      "ĠNorth": 5844,
      "Ġchairs": 5845,
      "pping": 5846,
      "Ġaboriginal": 5847,
      "Ġspite": 5848,
      "Ġtroub": 5849,
      "Ġalive": 5850,
      "ĠRio": 5851,
      "ĠRinse": 5852,
      "ĠRhinoceros": 5853,
      "Ġcanvas": 5854,
      "empor": 5855,
      "These": 5856,
      "Ġknot": 5857,
      "ĠPo": 5858,
      "ĠPeter": 5859,
      "Ġupright": 5860,
      "Ġlever": 5861,
      "ĠLittle": 5862,
      "ĠLily": 5863,
      "Ġarrows": 5864,
      "Ġgras": 5865,
      "Ġgrain": 5866,
      "Ġ'_": 5867,
      "Ġvast": 5868,
      "Ġvictor": 5869,
      "ender": 5870,
      "ĠDr": 5871,
      "ĠDog": 5872,
      "arest": 5873,
      "ĠFar": 5874,
      "ĠFarah": 5875,
      "Ġsmiled": 5876,
      "aved": 5877,
      "Ġju": 5878,
      "Ġjam": 5879,
      "olt": 5880,
      "iege": 5881,
      "Ġclosing": 5882,
      "Ġclerk": 5883,
      "Ġbrick": 5884,
      "Ġbranch": 5885,
      "Ġbranches": 5886,
      "ĠChien": 5887,
      "Ġaftertaste": 5888,
      "Ġmyself": 5889,
      "Ġslip": 5890,
      "Ġflung": 5891,
      "Ġenc": 5892,
      "Ġenvel": 5893,
      "ften": 5894,
      "Ġmug": 5895,
      "venson": 5896,
      "Ġdrag": 5897,
      "Ġdrank": 5898,
      "Ġoldest": 5899,
      "Ġsayings": 5900,
      "Ġ(_": 5901,
      "Ġ100": 5902,
      "Ġknowing": 5903,
      "ĠKU": 5904,
      "ĠKou": 5905,
      "Ġstring": 5906,
      "Ġstruct": 5907,
      "Ġunf": 5908,
      "Ġunco": 5909,
      "Ġunlike": 5910,
      "Ġunmistak": 5911,
      "Ġscience": 5912,
      "Ġscales": 5913,
      "Ġsculls": 5914,
      "Ġsheer": 5915,
      "Ġthrowing": 5916,
      "Ġneedle": 5917,
      "Ġneedless": 5918,
      "Ġminuted": 5919,
      "Ġbless": 5920,
      "Ġprove": 5921,
      "ĠJuly": 5922,
      "Ġlighthouse": 5923,
      "Ġappe": 5924,
      "udes": 5925,
      "udget": 5926,
      "Ġdisag": 5927,
      "ressed": 5928,
      "Ġcalls": 5929,
      "ization": 5930,
      "Ġsounded": 5931,
      "ubborn": 5932,
      "nothing": 5933,
      "ordered": 5934,
      "ordinary": 5935,
      "ĠAnna": 5936,
      "lied": 5937,
      "Ġrepairs": 5938,
      "Ġuntidy": 5939,
      "rison": 5940,
      "Ġperil": 5941,
      "Ġcompet": 5942,
      "Ġcomput": 5943,
      "Ġstops": 5944,
      "Ġformed": 5945,
      "Ġsermons": 5946,
      "Ġswell": 5947,
      "Ġgloves": 5948,
      "ivity": 5949,
      "Ġprev": 5950,
      "ĠSoft": 5951,
      "Ġplanet": 5952,
      "Ġobedient": 5953,
      "Ġcommas": 5954,
      "Ġcheap": 5955,
      "Ġchemist": 5956,
      "Ġpassive": 5957,
      "Ġourselves": 5958,
      "Ġwants": 5959,
      "Ġwanting": 5960,
      "ĠNobody": 5961,
      "Ġentering": 5962,
      "Ġinvol": 5963,
      "Ġpointing": 5964,
      "ĠVera": 5965,
      "Ġarriving": 5966,
      "Ġarrives": 5967,
      "Ġplays": 5968,
      "scr": 5969,
      "Ġdifferently": 5970,
      "Ġdelight": 5971,
      "Ġdelicate": 5972,
      "Ġdecide": 5973,
      "Ġheats": 5974,
      "Ġhumph": 5975,
      "mann": 5976,
      "Ġdepend": 5977,
      "Ġordered": 5978,
      "Ġproperties": 5979,
      "Ġforgive": 5980,
      "Ġimage": 5981,
      "Ġcentimeters": 5982,
      "Ġdroplets": 5983,
      "forward": 5984,
      "ĠWhit": 5985,
      "Ġsoftly": 5986,
      "ĠMrs": 5987,
      "Ġcurious": 5988,
      "Ġforecast": 5989,
      "ĠPerak": 5990,
      "Ġtriumph": 5991,
      "Ġhousehold": 5992,
      "Ġdrawing": 5993,
      "spect": 5994,
      "spanked": 5995,
      "Ġrefle": 5996,
      "Ġfeud": 5997,
      "eterm": 5998,
      "Ġreturned": 5999,
      "Ġmoonlight": 6000,
      "astern": 6001,
      "Ġsilk": 6002,
      "Ġargued": 6003,
      "ippopotam": 6004,
      "Ġexception": 6005,
      "Ġmarsh": 6006,
      "estern": 6007,
      "ienced": 6008,
      "Ġexplanation": 6009,
      "Ġcorrections": 6010,
      "ĠFridays": 6011,
      "Ġterrible": 6012,
      "Ġpicked": 6013,
      "Ġstudents": 6014,
      "Ġstudying": 6015,
      "Ġscratch": 6016,
      "Ġscrambled": 6017,
      "ĠYuan": 6018,
      "Ġkitchens": 6019,
      "Ġguard": 6020,
      "Ġ49": 6021,
      "Ġbottle": 6022,
      "Ġ50": 6023,
      "Ġpolit": 6024,
      "Ġpolish": 6025,
      "Ġfarmer": 6026,
      "Ġfarmers": 6027,
      "ification": 6028,
      "Ġcrossed": 6029,
      "Ġsurvive": 6030,
      "Everything": 6031,
      "Ġladle": 6032,
      "ĠAlma": 6033,
      "ĠLiam": 6034,
      "Ġmeasured": 6035,
      "000": 6036,
      "Ġconcert": 6037,
      "Ġconcerned": 6038,
      "Ġleads": 6039,
      "ritory": 6040,
      "Ġeffects": 6041,
      "Ġmuscles": 6042,
      "Ġfolded": 6043,
      "Ġtailor": 6044,
      "pensive": 6045,
      "Ġstored": 6046,
      "Ġfuneral": 6047,
      "Ġprepare": 6048,
      "Ġdiscussion": 6049,
      "Ġfifteen": 6050,
      "Ġdivided": 6051,
      "Ġcandle": 6052,
      "Ġroutine": 6053,
      "ĠCrack": 6054,
      "ĠCrab": 6055,
      "ĠEmpire": 6056,
      "ustralia": 6057,
      "Ġrubbing": 6058,
      "Ġconnect": 6059,
      "Ġconnection": 6060,
      "Ġpretty": 6061,
      "Ġcheerful": 6062,
      "Ġcheerfully": 6063,
      "Ġaddressed": 6064,
      "sentence": 6065,
      "sentences": 6066,
      "Ġbulges": 6067,
      "Ġcosts": 6068,
      "Ġprotective": 6069,
      "Ġcounsel": 6070,
      "account": 6071,
      "Ġradio": 6072,
      "Ġkingdom": 6073,
      "Ġexperience": 6074,
      "Ġphrases": 6075,
      "Ġnecklace": 6076,
      "ĠPaula": 6077,
      "Ġproduce": 6078,
      "ceptionist": 6079,
      "Ġdefinition": 6080,
      "Ġsongs": 6081,
      "Ġbenef": 6082,
      "Ġceased": 6083,
      "Ġhigher": 6084,
      "Ġpainter": 6085,
      "Ġhumanity": 6086,
      "Ġtype": 6087,
      "Ġleaned": 6088,
      "ĠFlip": 6089,
      "Ġprofession": 6090,
      "Ġpossessive": 6091,
      "finite": 6092,
      "Ġinstructions": 6093,
      "Ġdestroy": 6094,
      "ributed": 6095,
      "ĠChapter": 6096,
      "Ġindividual": 6097,
      "Ġpicnics": 6098,
      "called": 6099,
      "Ġprecisely": 6100,
      "Ġintervals": 6101,
      "Ġvegetables": 6102,
      "Ġastonished": 6103,
      "Receptionist": 6104,
      "Ġdomin": 6105,
      "Ġscatters": 6106,
      "Ġsqueeze": 6107,
      "Ġcautious": 6108,
      "Ġmurm": 6109,
      "Ġechoes": 6110,
      "Ġmolecule": 6111,
      "ĠBraun": 6112,
      "Ġcomparison": 6113,
      "Ġoperations": 6114,
      "Ġhummed": 6115,
      "Ġthroat": 6116,
      "Ġquantity": 6117,
      "Ġgraciously": 6118,
      "Ġvacuum": 6119,
      "Ġjudgment": 6120,
      "Ġdiscipline": 6121,
      "Ġpreparation": 6122,
      "ajesty": 6123,
      "Ġpepper": 6124,
      "Ġugly": 6125,
      "ĠHartmann": 6126,
      "ĠGovernment": 6127,
      "Ġscientist": 6128,
      "ĠJuliet": 6129,
      "Ġhorizon": 6130,
      "Ġneighbors": 6131,
      "Ġtablespoons": 6132,
      "Ġsemicolon": 6133,
      "Payah": 6134,
      "basket": 6135,
      "Ġsessions": 6136,
      "Ġcalendar": 6137,
      "Ġgirls": 6138,
      "Ġgarlic": 6139,
      "apoleon": 6140,
      "ĠBaboon": 6141,
      "Ġenvelope": 6142,
      "ippopotamus": 6143,
      "',": 6144,
      "._": 6145,
      "11": 6146,
      "48": 6147,
      "69": 6148,
      "?_'": 6149,
      "Agent": 6150,
      "Hal": 6151,
      "IN": 6152,
      "ING": 6153,
      "Kun": 6154,
      "Me": 6155,
      "Make": 6156,
      "Oskar": 6157,
      "Per": 6158,
      "Patient": 6159,
      "See": 6160,
      "Scuse": 6161,
      "Tur": 6162,
      "Tortoise": 6163,
      "Your": 6164,
      "].": 6165,
      "afe": 6166,
      "bound": 6167,
      "big": 6168,
      "bars": 6169,
      "ca": 6170,
      "cur": 6171,
      "coloured": 6172,
      "eu": 6173,
      "eer": 6174,
      "far": 6175,
      "ford": 6176,
      "follow": 6177,
      "gan": 6178,
      "got": 6179,
      "gers": 6180,
      "hind": 6181,
      "hab": 6182,
      "hung": 6183,
      "hsu": 6184,
      "hibit": 6185,
      "iences": 6186,
      "ibs": 6187,
      "kin": 6188,
      "kind": 6189,
      "lo": 6190,
      "lig": 6191,
      "mit": 6192,
      "mouse": 6193,
      "never": 6194,
      "oom": 6195,
      "oqu": 6196,
      "ps": 6197,
      "pull": 6198,
      "poop": 6199,
      "poles": 6200,
      "run": 6201,
      "sur": 6202,
      "saw": 6203,
      "summ": 6204,
      "snake": 6205,
      "too": 6206,
      "tain": 6207,
      "tell": 6208,
      "tree": 6209,
      "ux": 6210,
      "uable": 6211,
      "uge": 6212,
      "uild": 6213,
      "words": 6214,
      "yang": 6215,
      "zes": 6216,
      "Ġtum": 6217,
      "Ġtap": 6218,
      "Ġtears": 6219,
      "Ġtied": 6220,
      "Ġtask": 6221,
      "Ġavo": 6222,
      "inction": 6223,
      "Ġsard": 6224,
      "Ġward": 6225,
      "Ġwild": 6226,
      "erly": 6227,
      "erch": 6228,
      "ndry": 6229,
      "ouched": 6230,
      "aters": 6231,
      "atory": 6232,
      "atisf": 6233,
      "atagem": 6234,
      "itect": 6235,
      "Ġbay": 6236,
      "Ġbent": 6237,
      "Ġbone": 6238,
      "Ġbab": 6239,
      "Ġbows": 6240,
      "Ġbones": 6241,
      "Ġfest": 6242,
      "Ġfable": 6243,
      "Ġfool": 6244,
      "Ġfails": 6245,
      "Ġfaith": 6246,
      "Ġcow": 6247,
      "Ġcard": 6248,
      "Ġchat": 6249,
      "Ġcream": 6250,
      "Ġcores": 6251,
      "Ġmat": 6252,
      "Ġmile": 6253,
      "edom": 6254,
      "editerranean": 6255,
      "arly": 6256,
      "arct": 6257,
      "once": 6258,
      "Ġhind": 6259,
      "anes": 6260,
      "anity": 6261,
      "Ġtoes": 6262,
      "Ġtoad": 6263,
      "Ġpul": 6264,
      "Ġparl": 6265,
      "Ġpaddy": 6266,
      "Ġpounds": 6267,
      "Ġpunctuation": 6268,
      "Ġdess": 6269,
      "Ġdance": 6270,
      "Ġdates": 6271,
      "Ġduck": 6272,
      "Ġdial": 6273,
      "Ġdived": 6274,
      "Ġdirt": 6275,
      "Ġducks": 6276,
      "Ġdeterm": 6277,
      "Ġloss": 6278,
      "Ġlane": 6279,
      "asm": 6280,
      "ashes": 6281,
      "Ġinqu": 6282,
      "Ġinex": 6283,
      "Ġnail": 6284,
      "Ġnurs": 6285,
      "Ġnamed": 6286,
      "Ġnarrative": 6287,
      "lend": 6288,
      "letter": 6289,
      "ĠImag": 6290,
      "ĠTara": 6291,
      "oted": 6292,
      "icler": 6293,
      "Ġgle": 6294,
      "Ġgift": 6295,
      "ethod": 6296,
      "Ġbeans": 6297,
      "ading": 6298,
      "seen": 6299,
      "Ġstat": 6300,
      "Ġstro": 6301,
      "Ġstings": 6302,
      "Ġstuff": 6303,
      "Ġstorage": 6304,
      "Ġstubborn": 6305,
      "aling": 6306,
      "ghter": 6307,
      "Ġreign": 6308,
      "Ġreef": 6309,
      "Ġheaven": 6310,
      "Ġhemis": 6311,
      "ooped": 6312,
      "Ġrat": 6313,
      "Ġrom": 6314,
      "Ġrum": 6315,
      "Ġrank": 6316,
      "Ġrays": 6317,
      "Ġrode": 6318,
      "Ġribs": 6319,
      "Ġul": 6320,
      "Ġwasted": 6321,
      "iring": 6322,
      "amph": 6323,
      "ĠSc": 6324,
      "ĠSir": 6325,
      "ĠSah": 6326,
      "ĠSib": 6327,
      "ĠWor": 6328,
      "ĠWEN": 6329,
      "ĠWagai": 6330,
      "ĠAR": 6331,
      "ĠAc": 6332,
      "ĠApr": 6333,
      "ĠAva": 6334,
      "ĠAustralia": 6335,
      "illiant": 6336,
      "those": 6337,
      "Ġaside": 6338,
      "Ġasleep": 6339,
      "opped": 6340,
      "Ġshy": 6341,
      "Ġshin": 6342,
      "Ġnearest": 6343,
      "changed": 6344,
      "ĠChing": 6345,
      "ĠCarl": 6346,
      "ĠCover": 6347,
      "ĠCheng": 6348,
      "ĠMing": 6349,
      "ĠMap": 6350,
      "ĠMiller": 6351,
      "ĠMediterranean": 6352,
      "ĠHS": 6353,
      "ĠHans": 6354,
      "ĠHao": 6355,
      "ĠHale": 6356,
      "ifty": 6357,
      "ifted": 6358,
      "estions": 6359,
      "indeed": 6360,
      "arden": 6361,
      "Ġkun": 6362,
      "Ġsole": 6363,
      "Ġsovereign": 6364,
      "ago": 6365,
      "Ġfro": 6366,
      "ĠBen": 6367,
      "ĠBetter": 6368,
      "ĠElena": 6369,
      "ept": 6370,
      "uscript": 6371,
      "Ġorgan": 6372,
      "early": 6373,
      "antic": 6374,
      "ĠNapoleon": 6375,
      "Ġwhoever": 6376,
      "Ġwholly": 6377,
      "Ġchill": 6378,
      "Ġchos": 6379,
      "Ġchoice": 6380,
      "Ġspare": 6381,
      "Ġtrap": 6382,
      "Ġalike": 6383,
      "ĠRest": 6384,
      "ĠRem": 6385,
      "ĠRoad": 6386,
      "ements": 6387,
      "embers": 6388,
      "ĠPr": 6389,
      "ĠPort": 6390,
      "ĠPriya": 6391,
      "Ġupset": 6392,
      "Ġconver": 6393,
      "Ġcoat": 6394,
      "Ġcode": 6395,
      "abet": 6396,
      "abby": 6397,
      "ĠLU": 6398,
      "ĠLin": 6399,
      "ĠLantern": 6400,
      "Ġgrating": 6401,
      "Ġgrands": 6402,
      "Ġvent": 6403,
      "Ġvary": 6404,
      "osal": 6405,
      "ositions": 6406,
      "ĠDone": 6407,
      "ĠOF": 6408,
      "ĠOx": 6409,
      "ĠOwen": 6410,
      "Ġpronoun": 6411,
      "ĠFour": 6412,
      "ĠFort": 6413,
      "Ġjump": 6414,
      "ously": 6415,
      "olutions": 6416,
      "Ġclaimed": 6417,
      "Ġbrave": 6418,
      "icking": 6419,
      "alking": 6420,
      "ĠChia": 6421,
      "ĠChron": 6422,
      "ishment": 6423,
      "ptom": 6424,
      "Ġflame": 6425,
      "Ġfluff": 6426,
      "Ġenclosed": 6427,
      "ference": 6428,
      "Ġbecoming": 6429,
      "venient": 6430,
      "Ġdrifting": 6431,
      "Ġsees": 6432,
      "Ġsevent": 6433,
      "Ġotherwise": 6434,
      "mentators": 6435,
      "Ġsomebody": 6436,
      "Ġadject": 6437,
      "ĠGree": 6438,
      "Ġknowledge": 6439,
      "Ġovernight": 6440,
      "Ġunderground": 6441,
      "Ġthrown": 6442,
      "Ġcarbon": 6443,
      "Ġblow": 6444,
      "Ġprose": 6445,
      "Ġprospect": 6446,
      "Ġprohibit": 6447,
      "ĠJan": 6448,
      "ĠJoy": 6449,
      "Ġherons": 6450,
      "Ġattract": 6451,
      "Ġacqu": 6452,
      "Ġapplies": 6453,
      "Ġteach": 6454,
      "Ġdisorder": 6455,
      "inting": 6456,
      "ubject": 6457,
      "ĠAnother": 6458,
      "ĠAnimals": 6459,
      "Ġtens": 6460,
      "Ġrepresent": 6461,
      "ationship": 6462,
      "Ġharder": 6463,
      "Ġputs": 6464,
      "pense": 6465,
      "text": 6466,
      "Ġtowns": 6467,
      "Ġperimeter": 6468,
      "brown": 6469,
      "Ġcompared": 6470,
      "Ġimpression": 6471,
      "Ġforming": 6472,
      "Ġphilosop": 6473,
      "gery": 6474,
      "gering": 6475,
      "Ġsurf": 6476,
      "Ġswung": 6477,
      "Ġcontents": 6478,
      "Ġcontained": 6479,
      "Ġcontains": 6480,
      "Ġcontempor": 6481,
      "phabet": 6482,
      "shall": 6483,
      "ship": 6484,
      "shaped": 6485,
      "Ġprec": 6486,
      "Ġprefers": 6487,
      "ups": 6488,
      "Ġobsc": 6489,
      "Ġchest": 6490,
      "ĠHowever": 6491,
      "Ġ23": 6492,
      "Ġreck": 6493,
      "Ġrecall": 6494,
      "Ġfourteen": 6495,
      "Ġsinks": 6496,
      "Ġexplains": 6497,
      "pring": 6498,
      "ĠOnly": 6499,
      "ĠVen": 6500,
      "Ġedit": 6501,
      "Ġplaywright": 6502,
      "Ġresults": 6503,
      "Ġgenerally": 6504,
      "Ġretreat": 6505,
      "Ġdecision": 6506,
      "ĠExplain": 6507,
      "Once": 6508,
      "Ġschools": 6509,
      "Ġconfusion": 6510,
      "Ġintern": 6511,
      "Still": 6512,
      "Ġhelping": 6513,
      "Ġwinning": 6514,
      "Ana": 6515,
      "Ġsits": 6516,
      "Ġpostcards": 6517,
      "Ġfirelight": 6518,
      "Ġadding": 6519,
      "Ġcurl": 6520,
      "comm": 6521,
      "ĠMarch": 6522,
      "strict": 6523,
      "Ġtribe": 6524,
      "Ġfairy": 6525,
      "Ġdrawer": 6526,
      "Ġrelief": 6527,
      "Ġcleaning": 6528,
      "Ġpeaks": 6529,
      "Ġintell": 6530,
      "Ġcupbo": 6531,
      "without": 6532,
      "Ġfastest": 6533,
      "Ġmarch": 6534,
      "Ġstationary": 6535,
      "Ġproperty": 6536,
      "Ġcommentaries": 6537,
      "Ġcooling": 6538,
      "Ġcertainty": 6539,
      "Ġterr": 6540,
      "Ġdirectly": 6541,
      "Ġstudied": 6542,
      "Ġrequest": 6543,
      "Ġstretching": 6544,
      "Ġsignal": 6545,
      "Ġsignals": 6546,
      "Ġpossibly": 6547,
      "Ġtempt": 6548,
      "Ġhopeless": 6549,
      "Ġpolished": 6550,
      "Ġbitter": 6551,
      "ĠChildren": 6552,
      "Ġfarmland": 6553,
      "headed": 6554,
      "Ġartist": 6555,
      "Ġapologizing": 6556,
      "Ġtoured": 6557,
      "Ġlady": 6558,
      "ĠAlmost": 6559,
      "Ġoccurs": 6560,
      "Ġapprent": 6561,
      "Ġmainly": 6562,
      "Ġfavorable": 6563,
      "grey": 6564,
      "Ġbarbec": 6565,
      "Ġburning": 6566,
      "Ġcomplaint": 6567,
      "noise": 6568,
      "Ġirres": 6569,
      "Ġfreedom": 6570,
      "Ġpaws": 6571,
      "Ġexerc": 6572,
      "Ġexists": 6573,
      "Ġprincipal": 6574,
      "Ġimprove": 6575,
      "Ġantecedent": 6576,
      "Ġsevere": 6577,
      "Ġinsisted": 6578,
      "Ġbending": 6579,
      "azy": 6580,
      "Ġaccounts": 6581,
      "Ġsimmer": 6582,
      "Ġdoubled": 6583,
      "Ġlistened": 6584,
      "Ġprepared": 6585,
      "Ġforests": 6586,
      "Ġawful": 6587,
      "Ġexciting": 6588,
      "Ġdespair": 6589,
      "Ġrecorded": 6590,
      "Ġpaths": 6591,
      "ĠWithout": 6592,
      "himself": 6593,
      "Ġafford": 6594,
      "Ġaffected": 6595,
      "Ġdividing": 6596,
      "Ġspoken": 6597,
      "Ġcombination": 6598,
      "Ġpoems": 6599,
      "Ġpatiently": 6600,
      "Ġintroduction": 6601,
      "stitution": 6602,
      "Ġfootsteps": 6603,
      "Ġpiles": 6604,
      "Ġroute": 6605,
      "ĠSpread": 6606,
      "ĠCrane": 6607,
      "Ġturbines": 6608,
      "Ġbirch": 6609,
      "Ġcopy": 6610,
      "Ġnouns": 6611,
      "ĠTewindrow": 6612,
      "Ġgathers": 6613,
      "Ġlifted": 6614,
      "ĠColl": 6615,
      "Ġcontinent": 6616,
      "Ġviolin": 6617,
      "Ġtower": 6618,
      "Ġnuts": 6619,
      "cellent": 6620,
      "Ġapproved": 6621,
      "Ġswallows": 6622,
      "Ġfrequented": 6623,
      "everything": 6624,
      "Ġbarked": 6625,
      "Ġparenthetic": 6626,
      "---------------------------------": 6627,
      "-----------------------------------------------------------------": 6628,
      "Ġgeography": 6629,
      "Ġarchive": 6630,
      "Ġarchitect": 6631,
      "Ġarrangement": 6632,
      "Ġslipped": 6633,
      "Ġslippery": 6634,
      "Ġcontentment": 6635,
      "Ġdefinite": 6636,
      "Ġbench": 6637,
      "Ġfortnight": 6638,
      "Ġjourney": 6639,
      "Shu": 6640,
      "black": 6641,
      "crumbs": 6642,
      "Ġabsor": 6643,
      "Ġnegative": 6644,
      "Ġneighbor": 6645,
      "ĠHarrison": 6646,
      "Ġchiefly": 6647,
      "Ġhandlebars": 6648,
      "Ġpreceded": 6649,
      "Ġcurtiosity": 6650,
      "Ġmusician": 6651,
      "remark": 6652,
      "Ġstripes": 6653,
      "Ġmultip": 6654,
      "Ġmultipl": 6655,
      "Ġpredict": 6656,
      "Ġmended": 6657,
      "Ġexhaust": 6658,
      "Ġexhausted": 6659,
      "ĠBrown": 6660,
      "Ġscholars": 6661,
      "Ġcalculations": 6662,
      "Ġtunnel": 6663,
      "regard": 6664,
      "Ġbiography": 6665,
      "Ġdetail": 6666,
      "Ġdanger": 6667,
      "alogue": 6668,
      "ĠAbout": 6669,
      "Ġspirit": 6670,
      "Ġqueue": 6671,
      "Ġdebts": 6672,
      "boys": 6673,
      "seemed": 6674,
      "Ġrebell": 6675,
      "Ġrailway": 6676,
      "Ġmoorings": 6677,
      "olutely": 6678,
      "Ġdisappear": 6679,
      "Ġrecognized": 6680,
      "Ġadventures": 6681,
      "Ġchoirboys": 6682,
      "Excellent": 6683,
      "Ġidle": 6684,
      "Ġtactics": 6685,
      "Ġmaterial": 6686,
      "Ġhiccup": 6687,
      "Ġpositive": 6688,
      "Ġemphasis": 6689,
      "Ġpublished": 6690,
      "Ġbodies": 6691,
      "Ġcottage": 6692,
      "Ġhence": 6693,
      "Ġrabbits": 6694,
      "children": 6695,
      "Ġmovie": 6696,
      "Ġconstable": 6697,
      "Ġteaspoon": 6698,
      "Ġsymptom": 6699,
      "Ġtelescope": 6700,
      "friend": 6701,
      "Ġingredients": 6702,
      "Ġtongue": 6703,
      "Ġcedar": 6704,
      "Ġpavement": 6705,
      "Ġatmos": 6706,
      "Ġunmistakably": 6707,
      "Ġchemistry": 6708,
      "ĠWhitfield": 6709,
      "Ġfeudal": 6710,
      "Turtle": 6711,
      "Ġavoided": 6712,
      "Ġparlour": 6713,
      "Ġdessert": 6714,
      "ĠImagine": 6715,
      "Ġhemisphere": 6716,
      "ĠSahara": 6717,
      "ĠSibberley": 6718,
      "Ġchosen": 6719,
      "Ġgrandson": 6720,
      "ĠChronicler": 6721,
      "Ġbarbecue": 6722,
      ".--": 6723,
      "19": 6724,
      "23": 6725,
      "24": 6726,
      "30": 6727,
      "52": 6728,
      "Because": 6729,
      "Can": 6730,
      "Cler": 6731,
      "Comp": 6732,
      "EH": 6733,
      "EI": 6734,
      "Elephant": 6735,
      "Effect": 6736,
      "From": 6737,
      "Go": 6738,
      "Gu": 6739,
      "Just": 6740,
      "Kangaroo": 6741,
      "Luc": 6742,
      "Method": 6743,
      "OD": 6744,
      "Of": 6745,
      "Old": 6746,
      "Oct": 6747,
      "Pl": 6748,
      "Snow": 6749,
      "Tegumai": 6750,
      "Two": 6751,
      "Up": 6752,
      "Vend": 6753,
      "Would": 6754,
      "_-": 6755,
      "_--": 6756,
      "aur": 6757,
      "aze": 6758,
      "cing": 6759,
      "cus": 6760,
      "calcul": 6761,
      "den": 6762,
      "dec": 6763,
      "dry": 6764,
      "dark": 6765,
      "doub": 6766,
      "doing": 6767,
      "each": 6768,
      "easy": 6769,
      "either": 6770,
      "fr": 6771,
      "fav": 6772,
      "fire": 6773,
      "feel": 6774,
      "ga": 6775,
      "gree": 6776,
      "going": 6777,
      "hic": 6778,
      "hood": 6779,
      "hives": 6780,
      "ik": 6781,
      "ibr": 6782,
      "jo": 6783,
      "jud": 6784,
      "lar": 6785,
      "lest": 6786,
      "lau": 6787,
      "lines": 6788,
      "mm": 6789,
      "mice": 6790,
      "mend": 6791,
      "mark": 6792,
      "mans": 6793,
      "moment": 6794,
      "nels": 6795,
      "oem": 6796,
      "pan": 6797,
      "pir": 6798,
      "pare": 6799,
      "pose": 6800,
      "pond": 6801,
      "poss": 6802,
      "parent": 6803,
      "ray": 6804,
      "rise": 6805,
      "rait": 6806,
      "rase": 6807,
      "squ": 6808,
      "sag": 6809,
      "table": 6810,
      "tons": 6811,
      "times": 6812,
      "uin": 6813,
      "uary": 6814,
      "uity": 6815,
      "uaded": 6816,
      "ufact": 6817,
      "vet": 6818,
      "vation": 6819,
      "voice": 6820,
      "wed": 6821,
      "won": 6822,
      "wind": 6823,
      "why": 6824,
      "wait": 6825,
      "wife": 6826,
      "yu": 6827,
      "yer": 6828,
      "year": 6829,
      "yme": 6830,
      "zed": 6831,
      "ĠQ": 6832,
      "Ġut": 6833,
      "Ġere": 6834,
      "Ġtit": 6835,
      "Ġtang": 6836,
      "Ġtide": 6837,
      "Ġtilt": 6838,
      "Ġtales": 6839,
      "Ġtipping": 6840,
      "Ġtucked": 6841,
      "hear": 6842,
      "hether": 6843,
      "Ġauthors": 6844,
      "inop": 6845,
      "Ġsen": 6846,
      "Ġsection": 6847,
      "Ġwick": 6848,
      "Ġwakes": 6849,
      "Ġwigg": 6850,
      "Ġwinked": 6851,
      "Ġwalks": 6852,
      "Ġwestern": 6853,
      "Ġwaters": 6854,
      "erity": 6855,
      "reen": 6856,
      "rels": 6857,
      "ouch": 6858,
      "atin": 6859,
      "itar": 6860,
      "ites": 6861,
      "Ġbas": 6862,
      "Ġbill": 6863,
      "Ġbaking": 6864,
      "Ġbands": 6865,
      "Ġbudget": 6866,
      "isto": 6867,
      "Ġfol": 6868,
      "Ġfought": 6869,
      "Ġfung": 6870,
      "Ġfash": 6871,
      "Ġfires": 6872,
      "Ġca": 6873,
      "Ġcast": 6874,
      "Ġcous": 6875,
      "Ġcamel": 6876,
      "Ġcards": 6877,
      "oration": 6878,
      "Ġmatched": 6879,
      "Ġmax": 6880,
      "llen": 6881,
      "onap": 6882,
      "Ġhate": 6883,
      "Ġhide": 6884,
      "Ġhiding": 6885,
      "essel": 6886,
      "another": 6887,
      "Ġtoast": 6888,
      "Ġpow": 6889,
      "Ġpill": 6890,
      "Ġpens": 6891,
      "Ġpurs": 6892,
      "Ġpuff": 6893,
      "Ġpacked": 6894,
      "Ġdil": 6895,
      "Ġdread": 6896,
      "Ġdots": 6897,
      "Ġdense": 6898,
      "Ġdying": 6899,
      "Ġdipl": 6900,
      "Ġdrove": 6901,
      "Ġthinks": 6902,
      "Ġlid": 6903,
      "Ġlam": 6904,
      "Ġlee": 6905,
      "Ġlawn": 6906,
      "Ġloses": 6907,
      "Ġlinked": 6908,
      "Ġlux": 6909,
      "asing": 6910,
      "asters": 6911,
      "Ġinj": 6912,
      "Ġyes": 6913,
      "Ġyawn": 6914,
      "Ġnon": 6915,
      "Ġnative": 6916,
      "lebr": 6917,
      "ĠII": 6918,
      "Ġeastern": 6919,
      "ĠTurn": 6920,
      "ĠTaff": 6921,
      "oms": 6922,
      "omach": 6923,
      "otations": 6924,
      "otiations": 6925,
      "icular": 6926,
      "Ġgap": 6927,
      "Ġgroc": 6928,
      "ayer": 6929,
      "etween": 6930,
      "stim": 6931,
      "stone": 6932,
      "stice": 6933,
      "storm": 6934,
      "stove": 6935,
      "Ġbears": 6936,
      "sea": 6937,
      "imai": 6938,
      "imilar": 6939,
      "imney": 6940,
      "Ġstared": 6941,
      "Ġstuck": 6942,
      "Ġstump": 6943,
      "Ġstars": 6944,
      "Ġstones": 6945,
      "Ġstern": 6946,
      "Ġstomach": 6947,
      "alt": 6948,
      "although": 6949,
      "Ġrect": 6950,
      "Ġreact": 6951,
      "Ġreco": 6952,
      "Ġreeds": 6953,
      "entr": 6954,
      "oos": 6955,
      "ooft": 6956,
      "Ġrim": 6957,
      "Ġrider": 6958,
      "Ġrival": 6959,
      "Ġrooft": 6960,
      "Ġusel": 6961,
      "amble": 6962,
      "tered": 6963,
      "ĠSen": 6964,
      "ĠSoc": 6965,
      "ĠSofia": 6966,
      "Ġanger": 6967,
      "ĠWiss": 6968,
      "ĠWAR": 6969,
      "ĠWonder": 6970,
      "ĠAnt": 6971,
      "ĠAdam": 6972,
      "urity": 6973,
      "eeble": 6974,
      "Ġash": 6975,
      "oper": 6976,
      "opted": 6977,
      "Ġhauled": 6978,
      "chn": 6979,
      "chu": 6980,
      "Ġmeadows": 6981,
      "ĠCf": 6982,
      "ĠCle": 6983,
      "ĠCap": 6984,
      "ĠCust": 6985,
      "ĠCol": 6986,
      "ĠCount": 6987,
      "ĠMom": 6988,
      "ĠMia": 6989,
      "ĠMother": 6990,
      "ĠMajesty": 6991,
      "ĠHum": 6992,
      "ĠHana": 6993,
      "ĠHSU": 6994,
      "ĠHorse": 6995,
      "quite": 6996,
      "quiet": 6997,
      "ulai": 6998,
      "ums": 6999,
      "apers": 7000,
      "apper": 7001,
      "Ġkios": 7002,
      "Ġkicked": 7003,
      "ander": 7004,
      "anding": 7005,
      "Ġfrag": 7006,
      "Ġexec": 7007,
      "Ġexcl": 7008,
      "Ġexcuse": 7009,
      "Ġexpensive": 7010,
      "Ġexpense": 7011,
      "Ġaren": 7012,
      "ĠBread": 7013,
      "ĠBops": 7014,
      "ĠEn": 7015,
      "ĠEqu": 7016,
      "ĠEven": 7017,
      "epal": 7018,
      "rose": 7019,
      "ounded": 7020,
      "ĠYeh": 7021,
      "Ġplung": 7022,
      "ĠNepal": 7023,
      "Ġchin": 7024,
      "Ġchances": 7025,
      "Ġchunks": 7026,
      "Ġchimney": 7027,
      "Ġaband": 7028,
      "Ġspill": 7029,
      "Ġspelling": 7030,
      "Ġsplend": 7031,
      "Ġtraps": 7032,
      "ĠRules": 7033,
      "ĠRavi": 7034,
      "arte": 7035,
      "Ġknee": 7036,
      "Ġknocked": 7037,
      "Ġknees": 7038,
      "ĠPi": 7039,
      "ĠPale": 7040,
      "ĠPlease": 7041,
      "Ġuphill": 7042,
      "Ġconception": 7043,
      "Ġconvinc": 7044,
      "Ġcoin": 7045,
      "ĠLind": 7046,
      "ĠLane": 7047,
      "Ġard": 7048,
      "Ġgram": 7049,
      "Ġgrind": 7050,
      "Ġgrace": 7051,
      "Ġgradually": 7052,
      "istor": 7053,
      "istant": 7054,
      "respect": 7055,
      "resource": 7056,
      "ĠĠĠĠĠĠĠĠĠĠĠĠĠĠĠĠĠ": 7057,
      "Ġvill": 7058,
      "Ġvivid": 7059,
      "Ġvague": 7060,
      "Ġvessel": 7061,
      "ĠDe": 7062,
      "ĠDri": 7063,
      "ĠDear": 7064,
      "ĠOver": 7065,
      "ĠOff": 7066,
      "ĠOther": 7067,
      "ĠOpen": 7068,
      "ĠOka": 7069,
      "Ġpra": 7070,
      "Ġprim": 7071,
      "ĠFri": 7072,
      "ĠFore": 7073,
      "ĠForm": 7074,
      "ĠFord": 7075,
      "ĠFisherman": 7076,
      "Ġsmug": 7077,
      "Ġsmelt": 7078,
      "plates": 7079,
      "Ġanybody": 7080,
      "Ġwatering": 7081,
      "ieh": 7082,
      "Ġclos": 7083,
      "Ġcloves": 7084,
      "Ġbrack": 7085,
      "Ġgrease": 7086,
      "ĠChao": 7087,
      "Ġmyster": 7088,
      "theless": 7089,
      "Ġslide": 7090,
      "Ġflow": 7091,
      "Ġflag": 7092,
      "Ġflock": 7093,
      "Ġenfor": 7094,
      "Ġmudd": 7095,
      "ewer": 7096,
      "army": 7097,
      "Ġseal": 7098,
      "Ġseam": 7099,
      "mentioned": 7100,
      "ogue": 7101,
      "Ġlongest": 7102,
      "iao": 7103,
      "Ġgoods": 7104,
      "Ġadap": 7105,
      "Ġadvers": 7106,
      "Ġadopted": 7107,
      "ĠGod": 7108,
      "Ġoverhead": 7109,
      "Ġfoam": 7110,
      "ometry": 7111,
      "Ġstratagem": 7112,
      "Ġunp": 7113,
      "Ġunpre": 7114,
      "Ġcarav": 7115,
      "Ġcarries": 7116,
      "Ġneedn": 7117,
      "ĠHeaven": 7118,
      "ĠJo": 7119,
      "Ġmanaged": 7120,
      "Ġmanuscript": 7121,
      "Ġmanufact": 7122,
      "Ġlighting": 7123,
      "Ġlightning": 7124,
      "Ġdeer": 7125,
      "Ġapplying": 7126,
      "awning": 7127,
      "udged": 7128,
      "Ġdisg": 7129,
      "Ġdiso": 7130,
      "Ġdisaster": 7131,
      "ressing": 7132,
      "Ġresting": 7133,
      "Ġrestaur": 7134,
      "Ġmayor": 7135,
      "izations": 7136,
      "Ġwarms": 7137,
      "Ġwarmed": 7138,
      "orders": 7139,
      "Ġmustn": 7140,
      "also": 7141,
      "cling": 7142,
      "Ġnewsp": 7143,
      "Ġsunset": 7144,
      "Ġharden": 7145,
      "Ġsentiment": 7146,
      "Ġsecure": 7147,
      "teacher": 7148,
      "teenth": 7149,
      "Ġperf": 7150,
      "Ġperman": 7151,
      "Ġbegun": 7152,
      "Ġcomple": 7153,
      "Ġbushes": 7154,
      "Ġcorrid": 7155,
      "Ġexport": 7156,
      "Ġowners": 7157,
      "Ġboots": 7158,
      "Ġboils": 7159,
      "Ġindicate": 7160,
      "Ġsurvey": 7161,
      "Ġsweep": 7162,
      "Ġswelling": 7163,
      "Ġarmed": 7164,
      "shi": 7165,
      "short": 7166,
      "shine": 7167,
      "Ġprevious": 7168,
      "undant": 7169,
      "Ġobst": 7170,
      "Ġoblig": 7171,
      "Ġcommission": 7172,
      "Ġnowhere": 7173,
      "Marcus": 7174,
      "Ġcrab": 7175,
      "Ġcrops": 7176,
      "Ġ24": 7177,
      "Ġ25": 7178,
      "Ġ26": 7179,
      "Ġ27": 7180,
      "Ġsettles": 7181,
      "Ġours": 7182,
      "Ġstarts": 7183,
      "Ġrecon": 7184,
      "Ġadvanced": 7185,
      "Ġstreetlight": 7186,
      "Ġalongside": 7187,
      "Ġminds": 7188,
      "pract": 7189,
      "ĠNov": 7190,
      "Ġinstall": 7191,
      "Ġinstance": 7192,
      "Ġinstances": 7193,
      "standing": 7194,
      "Ġinvited": 7195,
      "ĠVillage": 7196,
      "Ġnearer": 7197,
      "Ġgrowth": 7198,
      "ĠFrau": 7199,
      "scri": 7200,
      "addle": 7201,
      "Ġdistur": 7202,
      "Ġdistingu": 7203,
      "Ġdistinction": 7204,
      "Ġeverest": 7205,
      "ĠTherefore": 7206,
      "Ġdeciding": 7207,
      "Ġdecades": 7208,
      "Ġdarker": 7209,
      "Ġsubstance": 7210,
      "Ġjoint": 7211,
      "Ġjobs": 7212,
      "Ġjolly": 7213,
      "Ġschoolteacher": 7214,
      "Ġsupplies": 7215,
      "Ġsummers": 7216,
      "Ġbehave": 7217,
      "Ġbehold": 7218,
      "Ġconfirm": 7219,
      "Start": 7220,
      "Stickly": 7221,
      "onaut": 7222,
      "Ġproposal": 7223,
      "Ġpersuaded": 7224,
      "Ġtremb": 7225,
      "Ġbiggest": 7226,
      "Ġshopkeeper": 7227,
      "cial": 7228,
      "enses": 7229,
      "Ġsoften": 7230,
      "Ġmissed": 7231,
      "Ġaddition": 7232,
      "Ġshallows": 7233,
      "Ġtraveled": 7234,
      "Ġgardening": 7235,
      "exam": 7236,
      "expl": 7237,
      "Ġsixty": 7238,
      "strong": 7239,
      "Ġmonot": 7240,
      "Ġrefers": 7241,
      "Ġreturns": 7242,
      "Ġdries": 7243,
      "Ġcolle": 7244,
      "Ġcollaps": 7245,
      "Ġcharged": 7246,
      "ology": 7247,
      "Ġsilent": 7248,
      "Ġhundreds": 7249,
      "Ġarguments": 7250,
      "Ġ30": 7251,
      "Ġ31": 7252,
      "Ġsingular": 7253,
      "Ġvalve": 7254,
      "Ġvaluable": 7255,
      "Ġimportance": 7256,
      "Ġlargely": 7257,
      "iterally": 7258,
      "Ġdeepest": 7259,
      "Ġregret": 7260,
      "Ġterritory": 7261,
      "Ġheartily": 7262,
      "eyed": 7263,
      "meant": 7264,
      "ĠElephants": 7265,
      "Ġguild": 7266,
      "such": 7267,
      "Ġbadly": 7268,
      "Ġequator": 7269,
      "ĠKingdom": 7270,
      "Ġwondered": 7271,
      "ibli": 7272,
      "ĠAtt": 7273,
      "Ġextant": 7274,
      "Ġextract": 7275,
      "Ġmovements": 7276,
      "Ġcapacity": 7277,
      "Ġpressed": 7278,
      "Ġspecies": 7279,
      "Ġartic": 7280,
      "Ġcrossings": 7281,
      "Ġincome": 7282,
      "Ġincred": 7283,
      "Ġincident": 7284,
      "Ġparticles": 7285,
      "ĠAlthough": 7286,
      "ĠAlphabet": 7287,
      "Ġstronger": 7288,
      "Ġtextbook": 7289,
      "Ġsleepy": 7290,
      "Ġsleeping": 7291,
      "Ġreceives": 7292,
      "Ġperiodic": 7293,
      "Ġpurple": 7294,
      "Ġbuilds": 7295,
      "Ġbargain": 7296,
      "Ġleaders": 7297,
      "Ġcomplaining": 7298,
      "Ġbreaks": 7299,
      "world": 7300,
      "Ġbreathed": 7301,
      "Ġexisting": 7302,
      "Ġprincipally": 7303,
      "Ġamounts": 7304,
      "Ġdiscover": 7305,
      "Ġimproves": 7306,
      "Ġmuscle": 7307,
      "Ġantiqu": 7308,
      "Ġanticip": 7309,
      "Ġclimbing": 7310,
      "udden": 7311,
      "Ġautomatic": 7312,
      "Ġstirring": 7313,
      "Ġancest": 7314,
      "Ġhabitat": 7315,
      "Ġsolstice": 7316,
      "Ġcarpet": 7317,
      "Ġrecommend": 7318,
      "Ġcollecting": 7319,
      "Ġlaundry": 7320,
      "Ġlively": 7321,
      "ĠConstant": 7322,
      "Ġ82": 7323,
      "Ġbeaten": 7324,
      "Ġstriped": 7325,
      "Ġkeys": 7326,
      "Ġboxes": 7327,
      "Ġopport": 7328,
      "Ġfunction": 7329,
      "Ġlistening": 7330,
      "Ġbeauty": 7331,
      "Ġexcitement": 7332,
      "Ġfloods": 7333,
      "ordingly": 7334,
      "Ġinstruments": 7335,
      "ĠUncle": 7336,
      "Ġlisted": 7337,
      "Ġgentler": 7338,
      "Doctor": 7339,
      "Ġtreatment": 7340,
      "Ġaffairs": 7341,
      "Ġdivide": 7342,
      "Ġcombined": 7343,
      "Ġgoverned": 7344,
      "Ġintroduce": 7345,
      "Ġcellar": 7346,
      "Ġhedge": 7347,
      "Ġhedger": 7348,
      "Ġengineer": 7349,
      "Ġconquering": 7350,
      "Ġvarious": 7351,
      "Ġprince": 7352,
      "Ġappearance": 7353,
      "however": 7354,
      "Ġsticking": 7355,
      "Ġwelcome": 7356,
      "ĠGrand": 7357,
      "ruption": 7358,
      "Ġgathering": 7359,
      "ĠCoffee": 7360,
      "Ġremarkable": 7361,
      "Ġpretend": 7362,
      "Ġpretended": 7363,
      "Ġcheerily": 7364,
      "Ġextraordinary": 7365,
      "knew": 7366,
      "knife": 7367,
      "Ġswallow": 7368,
      "Ġswallowed": 7369,
      "Ġgentleman": 7370,
      "Ġopinions": 7371,
      "Ġcryst": 7372,
      "Ġparenthesis": 7373,
      "Ġbeehives": 7374,
      "ĠHerron": 7375,
      "course": 7376,
      "couraged": 7377,
      "hsin": 7378,
      "hsun": 7379,
      "ervation": 7380,
      "Ġlogs": 7381,
      "Ġarranged": 7382,
      "Ġdeveloped": 7383,
      "Ġinvestment": 7384,
      "ĠSuch": 7385,
      "Ġaccordingly": 7386,
      "Ġcreep": 7387,
      "Ġlabel": 7388,
      "Ġconstantly": 7389,
      "Ġleaning": 7390,
      "Ġbrothers": 7391,
      "ĠStevenson": 7392,
      "consider": 7393,
      "Ġmidwife": 7394,
      "Ġnegotiations": 7395,
      "Ġsailors": 7396,
      "Ġlegend": 7397,
      "Ġevaporates": 7398,
      "Ġsource": 7399,
      "Ġwidely": 7400,
      "ĠBefore": 7401,
      "ĠNewton": 7402,
      "Ġstripy": 7403,
      "Ġpicnic": 7404,
      "Ġeconomy": 7405,
      "Ġhostile": 7406,
      "Ġdenied": 7407,
      "Ġninety": 7408,
      "Ġrubber": 7409,
      "ĠClose": 7410,
      "rolling": 7411,
      "Ġfloat": 7412,
      "Ġinterview": 7413,
      "Ġtranslated": 7414,
      "Ġestimate": 7415,
      "Ġwhispered": 7416,
      "Ġastonishing": 7417,
      "didn": 7418,
      "Ġpaddle": 7419,
      "Ġwhistle": 7420,
      "Ġcontrary": 7421,
      "Ġentertainment": 7422,
      "Ġhistorical": 7423,
      "Ġhedgehogs": 7424,
      "Ġcircumstances": 7425,
      "Ġomitted": 7426,
      "Ġbounces": 7427,
      "Ġconceal": 7428,
      "Ġstrateg": 7429,
      "Ġstrategy": 7430,
      "Ġskillful": 7431,
      "brev": 7432,
      "general": 7433,
      "paragraph": 7434,
      "yellowish": 7435,
      "Ġignor": 7436,
      "Ġachieved": 7437,
      "Ġcredit": 7438,
      "Ġpuzz": 7439,
      "Ġporcel": 7440,
      "ammals": 7441,
      "aphrase": 7442,
      "Ġsociety": 7443,
      "Ġexcellence": 7444,
      "ĠBoil": 7445,
      "Ġcompanies": 7446,
      "Ġindicates": 7447,
      "Ġsurrounded": 7448,
      "ĠShui": 7449,
      "Ġcritic": 7450,
      "Ġsuggested": 7451,
      "Before": 7452,
      "Who": 7453,
      "Ġsearched": 7454,
      "Ġsiph": 7455,
      "ĠChristian": 7456,
      "scraper": 7457,
      "Ġestabl": 7458,
      "natured": 7459,
      "worthy": 7460,
      "Ġstamping": 7461,
      "ĠEverest": 7462,
      "Ġorchard": 7463,
      "Ġgrasp": 7464,
      "Ġvictorious": 7465,
      "Ġstructure": 7466,
      "Ġunfair": 7467,
      "Ġappeared": 7468,
      "Ġperilous": 7469,
      "Ġcomputer": 7470,
      "Ġpolitical": 7471,
      "oquial": 7472,
      "ĠART": 7473,
      "ĠApril": 7474,
      "ĠPortug": 7475,
      "ĠForty": 7476,
      "Ġprohibited": 7477,
      "brownish": 7478,
      "Ġinternal": 7479,
      "Ġapprentice": 7480,
      "Ġatmosphere": 7481,
      "Clerk": 7482,
      "Guard": 7483,
      "Lucy": 7484,
      "Vendor": 7485,
      "doubt": 7486,
      "sagacity": 7487,
      "Ġtangled": 7488,
      "inople": 7489,
      "Ġsenior": 7490,
      "Ġmaxim": 7491,
      "onaparte": 7492,
      "ĠTaffimai": 7493,
      "Ġgrocer": 7494,
      "Ġrectang": 7495,
      "Ġrooftops": 7496,
      "Ġuseless": 7497,
      "ĠWissing": 7498,
      "ĠAntarct": 7499,
      "ĠCustance": 7500,
      "Ġkiosk": 7501,
      "ĠBopsulai": 7502,
      "ĠOffice": 7503,
      "ĠOkafor": 7504,
      "Ġmysterious": 7505,
      "Ġmuddy": 7506,
      "Ġrestaurant": 7507,
      "Ġnewspapers": 7508,
      "Ġcorridor": 7509,
      "ĠConstantinople": 7510,
      "Ġporcelain": 7511,
      "'.": 7512,
      "';": 7513,
      "29": 7514,
      "32": 7515,
      "35": 7516,
      "37": 7517,
      "41": 7518,
      "51": 7519,
      "55": 7520,
      "60": 7521,
      "61": 7522,
      "65": 7523,
      "66": 7524,
      "71": 7525,
      "88": 7526,
      "=.": 7527,
      "?)": 7528,
      "Ah": 7529,
      "Ar": 7530,
      "Badger": 7531,
      "Beaver": 7532,
      "Cow": 7533,
      "Dad": 7534,
      "Daddy": 7535,
      "ER": 7536,
      "End": 7537,
      "Eng": 7538,
      "Get": 7539,
      "HI": 7540,
      "Hedgehog": 7541,
      "Ing": 7542,
      "NT": 7543,
      "ON": 7544,
      "OR": 7545,
      "OU": 7546,
      "Or": 7547,
      "Oswald": 7548,
      "Part": 7549,
      "Poor": 7550,
      "Poop": 7551,
      "River": 7552,
      "Son": 7553,
      "Say": 7554,
      "Such": 7555,
      "Small": 7556,
      "Teshumai": 7557,
      "UI": 7558,
      "Will": 7559,
      "Yo": 7560,
      "_?": 7561,
      "_?\"": 7562,
      "aac": 7563,
      "author": 7564,
      "bes": 7565,
      "bur": 7566,
      "bul": 7567,
      "band": 7568,
      "bare": 7569,
      "bade": 7570,
      "both": 7571,
      "barrow": 7572,
      "backed": 7573,
      "better": 7574,
      "bbles": 7575,
      "cir": 7576,
      "came": 7577,
      "cies": 7578,
      "cage": 7579,
      "cold": 7580,
      "ds": 7581,
      "din": 7582,
      "del": 7583,
      "dab": 7584,
      "deep": 7585,
      "dream": 7586,
      "different": 7587,
      "fly": 7588,
      "fal": 7589,
      "found": 7590,
      "free": 7591,
      "father": 7592,
      "fresh": 7593,
      "fishing": 7594,
      "fewer": 7595,
      "gle": 7596,
      "grow": 7597,
      "ginning": 7598,
      "half": 7599,
      "holes": 7600,
      "iow": 7601,
      "iate": 7602,
      "iating": 7603,
      "kly": 7604,
      "kolo": 7605,
      "lit": 7606,
      "lict": 7607,
      "lantic": 7608,
      "mo": 7609,
      "mur": 7610,
      "mind": 7611,
      "might": 7612,
      "mus": 7613,
      "morning": 7614,
      "master": 7615,
      "mitted": 7616,
      "num": 7617,
      "new": 7618,
      "nose": 7619,
      "named": 7620,
      "oot": 7621,
      "oak": 7622,
      "obs": 7623,
      "pear": 7624,
      "press": 7625,
      "purp": 7626,
      "pulled": 7627,
      "paper": 7628,
      "present": 7629,
      "qv": 7630,
      "rr": 7631,
      "rot": 7632,
      "sn": 7633,
      "say": 7634,
      "sight": 7635,
      "simp": 7636,
      "sine": 7637,
      "six": 7638,
      "sign": 7639,
      "slight": 7640,
      "sided": 7641,
      "sized": 7642,
      "says": 7643,
      "safe": 7644,
      "subject": 7645,
      "tc": 7646,
      "tw": 7647,
      "tit": 7648,
      "tow": 7649,
      "till": 7650,
      "tur": 7651,
      "top": 7652,
      "try": 7653,
      "tained": 7654,
      "timately": 7655,
      "uate": 7656,
      "uated": 7657,
      "uals": 7658,
      "uese": 7659,
      "uits": 7660,
      "wre": 7661,
      "wall": 7662,
      "warm": 7663,
      "word": 7664,
      "welling": 7665,
      "ye": 7666,
      "yp": 7667,
      "yster": 7668,
      "Ġ-": 7669,
      "Ġ]": 7670,
      "Ġz": 7671,
      "Ġiv": 7672,
      "Ġtal": 7673,
      "Ġtil": 7674,
      "Ġtone": 7675,
      "Ġtus": 7676,
      "Ġtear": 7677,
      "Ġtally": 7678,
      "Ġtie": 7679,
      "Ġtank": 7680,
      "Ġtests": 7681,
      "Ġtender": 7682,
      "inic": 7683,
      "inence": 7684,
      "inations": 7685,
      "inside": 7686,
      "instant": 7687,
      "inister": 7688,
      "infinite": 7689,
      "inhab": 7690,
      "Ġthee": 7691,
      "Ġsad": 7692,
      "Ġsends": 7693,
      "Ġsilly": 7694,
      "Ġsinking": 7695,
      "Ġsizes": 7696,
      "Ġwa": 7697,
      "Ġwid": 7698,
      "Ġwoo": 7699,
      "Ġwake": 7700,
      "Ġwave": 7701,
      "Ġwife": 7702,
      "Ġwaved": 7703,
      "erals": 7704,
      "Ġoats": 7705,
      "nds": 7706,
      "really": 7707,
      "refer": 7708,
      "rets": 7709,
      "reement": 7710,
      "ouder": 7711,
      "atra": 7712,
      "itled": 7713,
      "iteness": 7714,
      "Ġbass": 7715,
      "Ġbase": 7716,
      "Ġbuck": 7717,
      "Ġbolt": 7718,
      "ising": 7719,
      "Ġfas": 7720,
      "Ġfal": 7721,
      "Ġful": 7722,
      "Ġfund": 7723,
      "Ġfuss": 7724,
      "Ġfishes": 7725,
      "Ġfisher": 7726,
      "Ġflying": 7727,
      "Ġfighter": 7728,
      "Ġcas": 7729,
      "Ġcult": 7730,
      "ork": 7731,
      "orner": 7732,
      "orized": 7733,
      "enci": 7734,
      "enno": 7735,
      "Ġmut": 7736,
      "Ġmass": 7737,
      "Ġmutter": 7738,
      "edy": 7739,
      "edge": 7740,
      "ari": 7741,
      "arch": 7742,
      "arrang": 7743,
      "llab": 7744,
      "oning": 7745,
      "onent": 7746,
      "Ġho": 7747,
      "Ġhal": 7748,
      "Ġhus": 7749,
      "Ġhol": 7750,
      "Ġhors": 7751,
      "Ġhinge": 7752,
      "Ġhuge": 7753,
      "esopotam": 7754,
      "anied": 7755,
      "animal": 7756,
      "Ġpa": 7757,
      "Ġpit": 7758,
      "Ġpatch": 7759,
      "Ġpipe": 7760,
      "Ġpoured": 7761,
      "Ġpitch": 7762,
      "Ġpumps": 7763,
      "Ġpantry": 7764,
      "Ġpisto": 7765,
      "Ġdome": 7766,
      "Ġdare": 7767,
      "Ġdies": 7768,
      "Ġdated": 7769,
      "Ġdiving": 7770,
      "Ġthir": 7771,
      "Ġthread": 7772,
      "Ġthrew": 7773,
      "Ġlone": 7774,
      "Ġlack": 7775,
      "Ġloc": 7776,
      "Ġloy": 7777,
      "Ġlanes": 7778,
      "Ġlazy": 7779,
      "Ġinquired": 7780,
      "Ġyawning": 7781,
      "Ġnap": 7782,
      "lement": 7783,
      "legs": 7784,
      "Ġitem": 7785,
      "ĠIris": 7786,
      "Ġeld": 7787,
      "Ġease": 7788,
      "Ġelephant": 7789,
      "ĠTe": 7790,
      "ĠTi": 7791,
      "ĠTw": 7792,
      "ĠTer": 7793,
      "ĠTown": 7794,
      "ĠTso": 7795,
      "ĠTimes": 7796,
      "iche": 7797,
      "icals": 7798,
      "ician": 7799,
      "icago": 7800,
      "Ġger": 7801,
      "Ġgut": 7802,
      "ette": 7803,
      "etime": 7804,
      "veral": 7805,
      "stress": 7806,
      "stead": 7807,
      "stery": 7808,
      "states": 7809,
      "Ġbean": 7810,
      "Ġbeet": 7811,
      "Ġbeam": 7812,
      "adv": 7813,
      "adill": 7814,
      "idges": 7815,
      "uting": 7816,
      "utes": 7817,
      "utumn": 7818,
      "several": 7819,
      "Ġstew": 7820,
      "Ġstair": 7821,
      "Ġstoring": 7822,
      "ache": 7823,
      "acred": 7824,
      "accept": 7825,
      "acific": 7826,
      "Ġrender": 7827,
      "Ġrept": 7828,
      "Ġredd": 7829,
      "Ġrewards": 7830,
      "enths": 7831,
      "Ġheals": 7832,
      "Ġheels": 7833,
      "Ġwhir": 7834,
      "Ġrows": 7835,
      "Ġrange": 7836,
      "Ġrides": 7837,
      "Ġripp": 7838,
      "Ġrushed": 7839,
      "Ġripe": 7840,
      "Ġrinse": 7841,
      "Ġforced": 7842,
      "Ġur": 7843,
      "ithmet": 7844,
      "ama": 7845,
      "term": 7846,
      "ĠSe": 7847,
      "ĠSur": 7848,
      "ĠSame": 7849,
      "ĠSail": 7850,
      "ĠSage": 7851,
      "ĠSAN": 7852,
      "ĠSince": 7853,
      "ĠSheng": 7854,
      "ĠWas": 7855,
      "ĠWest": 7856,
      "ĠWalk": 7857,
      "ĠWord": 7858,
      "ĠWinter": 7859,
      "ĠWhether": 7860,
      "ĠAm": 7861,
      "illa": 7862,
      "uracy": 7863,
      "eem": 7864,
      "thought": 7865,
      "oped": 7866,
      "hers": 7867,
      "una": 7868,
      "unes": 7869,
      "unces": 7870,
      "uncan": 7871,
      "Ġshiver": 7872,
      "Ġshock": 7873,
      "Ġshield": 7874,
      "Ġshirt": 7875,
      "Ġshimm": 7876,
      "Ġshabby": 7877,
      "Ġneat": 7878,
      "chap": 7879,
      "ĠCall": 7880,
      "ĠCity": 7881,
      "ĠCage": 7882,
      "ĠCont": 7883,
      "ĠCorn": 7884,
      "ĠConsider": 7885,
      "ĠMs": 7886,
      "ĠMal": 7887,
      "ĠMead": 7888,
      "ĠMenci": 7889,
      "ĠMesopotam": 7890,
      "ĠHard": 7891,
      "ĠHAI": 7892,
      "ĠHippopotamus": 7893,
      "elly": 7894,
      "--'": 7895,
      "--_": 7896,
      "ifull": 7897,
      "quer": 7898,
      "ulous": 7899,
      "ulates": 7900,
      "estion": 7901,
      "riate": 7902,
      "riger": 7903,
      "Ġmob": 7904,
      "Ġmold": 7905,
      "Ġmoons": 7906,
      "Ġsaving": 7907,
      "Ġsaves": 7908,
      "Ġsauce": 7909,
      "umin": 7910,
      "Ġkill": 7911,
      "agement": 7912,
      "Ġframe": 7913,
      "Ġexh": 7914,
      "Ġexceed": 7915,
      "oodoo": 7916,
      "ĠBar": 7917,
      "ĠBank": 7918,
      "ĠBost": 7919,
      "ĠBrit": 7920,
      "ĠBilly": 7921,
      "ĠBesides": 7922,
      "ĠBeaver": 7923,
      "ĠBetween": 7924,
      "ĠEnd": 7925,
      "ĠEland": 7926,
      "ĠEstim": 7927,
      "ources": 7928,
      "outside": 7929,
      "Ġweed": 7930,
      "Ġweigh": 7931,
      "ĠYen": 7932,
      "Ġplates": 7933,
      "Ġplural": 7934,
      "earn": 7935,
      "earing": 7936,
      "Ġbutcher": 7937,
      "Ġbuttons": 7938,
      "ĠNor": 7939,
      "ĠNile": 7940,
      "ĠNove": 7941,
      "ĠNels": 7942,
      "astr": 7943,
      "ersen": 7944,
      "Ġspaces": 7945,
      "Ġsparrow": 7946,
      "Ġtrades": 7947,
      "Ġtrunks": 7948,
      "Ġtrotted": 7949,
      "Ġnodd": 7950,
      "Ġnoses": 7951,
      "Ġalert": 7952,
      "ĠRom": 7953,
      "ĠRet": 7954,
      "ĠRain": 7955,
      "ĠRoll": 7956,
      "ĠPre": 7957,
      "ĠPers": 7958,
      "ĠPeel": 7959,
      "Ġupside": 7960,
      "ecd": 7961,
      "eches": 7962,
      "import": 7963,
      "Ġcoach": 7964,
      "nings": 7965,
      "ĠLa": 7966,
      "ĠLast": 7967,
      "ĠLater": 7968,
      "ĠLond": 7969,
      "ĠLena": 7970,
      "ĠLeg": 7971,
      "ĠLAN": 7972,
      "ĠLife": 7973,
      "ĠLuis": 7974,
      "ĠLenno": 7975,
      "Ġarise": 7976,
      "Ġgrud": 7977,
      "Ġgrunt": 7978,
      "Ġgrinning": 7979,
      "Ġgrapes": 7980,
      "Ġoutline": 7981,
      "ocent": 7982,
      "istr": 7983,
      "istic": 7984,
      "Ġ_-": 7985,
      "Ġvir": 7986,
      "enditure": 7987,
      "ĠDel": 7988,
      "ĠDown": 7989,
      "ĠDiv": 7990,
      "ĠDuring": 7991,
      "ĠDays": 7992,
      "ĠDuncan": 7993,
      "Ġtwin": 7994,
      "ĠOften": 7995,
      "ĠOmit": 7996,
      "Ġprayer": 7997,
      "ĠFA": 7998,
      "ĠFa": 7999,
      "ĠFather": 8000,
      "Ġjig": 8001,
      "Ġjelly": 8002,
      "owned": 8003,
      "Ġthereafter": 8004,
      "ĠYoung": 8005,
      "ols": 8006,
      "olution": 8007,
      "ullo": 8008,
      "Ġcliff": 8009,
      "Ġbrings": 8010,
      "Ġbrilliant": 8011,
      "Ġbridges": 8012,
      "igr": 8013,
      "ighed": 8014,
      "igorous": 8015,
      "ĠChin": 8016,
      "ĠChange": 8017,
      "ĠChurch": 8018,
      "ĠChicago": 8019,
      "these": 8020,
      "ptly": 8021,
      "Ġflight": 8022,
      "fulness": 8023,
      "Ġenables": 8024,
      "ferior": 8025,
      "ĠThunder": 8026,
      "Ġdrill": 8027,
      "Ġdraught": 8028,
      "Ġsmallest": 8029,
      "Ġbackward": 8030,
      "Ġbackwards": 8031,
      "ograph": 8032,
      "Ġgoodness": 8033,
      "Ġ(\"": 8034,
      "Ġshoulders": 8035,
      "Ġsomehow": 8036,
      "Ġadult": 8037,
      "Ġadverb": 8038,
      "ailed": 8039,
      "Ġwhereupon": 8040,
      "ĠGo": 8041,
      "ĠGold": 8042,
      "Ġamber": 8043,
      "Ġamuse": 8044,
      "Ġambit": 8045,
      "Ġamaz": 8046,
      "Ġambig": 8047,
      "Ġoverlook": 8048,
      "Ġminor": 8049,
      "Ġmineral": 8050,
      "ĠKe": 8051,
      "ĠKu": 8052,
      "ĠKim": 8053,
      "ĠKoodoo": 8054,
      "Ġstraw": 8055,
      "Ġunit": 8056,
      "Ġunaw": 8057,
      "Ġuncon": 8058,
      "Ġuncom": 8059,
      "Ġscared": 8060,
      "Ġsculled": 8061,
      "ĠInter": 8062,
      "Ġthrows": 8063,
      "Ġremote": 8064,
      "Ġremembers": 8065,
      "beaut": 8066,
      "beginning": 8067,
      "ansion": 8068,
      "Ġblot": 8069,
      "Ġblocks": 8070,
      ".'\"": 8071,
      "maid": 8072,
      "ĠAndes": 8073,
      "ĠAndersen": 8074,
      "ĠJang": 8075,
      "Ġacquired": 8076,
      "Ġacknow": 8077,
      "Ġmaneu": 8078,
      "Ġdece": 8079,
      "Ġdefect": 8080,
      "Ġdegree": 8081,
      "Ġstreams": 8082,
      "perhaps": 8083,
      "perior": 8084,
      "perienced": 8085,
      "Ġapposition": 8086,
      "Ġappoint": 8087,
      "Ġapplied": 8088,
      "Ġjustice": 8089,
      "awl": 8090,
      "aws": 8091,
      "awled": 8092,
      "Ġteacher": 8093,
      "Ġteleg": 8094,
      "Ġtechn": 8095,
      "uciating": 8096,
      "Ġdismiss": 8097,
      "Ġdisplay": 8098,
      "oons": 8099,
      "olding": 8100,
      "ublic": 8101,
      "Ġwarmer": 8102,
      "ĠStorm": 8103,
      "ĠStyle": 8104,
      "covered": 8105,
      "Ġcourt": 8106,
      "lier": 8107,
      "Ġmustard": 8108,
      "close": 8109,
      "Ġsunshine": 8110,
      "brary": 8111,
      "Ġletting": 8112,
      "Ġcompact": 8113,
      "Ġbusily": 8114,
      "Ġcorn": 8115,
      "Ġcareer": 8116,
      "Ġexposed": 8117,
      "Ġexposition": 8118,
      "Ġindifferent": 8119,
      "Ġserved": 8120,
      "Ġsurre": 8121,
      "Ġswamp": 8122,
      "onsense": 8123,
      "Ġglimp": 8124,
      "Ġglowed": 8125,
      "shore": 8126,
      "Ġkinds": 8127,
      "Ġplanning": 8128,
      "Ġcommun": 8129,
      "Ġthoughts": 8130,
      "Ġcrate": 8131,
      "Ġcrush": 8132,
      "Ġskilled": 8133,
      "Three": 8134,
      "Ġ28": 8135,
      "Ġ29": 8136,
      "Ġsets": 8137,
      "Ġsales": 8138,
      "aintance": 8139,
      "Ġemer": 8140,
      "Ġbelt": 8141,
      "princip": 8142,
      "Ġinstant": 8143,
      "Ġinstinct": 8144,
      "Ġinstantly": 8145,
      "Ġenter": 8146,
      "Ġinvent": 8147,
      "ĠIsland": 8148,
      "ĠIsaac": 8149,
      "ĠVI": 8150,
      "ĠVisitor": 8151,
      "Ġarrival": 8152,
      "ĠFrance": 8153,
      "Ġeduc": 8154,
      "Ġpatron": 8155,
      "Ġresources": 8156,
      "lessly": 8157,
      "Ġgenerous": 8158,
      "Ġretelling": 8159,
      "Ġreturning": 8160,
      "Ġmistaken": 8161,
      "Ġdistress": 8162,
      "Ġdecree": 8163,
      "Ġdecides": 8164,
      "Ġunderstands": 8165,
      "ĠExpress": 8166,
      "Ġdarkened": 8167,
      "Ġsubordinate": 8168,
      "Ġmeter": 8169,
      "Ġfinest": 8170,
      "Ġsupposed": 8171,
      "Ġsupposing": 8172,
      "many": 8173,
      "Ġpasta": 8174,
      "Ġelbow": 8175,
      "conjunction": 8176,
      "Ġsummar": 8177,
      "Ġsummoned": 8178,
      "Ġbuying": 8179,
      "Ġsquir": 8180,
      "Ġpractically": 8181,
      "Ġhelps": 8182,
      "Ġparall": 8183,
      "Ġparcels": 8184,
      "Ġparrot": 8185,
      "Ġrounds": 8186,
      "Ġaccident": 8187,
      "Ġaccomp": 8188,
      "rence": 8189,
      "Ġlandl": 8190,
      "Ġcentimeter": 8191
    },
    "merges": [
      [
        "Ġ",
        "t"
      ],
      [
        "h",
        "e"
      ],
      [
        "Ġ",
        "a"
      ],
      [
        "i",
        "n"
      ],
      [
        "Ġt",
        "he"
      ],
      [
        "Ġ",
        "s"
      ],
      [
        "Ġ",
        "w"
      ],
      [
        "e",
        "r"
      ],
      [
        "Ġ",
        "o"
      ],
      [
        "n",
        "d"
      ],
      [
        "r",
        "e"
      ],
      [
        "o",
        "u"
      ],
      [
        "a",
        "t"
      ],
      [
        "i",
        "t"
      ],
      [
        "Ġ",
        "b"
      ],
      [
        "i",
        "s"
      ],
      [
        "Ġ",
        "f"
      ],
      [
        "Ġ",
        "c"
      ],
      [
        "o",
        "r"
      ],
      [
        "in",
        "g"
      ],
      [
        "e",
        "n"
      ],
      [
        "Ġ",
        "m"
      ],
      [
        "e",
        "d"
      ],
      [
        "a",
        "r"
      ],
      [
        "Ġa",
        "nd"
      ],
      [
        "l",
        "l"
      ],
      [
        "o",
        "n"
      ],
      [
        "Ġ",
        "h"
      ],
      [
        "e",
        "s"
      ],
      [
        "Ġ",
        "Ġ"
      ],
      [
        "a",
        "n"
      ],
      [
        "Ġt",
        "o"
      ],
      [
        "Ġ",
        "p"
      ],
      [
        "Ġ",
        "d"
      ],
      [
        "Ġo",
        "f"
      ],
      [
        "Ġt",
        "h"
      ],
      [
        "Ġ",
        "l"
      ],
      [
        "a",
        "s"
      ],
      [
        "Ġ",
        "in"
      ],
      [
        "Ġ",
        "y"
      ],
      [
        "Ġ",
        "n"
      ],
      [
        "l",
        "e"
      ],
      [
        "Ġ",
        "it"
      ],
      [
        "Ġ",
        "I"
      ],
      [
        "Ġy",
        "ou"
      ],
      [
        "o",
        "w"
      ],
      [
        "Ġ",
        "e"
      ],
      [
        "Ġ",
        "T"
      ],
      [
        "o",
        "m"
      ],
      [
        "Ġ",
        "is"
      ],
      [
        "o",
        "t"
      ],
      [
        "i",
        "c"
      ],
      [
        "Ġ",
        "g"
      ],
      [
        "a",
        "y"
      ],
      [
        "e",
        "t"
      ],
      [
        "v",
        "er"
      ],
      [
        "Ġo",
        "n"
      ],
      [
        "s",
        "t"
      ],
      [
        "Ġb",
        "e"
      ],
      [
        "l",
        "d"
      ],
      [
        "a",
        "d"
      ],
      [
        "l",
        "y"
      ],
      [
        "i",
        "d"
      ],
      [
        "u",
        "t"
      ],
      [
        "s",
        "e"
      ],
      [
        "i",
        "m"
      ],
      [
        "Ġs",
        "t"
      ],
      [
        "a",
        "l"
      ],
      [
        "g",
        "h"
      ],
      [
        "a",
        "c"
      ],
      [
        "Ġ",
        "re"
      ],
      [
        "en",
        "t"
      ],
      [
        "Ġth",
        "at"
      ],
      [
        "Ġ",
        "he"
      ],
      [
        "ĠĠ",
        "ĠĠ"
      ],
      [
        "v",
        "e"
      ],
      [
        "o",
        "o"
      ],
      [
        "Ġw",
        "h"
      ],
      [
        "Ġ",
        "r"
      ],
      [
        "Ġf",
        "or"
      ],
      [
        "Ġ",
        "u"
      ],
      [
        "i",
        "on"
      ],
      [
        "Ġw",
        "as"
      ],
      [
        "k",
        "e"
      ],
      [
        "it",
        "h"
      ],
      [
        "i",
        "r"
      ],
      [
        "a",
        "ll"
      ],
      [
        "a",
        "m"
      ],
      [
        "t",
        "er"
      ],
      [
        "Ġ",
        "S"
      ],
      [
        "Ġw",
        "ith"
      ],
      [
        "Ġa",
        "n"
      ],
      [
        "gh",
        "t"
      ],
      [
        "c",
        "e"
      ],
      [
        "Ġ",
        "W"
      ],
      [
        "Ġa",
        "t"
      ],
      [
        "Ġ",
        "A"
      ],
      [
        "i",
        "ll"
      ],
      [
        "u",
        "r"
      ],
      [
        "e",
        "e"
      ],
      [
        "ĠT",
        "he"
      ],
      [
        "t",
        "h"
      ],
      [
        "Ġn",
        "ot"
      ],
      [
        "a",
        "in"
      ],
      [
        "Ġa",
        "s"
      ],
      [
        "'",
        "s"
      ],
      [
        "Ġl",
        "i"
      ],
      [
        "o",
        "p"
      ],
      [
        "ou",
        "ld"
      ],
      [
        "Ġh",
        "a"
      ],
      [
        "he",
        "r"
      ],
      [
        "ver",
        "y"
      ],
      [
        "c",
        "t"
      ],
      [
        "u",
        "n"
      ],
      [
        "Ġs",
        "h"
      ],
      [
        "i",
        "l"
      ],
      [
        "Ġn",
        "e"
      ],
      [
        "c",
        "h"
      ],
      [
        "Ġm",
        "e"
      ],
      [
        "Ġ",
        "C"
      ],
      [
        "Ġ",
        "M"
      ],
      [
        "Ġ",
        "H"
      ],
      [
        "e",
        "ll"
      ],
      [
        "Ġd",
        "o"
      ],
      [
        "-",
        "-"
      ],
      [
        "i",
        "f"
      ],
      [
        "q",
        "u"
      ],
      [
        "u",
        "l"
      ],
      [
        "es",
        "t"
      ],
      [
        "Ġw",
        "or"
      ],
      [
        "r",
        "i"
      ],
      [
        "Ġm",
        "o"
      ],
      [
        "Ġh",
        "is"
      ],
      [
        "Ġs",
        "a"
      ],
      [
        "he",
        "n"
      ],
      [
        "in",
        "d"
      ],
      [
        "u",
        "m"
      ],
      [
        "Ġb",
        "y"
      ],
      [
        "ar",
        "d"
      ],
      [
        "h",
        "at"
      ],
      [
        "a",
        "p"
      ],
      [
        "Ġ",
        "k"
      ],
      [
        "i",
        "ght"
      ],
      [
        "Ġs",
        "o"
      ],
      [
        "Ġa",
        "ll"
      ],
      [
        "a",
        "nd"
      ],
      [
        "a",
        "g"
      ],
      [
        "Ġf",
        "r"
      ],
      [
        "om",
        "e"
      ],
      [
        "Ġe",
        "x"
      ],
      [
        "oo",
        "d"
      ],
      [
        "Ġa",
        "re"
      ],
      [
        "Ġ",
        "B"
      ],
      [
        "Ġ",
        "E"
      ],
      [
        "ou",
        "r"
      ],
      [
        "e",
        "p"
      ],
      [
        "ou",
        "t"
      ],
      [
        "on",
        "e"
      ],
      [
        "u",
        "s"
      ],
      [
        "Ġon",
        "e"
      ],
      [
        "r",
        "o"
      ],
      [
        "u",
        "st"
      ],
      [
        "Ġw",
        "e"
      ],
      [
        "ou",
        "nd"
      ],
      [
        "on",
        "g"
      ],
      [
        "Ġo",
        "r"
      ],
      [
        "ĠI",
        "t"
      ],
      [
        "Ġth",
        "is"
      ],
      [
        "Ġ",
        "Y"
      ],
      [
        "Ġh",
        "ad"
      ],
      [
        "ic",
        "e"
      ],
      [
        "Ġp",
        "l"
      ],
      [
        "Ġw",
        "ill"
      ],
      [
        "oo",
        "k"
      ],
      [
        "Ġsa",
        "id"
      ],
      [
        "e",
        "ar"
      ],
      [
        "Ġb",
        "ut"
      ],
      [
        "an",
        "t"
      ],
      [
        "Ġ",
        "N"
      ],
      [
        "e",
        "l"
      ],
      [
        "Ġyou",
        "r"
      ],
      [
        "Ġwh",
        "o"
      ],
      [
        "a",
        "k"
      ],
      [
        "Ġc",
        "h"
      ],
      [
        "as",
        "t"
      ],
      [
        "er",
        "s"
      ],
      [
        "p",
        "p"
      ],
      [
        "Ġ",
        "\""
      ],
      [
        "a",
        "ke"
      ],
      [
        "at",
        "e"
      ],
      [
        "Ġe",
        "very"
      ],
      [
        "Ġa",
        "b"
      ],
      [
        "Ġfr",
        "om"
      ],
      [
        "es",
        "s"
      ],
      [
        "am",
        "e"
      ],
      [
        "Ġs",
        "p"
      ],
      [
        "Ġt",
        "r"
      ],
      [
        "he",
        "re"
      ],
      [
        "Ġn",
        "o"
      ],
      [
        "Ġha",
        "ve"
      ],
      [
        "Ġa",
        "l"
      ],
      [
        "Ġt",
        "im"
      ],
      [
        "o",
        "re"
      ],
      [
        "Ġ",
        "R"
      ],
      [
        "Ġc",
        "an"
      ],
      [
        "a",
        "u"
      ],
      [
        "Ġ",
        "qu"
      ],
      [
        "all",
        "y"
      ],
      [
        "t",
        "o"
      ],
      [
        "Ġthe",
        "y"
      ],
      [
        "Ġs",
        "ee"
      ],
      [
        "e",
        "m"
      ],
      [
        "ou",
        "gh"
      ],
      [
        "ar",
        "t"
      ],
      [
        "T",
        "he"
      ],
      [
        "at",
        "er"
      ],
      [
        "ac",
        "k"
      ],
      [
        "at",
        "ion"
      ],
      [
        "Ġk",
        "n"
      ],
      [
        "an",
        "g"
      ],
      [
        "Ġ",
        "P"
      ],
      [
        "Ġu",
        "p"
      ],
      [
        "Ġc",
        "on"
      ],
      [
        "e",
        "c"
      ],
      [
        "Ġl",
        "e"
      ],
      [
        "im",
        "p"
      ],
      [
        "Ġc",
        "o"
      ],
      [
        "n",
        "ing"
      ],
      [
        "Ġtim",
        "e"
      ],
      [
        "a",
        "b"
      ],
      [
        "w",
        "ay"
      ],
      [
        "Ġ",
        "L"
      ],
      [
        "id",
        "e"
      ],
      [
        "Ġa",
        "r"
      ],
      [
        "ic",
        "h"
      ],
      [
        "Ġg",
        "r"
      ],
      [
        "Ġo",
        "ut"
      ],
      [
        "er",
        "e"
      ],
      [
        "o",
        "c"
      ],
      [
        "Ġthe",
        "m"
      ],
      [
        "is",
        "t"
      ],
      [
        "Ġli",
        "ke"
      ],
      [
        "Ġ",
        "_"
      ],
      [
        "re",
        "s"
      ],
      [
        "Ġc",
        "om"
      ],
      [
        "ĠĠĠĠ",
        "ĠĠĠĠ"
      ],
      [
        "Ġ",
        "'"
      ],
      [
        "Ġ",
        "v"
      ],
      [
        "e",
        "ct"
      ],
      [
        "o",
        "s"
      ],
      [
        "e",
        "nd"
      ],
      [
        "r",
        "y"
      ],
      [
        "Ġ",
        "D"
      ],
      [
        "Ġt",
        "w"
      ],
      [
        "Ġh",
        "im"
      ],
      [
        "a",
        "re"
      ],
      [
        "n",
        "t"
      ],
      [
        "Ġ",
        "O"
      ],
      [
        "Ġp",
        "r"
      ],
      [
        "'",
        "t"
      ],
      [
        "ĠT",
        "hat"
      ],
      [
        "Ġab",
        "out"
      ],
      [
        "Ġ",
        "F"
      ],
      [
        "Ġs",
        "u"
      ],
      [
        "Ġs",
        "m"
      ],
      [
        "Ġw",
        "hen"
      ],
      [
        "or",
        "t"
      ],
      [
        "a",
        "v"
      ],
      [
        "en",
        "ce"
      ],
      [
        "p",
        "l"
      ],
      [
        "Ġ",
        "j"
      ],
      [
        "Ġwh",
        "ich"
      ],
      [
        "it",
        "t"
      ],
      [
        "i",
        "ve"
      ],
      [
        "k",
        "s"
      ],
      [
        "Ġ",
        "if"
      ],
      [
        "ow",
        "n"
      ],
      [
        "Ġan",
        "y"
      ],
      [
        "Ġthe",
        "re"
      ],
      [
        "ou",
        "s"
      ],
      [
        "he",
        "d"
      ],
      [
        "f",
        "ter"
      ],
      [
        "o",
        "d"
      ],
      [
        "Ġd",
        "ay"
      ],
      [
        "ac",
        "t"
      ],
      [
        "f",
        "f"
      ],
      [
        "Ġw",
        "ater"
      ],
      [
        "Ġa",
        "g"
      ],
      [
        "Ġit",
        "s"
      ],
      [
        "i",
        "re"
      ],
      [
        "Ġu",
        "s"
      ],
      [
        "ac",
        "h"
      ],
      [
        "Ġth",
        "an"
      ],
      [
        "ĠY",
        "ou"
      ],
      [
        "Ġl",
        "ook"
      ],
      [
        "o",
        "l"
      ],
      [
        "v",
        "ed"
      ],
      [
        "Ġh",
        "ow"
      ],
      [
        "h",
        "ing"
      ],
      [
        "Ġwh",
        "at"
      ],
      [
        "ac",
        "e"
      ],
      [
        "i",
        "e"
      ],
      [
        "u",
        "ll"
      ],
      [
        "Ġin",
        "to"
      ],
      [
        "ir",
        "st"
      ],
      [
        "Ġw",
        "ould"
      ],
      [
        "nd",
        "er"
      ],
      [
        "u",
        "re"
      ],
      [
        "Ġg",
        "o"
      ],
      [
        "Ġc",
        "l"
      ],
      [
        "Ġ",
        "ke"
      ],
      [
        "Ġb",
        "r"
      ],
      [
        "re",
        "e"
      ],
      [
        "ic",
        "k"
      ],
      [
        "i",
        "g"
      ],
      [
        "Ġth",
        "ing"
      ],
      [
        "al",
        "k"
      ],
      [
        "Ġg",
        "re"
      ],
      [
        "f",
        "ore"
      ],
      [
        "t",
        "her"
      ],
      [
        "ar",
        "k"
      ],
      [
        "Ġbe",
        "en"
      ],
      [
        "th",
        "ing"
      ],
      [
        "au",
        "se"
      ],
      [
        "Ġc",
        "ould"
      ],
      [
        "Ġtw",
        "o"
      ],
      [
        "w",
        "n"
      ],
      [
        "Ġw",
        "ay"
      ],
      [
        "d",
        "ay"
      ],
      [
        "ĠC",
        "h"
      ],
      [
        "Ġa",
        "fter"
      ],
      [
        "Ġto",
        "o"
      ],
      [
        "Ġm",
        "y"
      ],
      [
        "t",
        "he"
      ],
      [
        "in",
        "e"
      ],
      [
        "Ġs",
        "l"
      ],
      [
        "it",
        "e"
      ],
      [
        "is",
        "h"
      ],
      [
        "p",
        "t"
      ],
      [
        "Ġf",
        "l"
      ],
      [
        "Ġne",
        "ver"
      ],
      [
        "as",
        "s"
      ],
      [
        "u",
        "e"
      ],
      [
        "e",
        "op"
      ],
      [
        "f",
        "ul"
      ],
      [
        "i",
        "ver"
      ],
      [
        ".",
        "\""
      ],
      [
        "Ġh",
        "as"
      ],
      [
        "Ġw",
        "ere"
      ],
      [
        "Ġ",
        "en"
      ],
      [
        "or",
        "ning"
      ],
      [
        "f",
        "er"
      ],
      [
        "a",
        "ve"
      ],
      [
        "Ġw",
        "r"
      ],
      [
        "ĠT",
        "h"
      ],
      [
        "or",
        "y"
      ],
      [
        "f",
        "t"
      ],
      [
        "Ġm",
        "u"
      ],
      [
        "itt",
        "le"
      ],
      [
        "Ġf",
        "irst"
      ],
      [
        "Ġr",
        "o"
      ],
      [
        "Ġbe",
        "c"
      ],
      [
        "ĠĠ",
        "Ġ"
      ],
      [
        "e",
        "w"
      ],
      [
        "ar",
        "m"
      ],
      [
        "v",
        "en"
      ],
      [
        "Ġd",
        "r"
      ],
      [
        "in",
        "k"
      ],
      [
        "Ġthe",
        "ir"
      ],
      [
        "Ġs",
        "imp"
      ],
      [
        "Ġbe",
        "fore"
      ],
      [
        "ĠM",
        "o"
      ],
      [
        "Ġs",
        "e"
      ],
      [
        "Ġmo",
        "re"
      ],
      [
        "ar",
        "y"
      ],
      [
        "Ġg",
        "et"
      ],
      [
        "Ġm",
        "orning"
      ],
      [
        "Ġwor",
        "k"
      ],
      [
        "Ġsm",
        "all"
      ],
      [
        "Ġ",
        "very"
      ],
      [
        "se",
        "l"
      ],
      [
        "eop",
        "le"
      ],
      [
        "Ġo",
        "ld"
      ],
      [
        "Ġo",
        "ther"
      ],
      [
        "Ġb",
        "ack"
      ],
      [
        "it",
        "y"
      ],
      [
        "Ġl",
        "ittle"
      ],
      [
        "m",
        "ent"
      ],
      [
        "o",
        "g"
      ],
      [
        "Ġl",
        "ong"
      ],
      [
        "Ġd",
        "own"
      ],
      [
        "ab",
        "le"
      ],
      [
        "g",
        "e"
      ],
      [
        "i",
        "a"
      ],
      [
        "i",
        "es"
      ],
      [
        "ion",
        "s"
      ],
      [
        "Ġs",
        "ay"
      ],
      [
        "ad",
        "e"
      ],
      [
        "Ġg",
        "ood"
      ],
      [
        "w",
        "ard"
      ],
      [
        "ur",
        "n"
      ],
      [
        "Ġ",
        "("
      ],
      [
        "Ġsh",
        "ould"
      ],
      [
        "Ġwor",
        "d"
      ],
      [
        "Ġs",
        "ome"
      ],
      [
        "o",
        "se"
      ],
      [
        "an",
        "k"
      ],
      [
        "b",
        "er"
      ],
      [
        "Ġa",
        "d"
      ],
      [
        "a",
        "il"
      ],
      [
        "i",
        "le"
      ],
      [
        "Ġthe",
        "n"
      ],
      [
        "ag",
        "e"
      ],
      [
        "Ġw",
        "here"
      ],
      [
        "Ġ",
        "G"
      ],
      [
        "Ġa",
        "m"
      ],
      [
        "Ġs",
        "ame"
      ],
      [
        "is",
        "e"
      ],
      [
        "Ġp",
        "o"
      ],
      [
        "Ġke",
        "ep"
      ],
      [
        "Ġ",
        "1"
      ],
      [
        "Ġd",
        "id"
      ],
      [
        "Ġkn",
        "ow"
      ],
      [
        "Ġo",
        "ver"
      ],
      [
        "Ġf",
        "ar"
      ],
      [
        "Ġm",
        "in"
      ],
      [
        "at",
        "her"
      ],
      [
        "Ġf",
        "o"
      ],
      [
        "Ġag",
        "ain"
      ],
      [
        "om",
        "et"
      ],
      [
        "Ġ",
        "K"
      ],
      [
        "Ġst",
        "r"
      ],
      [
        "Ġw",
        "alk"
      ],
      [
        "Ġr",
        "ight"
      ],
      [
        "Ġu",
        "n"
      ],
      [
        "Ġs",
        "c"
      ],
      [
        "Ġb",
        "et"
      ],
      [
        "ĠI",
        "n"
      ],
      [
        "ot",
        "her"
      ],
      [
        "Ġs",
        "he"
      ],
      [
        "Ġu",
        "nder"
      ],
      [
        "Ġth",
        "r"
      ],
      [
        "h",
        "y"
      ],
      [
        "Ġc",
        "ar"
      ],
      [
        "way",
        "s"
      ],
      [
        "Ġre",
        "m"
      ],
      [
        "Ġne",
        "ed"
      ],
      [
        "--",
        "--"
      ],
      [
        "od",
        "y"
      ],
      [
        "Ġw",
        "ind"
      ],
      [
        "b",
        "e"
      ],
      [
        "Ġon",
        "ly"
      ],
      [
        "Ġmin",
        "ut"
      ],
      [
        "v",
        "ing"
      ],
      [
        "ĠH",
        "e"
      ],
      [
        ",",
        "\""
      ],
      [
        "i",
        "p"
      ],
      [
        "an",
        "s"
      ],
      [
        "Ġb",
        "l"
      ],
      [
        "ĠW",
        "hat"
      ],
      [
        "i",
        "x"
      ],
      [
        "ou",
        "nt"
      ],
      [
        ".",
        "'"
      ],
      [
        "Ġp",
        "art"
      ],
      [
        "â",
        "Ģ"
      ],
      [
        "Ġp",
        "ro"
      ],
      [
        "ar",
        "a"
      ],
      [
        "âĢ",
        "Ķ"
      ],
      [
        "l",
        "es"
      ],
      [
        "ear",
        "s"
      ],
      [
        "m",
        "a"
      ],
      [
        "b",
        "le"
      ],
      [
        "Ġof",
        "f"
      ],
      [
        "ĠA",
        "nd"
      ],
      [
        "sel",
        "f"
      ],
      [
        "Ġ",
        "J"
      ],
      [
        "Ġ",
        "âĢĶ"
      ],
      [
        "Ġhe",
        "r"
      ],
      [
        "oc",
        "k"
      ],
      [
        "Ġat",
        "t"
      ],
      [
        "r",
        "ow"
      ],
      [
        "Ġd",
        "if"
      ],
      [
        "Ġmu",
        "ch"
      ],
      [
        "ĠR",
        "at"
      ],
      [
        "Ġw",
        "ell"
      ],
      [
        "Ġa",
        "c"
      ],
      [
        "ic",
        "t"
      ],
      [
        "Ġm",
        "an"
      ],
      [
        "Ġli",
        "ght"
      ],
      [
        "he",
        "s"
      ],
      [
        "Ġd",
        "e"
      ],
      [
        "Ġmo",
        "st"
      ],
      [
        "ak",
        "es"
      ],
      [
        "v",
        "es"
      ],
      [
        "or",
        "m"
      ],
      [
        "Ġbec",
        "ause"
      ],
      [
        "i",
        "et"
      ],
      [
        "at",
        "ter"
      ],
      [
        "Ġwho",
        "le"
      ],
      [
        "w",
        "e"
      ],
      [
        "ou",
        "ght"
      ],
      [
        "Ġst",
        "re"
      ],
      [
        "p",
        "er"
      ],
      [
        "Ġa",
        "pp"
      ],
      [
        "oo",
        "l"
      ],
      [
        "Ġj",
        "ust"
      ],
      [
        "an",
        "ce"
      ],
      [
        "a",
        "w"
      ],
      [
        "Ġthr",
        "ough"
      ],
      [
        "u",
        "d"
      ],
      [
        "'",
        "ll"
      ],
      [
        "Ġt",
        "e"
      ],
      [
        "Ġth",
        "ink"
      ],
      [
        "ot",
        "h"
      ],
      [
        "Ġminut",
        "es"
      ],
      [
        "a",
        "ir"
      ],
      [
        "u",
        "c"
      ],
      [
        "i",
        "ld"
      ],
      [
        "x",
        "t"
      ],
      [
        "Ġm",
        "ade"
      ],
      [
        "Ġon",
        "ce"
      ],
      [
        "Ġd",
        "is"
      ],
      [
        "Ġal",
        "ways"
      ],
      [
        "Ġdif",
        "fer"
      ],
      [
        ",",
        "'"
      ],
      [
        "s",
        "w"
      ],
      [
        "Ġha",
        "pp"
      ],
      [
        "Ġthing",
        "s"
      ],
      [
        "Ġ",
        "["
      ],
      [
        "res",
        "s"
      ],
      [
        "f",
        "e"
      ],
      [
        "Ġw",
        "ee"
      ],
      [
        "Ġst",
        "ep"
      ],
      [
        "ĠMo",
        "le"
      ],
      [
        "Ġc",
        "ome"
      ],
      [
        "Ġha",
        "nd"
      ],
      [
        "Ġc",
        "all"
      ],
      [
        "ĠI",
        "f"
      ],
      [
        "Ġp",
        "eople"
      ],
      [
        "Ġre",
        "st"
      ],
      [
        "Ġm",
        "ay"
      ],
      [
        "o",
        "on"
      ],
      [
        "re",
        "ad"
      ],
      [
        "p",
        "ed"
      ],
      [
        "o",
        "ld"
      ],
      [
        "ĠN",
        "ot"
      ],
      [
        "i",
        "z"
      ],
      [
        "at",
        "ed"
      ],
      [
        "or",
        "s"
      ],
      [
        "ĠS",
        "un"
      ],
      [
        "in",
        "t"
      ],
      [
        "Ġs",
        "ound"
      ],
      [
        "Ġas",
        "k"
      ],
      [
        "Ġex",
        "pl"
      ],
      [
        "oc",
        "al"
      ],
      [
        "i",
        "ous"
      ],
      [
        "Ġe",
        "ach"
      ],
      [
        "Ġr",
        "iver"
      ],
      [
        "Ġsl",
        "ow"
      ],
      [
        "b",
        "ody"
      ],
      [
        "u",
        "b"
      ],
      [
        "Ġkn",
        "ew"
      ],
      [
        "Ġgre",
        "at"
      ],
      [
        "a",
        "ff"
      ],
      [
        "n",
        "ot"
      ],
      [
        "o",
        "ve"
      ],
      [
[...]
