{
  "version": "1.0",
  "truncation": null,
  "padding": null,
  "added_tokens": [
    {
      "id": 0,
      "content": "<|bos|>",
      "single_word": false,
      "lstrip": false,
      "rstrip": false,
      "normalized": false,
      "special": true
    },
    {
      "id": 1,
      "content": "<|eos|>",
      "single_word": false,
      "lstrip": false,
      "rstrip": false,
      "normalized": false,
      "special": true
    },
    {
      "id": 2,
      "content": "<|pad|>",
      "single_word": false,
      "lstrip": false,
      "rstrip": false,
      "normalized": false,
      "special": true
    }
  ],
  "normalizer": null,
  "pre_tokenizer": {
    "type": "ByteLevel",
    "add_prefix_space": false,
    "trim_offsets": true,
    "use_regex": true
  },
  "post_processor": null,
  "decoder": {
    "type": "ByteLevel",
    "add_prefix_space": true,
    "trim_offsets": true,
    "use_regex": true
  },
  "model": {
    "type": "BPE",
    "dropout": null,
    "unk_token": null,
    "continuing_subword_prefix": null,
    "end_of_word_suffix": null,
    "fuse_unk": false,
    "byte_fallback": false,
    "ignore_merges": false,
    "vocab": {
      "<|bos|>": 0,
      "<|eos|>": 1,
      "<|pad|>": 2,
      "!": 3,
      "\"": 4,
      "#": 5,
      "$": 6,
      "%": 7,
      "&": 8,
      "'": 9,
      "(": 10,
      ")": 11,
      "*": 12,
      "+": 13,
      ",": 14,
      "-": 15,
      ".": 16,
      "/": 17,
      "0": 18,
      "1": 19,
      "2": 20,
      "3": 21,
      "4": 22,
      "5": 23,
      "6": 24,
      "7": 25,
      "8": 26,
      "9": 27,
      ":": 28,
      ";": 29,
      "<": 30,
      "=": 31,
      ">": 32,
      "?": 33,
      "@": 34,
      "A": 35,
      "B": 36,
      "C": 37,
      "D": 38,
      "E": 39,
      "F": 40,
      "G": 41,
      "H": 42,
      "I": 43,
      "J": 44,
      "K": 45,
      "L": 46,
      "M": 47,
      "N": 48,
      "O": 49,
      "P": 50,
      "Q": 51,
      "R": 52,
      "S": 53,
      "T": 54,
      "U": 55,
      "V": 56,
      "W": 57,
      "X": 58,
      "Y": 59,
      "Z": 60,
      "[": 61,
      "\\": 62,
      "]": 63,
      "^": 64,
      "_": 65,
      "`": 66,
      "a": 67,
      "b": 68,
      "c": 69,
      "d": 70,
      "e": 71,
      "f": 72,
      "g": 73,
      "h": 74,
      "i": 75,
      "j": 76,
      "k": 77,
      "l": 78,
      "m": 79,
      "n": 80,
      "o": 81,
      "p": 82,
      "q": 83,
      "r": 84,
      "s": 85,
      "t": 86,
      "u": 87,
      "v": 88,
      "w": 89,
      "x": 90,
      "y": 91,
      "z": 92,
      "{": 93,
      "|": 94,
      "}": 95,
      "~": 96,
      "¡": 97,
      "¢": 98,
      "£": 99,
      "¤": 100,
      "¥": 101,
      "¦": 102,
      "§": 103,
      "¨": 104,
      "©": 105,
      "ª": 106,
      "«": 107,
      "¬": 108,
      "®": 109,
      "¯": 110,
      "°": 111,
      "±": 112,
      "²": 113,
      "³": 114,
      "´": 115,
      "µ": 116,
      "¶": 117,
      "·": 118,
      "¸": 119,
      "¹": 120,
      "º": 121,
      "»": 122,
      "¼": 123,
      "½": 124,
      "¾": 125,
      "¿": 126,
      "À": 127,
      "Á": 128,
      "Â": 129,
      "Ã": 130,
      "Ä": 131,
      "Å": 132,
      "Æ": 133,
      "Ç": 134,
      "È": 135,
      "É": 136,
      "Ê": 137,
      "Ë": 138,
      "Ì": 139,
      "Í": 140,
      "Î": 141,
      "Ï": 142,
      "Ð": 143,
      "Ñ": 144,
      "Ò": 145,
      "Ó": 146,
      "Ô": 147,
      "Õ": 148,
      "Ö": 149,
      "×": 150,
      "Ø": 151,
      "Ù": 152,
      "Ú": 153,
      "Û": 154,
      "Ü": 155,
      "Ý": 156,
      "Þ": 157,
      "ß": 158,
      "à": 159,
      "á": 160,
      "â": 161,
      "ã": 162,
      "ä": 163,
      "å": 164,
      "æ": 165,
      "ç": 166,
      "è": 167,
      "é": 168,
      "ê": 169,
      "ë": 170,
      "ì": 171,
      "í": 172,
      "î": 173,
      "ï": 174,
      "ð": 175,
      "ñ": 176,
      "ò": 177,
      "ó": 178,
      "ô": 179,
      "õ": 180,
      "ö": 181,
      "÷": 182,
      "ø": 183,
      "ù": 184,
      "ú": 185,
      "û": 186,
      "ü": 187,
      "ý": 188,
      "þ": 189,
      "ÿ": 190,
      "Ā": 191,
      "ā": 192,
      "Ă": 193,
      "ă": 194,
      "Ą": 195,
      "ą": 196,
      "Ć": 197,
      "ć": 198,
      "Ĉ": 199,
      "ĉ": 200,
      "Ċ": 201,
      "ċ": 202,
      "Č": 203,
      "č": 204,
      "Ď": 205,
      "ď": 206,
      "Đ": 207,
      "đ": 208,
      "Ē": 209,
      "ē": 210,
      "Ĕ": 211,
      "ĕ": 212,
      "Ė": 213,
      "ė": 214,
      "Ę": 215,
      "ę": 216,
      "Ě": 217,
      "ě": 218,
      "Ĝ": 219,
      "ĝ": 220,
      "Ğ": 221,
      "ğ": 222,
      "Ġ": 223,
      "ġ": 224,
      "Ģ": 225,
      "ģ": 226,
      "Ĥ": 227,
      "ĥ": 228,
      "Ħ": 229,
      "ħ": 230,
      "Ĩ": 231,
      "ĩ": 232,
      "Ī": 233,
      "ī": 234,
      "Ĭ": 235,
      "ĭ": 236,
      "Į": 237,
      "į": 238,
      "İ": 239,
      "ı": 240,
      "Ĳ": 241,
      "ĳ": 242,
      "Ĵ": 243,
      "ĵ": 244,
      "Ķ": 245,
      "ķ": 246,
      "ĸ": 247,
      "Ĺ": 248,
      "ĺ": 249,
      "Ļ": 250,
      "ļ": 251,
      "Ľ": 252,
      "ľ": 253,
      "Ŀ": 254,
      "ŀ": 255,
      "Ł": 256,
      "ł": 257,
      "Ń": 258,
      "Ġt": 259,
      "he": 260,
      "Ġa": 261,
      "Ġthe": 262,
      "in": 263,
      "Ġw": 264,
      "Ġs": 265,
      "ou": 266,
      "er": 267,
      "Ġi": 268,
      "re": 269,
      "on": 270,
      "ha": 271,
      "or": 272,
      "nd": 273,
      "Ġb": 274,
      "Ġf": 275,
      "Ġm": 276,
      "Ġc": 277,
      "ing": 278,
      "ll": 279,
      "ar": 280,
      "ed": 281,
      "st": 282,
      "Ġd": 283,
      "Ġp": 284,
      "Ġto": 285,
      "en": 286,
      "Ġand": 287,
      "Ġo": 288,
      "Ġl": 289,
      "Ġy": 290,
      "Ġit": 291,
      "ĠI": 292,
      "at": 293,
      "hat": 294,
      "Ġyou": 295,
      "an": 296,
      "as": 297,
      "le": 298,
      "Ġin": 299,
      "Ġn": 300,
      "Ġis": 301,
      "ay": 302,
      "et": 303,
      "Ġof": 304,
      "es": 305,
      "Ġe": 306,
      "ow": 307,
      "ot": 308,
      "ic": 309,
      "it": 310,
      "Ġst": 311,
      "Ġg": 312,
      "ld": 313,
      "Ġon": 314,
      "ver": 315,
      "me": 316,
      "oo": 317,
      "ĠT": 318,
      "Ġbe": 319,
      "ly": 320,
      "Ġwas": 321,
      "is": 322,
      "Ġth": 323,
      "Ġthat": 324,
      "Ġha": 325,
      "ee": 326,
      "Ġre": 327,
      "Ġh": 328,
      "gh": 329,
      "Ġr": 330,
      "Ġfor": 331,
      "se": 332,
      "Ġwh": 333,
      "ce": 334,
      "ke": 335,
      "all": 336,
      "ut": 337,
      "id": 338,
      "ght": 339,
      "om": 340,
      "ould": 341,
      "ve": 342,
      "Ġan": 343,
      "Ġu": 344,
      "al": 345,
      "ir": 346,
      "ĠW": 347,
      "op": 348,
      "Ġli": 349,
      "Ġk": 350,
      "ĠS": 351,
      "ac": 352,
      "Ġat": 353,
      "her": 354,
      "ion": 355,
      "ĠA": 356,
      "out": 357,
      "ad": 358,
      "ill": 359,
      "ter": 360,
      "very": 361,
      "Ġne": 362,
      "ith": 363,
      "im": 364,
      "ĠIt": 365,
      "Ġwe": 366,
      "Ġdo": 367,
      "Ġwith": 368,
      "ice": 369,
      "Ġnot": 370,
      "han": 371,
      "ur": 372,
      "ĠThe": 373,
      "Ġso": 374,
      "th": 375,
      "ain": 376,
      "ind": 377,
      "ent": 378,
      "Ġmo": 379,
      "Ġwor": 380,
      "Ġas": 381,
      "one": 382,
      "Ġex": 383,
      "ood": 384,
      "our": 385,
      "Ġme": 386,
      "ri": 387,
      "li": 388,
      "ame": 389,
      "am": 390,
      "qu": 391,
      "ell": 392,
      "hen": 393,
      "Ġone": 394,
      "Ġpl": 395,
      "Ġsh": 396,
      "Ġwho": 397,
      "ra": 398,
      "il": 399,
      "Ġevery": 400,
      "ct": 401,
      "Ġwill": 402,
      "ĠThat": 403,
      "au": 404,
      "ning": 405,
      "ge": 406,
      "ĠN": 407,
      "Ġare": 408,
      "way": 409,
      "ĠM": 410,
      "imp": 411,
      "ĠH": 412,
      "ard": 413,
      "Ġhe": 414,
      "Ġti": 415,
      "ong": 416,
      "ook": 417,
      "'s": 418,
      "Ġby": 419,
      "Ġsee": 420,
      "Ġco": 421,
      "Ġal": 422,
      "ĠY": 423,
      "ep": 424,
      "Ġqu": 425,
      "Ġtime": 426,
      "Ġab": 427,
      "Ġyour": 428,
      "ake": 429,
      "pp": 430,
      "un": 431,
      "ear": 432,
      "ch": 433,
      "Ġkn": 434,
      "Ġbut": 435,
      "The": 436,
      "Ġwat": 437,
      "ist": 438,
      "ally": 439,
      "Ġall": 440,
      "Ġabout": 441,
      "Ġpr": 442,
      "day": 443,
      "Ġthan": 444,
      "Ġsimp": 445,
      "ust": 446,
      "ĠE": 447,
      "ob": 448,
      "Ġthis": 449,
      "ore": 450,
      "eep": 451,
      "orning": 452,
      "ound": 453,
      "Ġfr": 454,
      "Ġplan": 455,
      "art": 456,
      "ough": 457,
      "ight": 458,
      "ak": 459,
      "ate": 460,
      "Ġlike": 461,
      "ather": 462,
      "ĠC": 463,
      "here": 464,
      "and": 465,
      "Ġthere": 466,
      "ry": 467,
      "Ġday": 468,
      "Ġgr": 469,
      "ory": 470,
      "pl": 471,
      "Ġwould": 472,
      "Ġmorning": 473,
      "irst": 474,
      "Ġwater": 475,
      "fter": 476,
      "ark": 477,
      "ved": 478,
      "ast": 479,
      "thing": 480,
      "fu": 481,
      "Ġany": 482,
      "Ġsame": 483,
      "ople": 484,
      "nt": 485,
      "ers": 486,
      "Ġcould": 487,
      "Ġj": 488,
      "Ġthing": 489,
      "eople": 490,
      "lo": 491,
      "ĠP": 492,
      "od": 493,
      "Ġfirst": 494,
      "ĠYou": 495,
      "ff": 496,
      "Ġhow": 497,
      "Ġtr": 498,
      "el": 499,
      "um": 500,
      "Ġlook": 501,
      "Ġhave": 502,
      "est": 503,
      "Ġits": 504,
      "av": 505,
      "Ġv": 506,
      "ble": 507,
      "Ġafter": 508,
      "Ġout": 509,
      "ew": 510,
      "Ġor": 511,
      "Ġsm": 512,
      "Ġwind": 513,
      "Ġhad": 514,
      "ck": 515,
      "Ġthey": 516,
      "Ġwhen": 517,
      "ĠO": 518,
      "os": 519,
      "Ġad": 520,
      "Ġnever": 521,
      "ĠB": 522,
      "Ġse": 523,
      "us": 524,
      "Ġif": 525,
      "ody": 526,
      "are": 527,
      "Ġstep": 528,
      "Ġstory": 529,
      "ort": 530,
      "wn": 531,
      "Ġfrom": 532,
      "low": 533,
      "Ġcan": 534,
      "ĠWhat": 535,
      "Ġsimple": 536,
      "ence": 537,
      "Ġold": 538,
      "ue": 539,
      "Ġus": 540,
      "Ġwork": 541,
      "ĠR": 542,
      "ause": 543,
      "ation": 544,
      "ĠD": 545,
      "Ġbr": 546,
      "urn": 547,
      "ara": 548,
      "Ġar": 549,
      "Ġag": 550,
      "fore": 551,
      "Ġexpl": 552,
      "ink": 553,
      "ide": 554,
      "pe": 555,
      "act": 556,
      "Ġdi": 557,
      "Ġkeep": 558,
      "Ġbefore": 559,
      "ure": 560,
      "ward": 561,
      "Ġweather": 562,
      "ways": 563,
      "Ġbeen": 564,
      "Ġwhole": 565,
      "cause": 566,
      "Ġway": 567,
      "ich": 568,
      "Ġsmall": 569,
      "ber": 570,
      "Ġpo": 571,
      "ĠL": 572,
      "Ġwr": 573,
      "ack": 574,
      "ma": 575,
      "ree": 576,
      "Ġknew": 577,
      "hing": 578,
      "ine": 579,
      "Ġtown": 580,
      "Ġgood": 581,
      "ving": 582,
      "Ġtell": 583,
      "ful": 584,
      "vice": 585,
      "Ġwar": 586,
      "Ġtw": 587,
      "Ġwhat": 588,
      "la": 589,
      "Ġde": 590,
      "Ġget": 591,
      "Ġhar": 592,
      "obody": 593,
      "hy": 594,
      "Ġle": 595,
      "Ġwhich": 596,
      "reet": 597,
      "Ġno": 598,
      "oof": 599,
      "ie": 600,
      "ug": 601,
      "Ġadvice": 602,
      "ĠF": 603,
      "ous": 604,
      "ia": 605,
      "hed": 606,
      "Ġonce": 607,
      "Ġam": 608,
      "ona": 609,
      "Ġlight": 610,
      "Ġalways": 611,
      "ite": 612,
      "ere": 613,
      "Ġbest": 614,
      "Ġup": 615,
      "Ġqui": 616,
      "end": 617,
      "Ġwee": 618,
      "Ġint": 619,
      "ĠG": 620,
      "mber": 621,
      "Ġcar": 622,
      "Ġgo": 623,
      "Ġwhy": 624,
      "Ġthem": 625,
      "Ġneed": 626,
      "nder": 627,
      "Ġhas": 628,
      "Ġreme": 629,
      "Ġremember": 630,
      "Ġright": 631,
      "Ġslow": 632,
      "Ġcom": 633,
      "sw": 634,
      "Ġpart": 635,
      "Ġseem": 636,
      "Ġte": 637,
      "ull": 638,
      "Ġtoo": 639,
      "Ġlo": 640,
      "Ġcon": 641,
      "Ġwell": 642,
      "Ġwhere": 643,
      "Ġshould": 644,
      "ppen": 645,
      "Ġforg": 646,
      "ps": 647,
      "Ġinto": 648,
      "tle": 649,
      "Ġpeople": 650,
      "Ġsp": 651,
      "lf": 652,
      "Ġansw": 653,
      "opp": 654,
      "Ġeverything": 655,
      "Ġanswer": 656,
      "ft": 657,
      "ick": 658,
      "Ġcame": 659,
      "ach": 660,
      "ĠIn": 661,
      "oom": 662,
      "Ġbecause": 663,
      "ess": 664,
      "Ġsa": 665,
      "Ġoff": 666,
      "Ġmore": 667,
      "ds": 668,
      "Ġbet": 669,
      "Ġch": 670,
      "Ġreally": 671,
      "Ġfo": 672,
      "Ġthings": 673,
      "Ġquiet": 674,
      "ount": 675,
      "orm": 676,
      "Ġlong": 677,
      "ool": 678,
      "Ġsound": 679,
      "eel": 680,
      "Ġmist": 681,
      "Ġroom": 682,
      "Ġagain": 683,
      "ade": 684,
      "Ġhappen": 685,
      "akes": 686,
      "Ġhour": 687,
      "Ġfar": 688,
      "ffer": 689,
      "pr": 690,
      "Ġmy": 691,
      "Ġmin": 692,
      "res": 693,
      "Ġfull": 694,
      "Ġho": 695,
      "age": 696,
      "Ġdiffer": 697,
      "ana": 698,
      "omet": 699,
      "ish": 700,
      "Ġwarm": 701,
      "Ġstreet": 702,
      "ap": 703,
      "Ġsome": 704,
      "Ġback": 705,
      "Ġmu": 706,
      "Ġnobody": 707,
      "Ġthink": 708,
      "ise": 709,
      "ail": 710,
      "ass": 711,
      "ĠSo": 712,
      "ant": 713,
      "Ġminut": 714,
      "Ġfeel": 715,
      "ears": 716,
      "Ġtwo": 717,
      "read": 718,
      "Ġlit": 719,
      "mp": 720,
      "sk": 721,
      "ĠWhy": 722,
      "fe": 723,
      "ire": 724,
      "Ġask": 725,
      "ran": 726,
      "ĠJ": 727,
      "Ġen": 728,
      "Ġhone": 729,
      "Ġunder": 730,
      "Ġseemed": 731,
      "ther": 732,
      "Ġtra": 733,
      "hank": 734,
      "liver": 735,
      "Ġknow": 736,
      "ors": 737,
      "Ġmistake": 738,
      "ĠNot": 739,
      "Ġwindow": 740,
      "Ġrest": 741,
      "Ġbl": 742,
      "'t": 743,
      "Ġturn": 744,
      "Ġgrow": 745,
      "Ġother": 746,
      "actly": 747,
      "row": 748,
      "ag": 749,
      "able": 750,
      "Ġforgot": 751,
      "Ġmark": 752,
      "Ġcour": 753,
      "Ġreas": 754,
      "Ġremembered": 755,
      "estion": 756,
      "Ġquestion": 757,
      "be": 758,
      "Ġsun": 759,
      "ena": 760,
      "atter": 761,
      "les": 762,
      "ĠHow": 763,
      "ĠCan": 764,
      "Ġonly": 765,
      "Ġminutes": 766,
      "Ġlittle": 767,
      "Ġmarket": 768,
      "co": 769,
      "Ġdr": 770,
      "Ġapp": 771,
      "Ġsay": 772,
      "Ġlet": 773,
      "Ġgre": 774,
      "ict": 775,
      "cted": 776,
      "Ġsha": 777,
      "Ġcourse": 778,
      "Ġmade": 779,
      "Ġdid": 780,
      "light": 781,
      "Ġshort": 782,
      "Ġjust": 783,
      "Ġbus": 784,
      "Ġcor": 785,
      "stly": 786,
      "Ġbo": 787,
      "ĠRe": 788,
      "ĠWhen": 789,
      "ched": 790,
      "ris": 791,
      "anation": 792,
      "Ġcold": 793,
      "ts": 794,
      "Ġput": 795,
      "own": 796,
      "Ġatt": 797,
      "ention": 798,
      "Ġanyone": 799,
      "Ġexplanation": 800,
      "ace": 801,
      "Ġplans": 802,
      "Ġexplain": 803,
      "hes": 804,
      "Ġweatherpr": 805,
      "Ġweek": 806,
      "Ġweatherproof": 807,
      "Ġthough": 808,
      "Ġmoving": 809,
      "Ġarri": 810,
      "Ġtoday": 811,
      "Ġret": 812,
      "lock": 813,
      "vi": 814,
      "ub": 815,
      "ya": 816,
      "Ġnear": 817,
      "Ġwall": 818,
      "ner": 819,
      "Ġthese": 820,
      "aybe": 821,
      "og": 822,
      "Pau": 823,
      "ze": 824,
      "Ġheat": 825,
      "der": 826,
      "ven": 827,
      "other": 828,
      "Ġdoes": 829,
      "oss": 830,
      "ora": 831,
      "Ġcall": 832,
      "Ġdes": 833,
      "Ġaway": 834,
      "etail": 835,
      "ĠPeople": 836,
      "Ġunderst": 837,
      "Ġwrong": 838,
      "Ġsaid": 839,
      "Mar": 840,
      "ix": 841,
      "Ġshe": 842,
      "ited": 843,
      "Ġexactly": 844,
      "ten": 845,
      "ĠAnd": 846,
      "Ġjob": 847,
      "Ġunderstand": 848,
      "Ġdri": 849,
      "Ġstart": 850,
      "Ġsounds": 851,
      "Ġair": 852,
      "Ġsal": 853,
      "Ġmuch": 854,
      "een": 855,
      "Ġser": 856,
      "Ġdown": 857,
      "oon": 858,
      "Ġac": 859,
      "Ġkind": 860,
      "Ġanything": 861,
      "ive": 862,
      "Ġsur": 863,
      "Ġside": 864,
      "ost": 865,
      "ina": 866,
      "ĠEvery": 867,
      "ile": 868,
      "Ġforward": 869,
      "vel": 870,
      "Ġhard": 871,
      "ose": 872,
      "Ġover": 873,
      "Ġtom": 874,
      "ave": 875,
      "orrow": 876,
      "Ġdoor": 877,
      "avi": 878,
      "air": 879,
      "Ġbring": 880,
      "ought": 881,
      "bor": 882,
      "Ġins": 883,
      "ty": 884,
      "Ġcare": 885,
      "Ġdetail": 886,
      "ope": 887,
      "Ġhel": 888,
      "Ġquietly": 889,
      "Ġrep": 890,
      "ĠAn": 891,
      "Ġreturn": 892,
      "Ġthr": 893,
      "rap": 894,
      "ily": 895,
      "earn": 896,
      "Ġmis": 897,
      "Ġind": 898,
      "Ġdifference": 899,
      "Ġalong": 900,
      "ci": 901,
      "ig": 902,
      "Ġ\"": 903,
      "Ġmakes": 904,
      "ity": 905,
      "und": 906,
      "ually": 907,
      "Ġeas": 908,
      "alk": 909,
      "Ġthrough": 910,
      "Ġflo": 911,
      "Ġunt": 912,
      "Ġwords": 913,
      "Ġwere": 914,
      "ĠNo": 915,
      "xt": 916,
      "Ġworking": 917,
      "Ġpoin": 918,
      "Ġpie": 919,
      "ans": 920,
      "aking": 921,
      "Ġuntil": 922,
      "Ġwa": 923,
      "Ġcorner": 924,
      "Ver": 925,
      "Ġeach": 926,
      "Ġkeeps": 927,
      "oud": 928,
      "Ġattention": 929,
      "Lu": 930,
      "Ġfind": 931,
      "Ġafterward": 932,
      "ĠGood": 933,
      "Ġsug": 934,
      "Ġun": 935,
      "Ġharbor": 936,
      "ross": 937,
      "Ġfl": 938,
      "Ġmind": 939,
      "als": 940,
      "Ġshow": 941,
      "opped": 942,
      "ler": 943,
      "Ġher": 944,
      "Ġdark": 945,
      "Ġlearn": 946,
      "ween": 947,
      "ated": 948,
      "Ġcarry": 949,
      "oth": 950,
      "ĠThank": 951,
      "Ġph": 952,
      "Ġnew": 953,
      "Ġarrived": 954,
      "Ġbetween": 955,
      "Ġdetails": 956,
      "Gra": 957,
      ".\"": 958,
      "Ġdam": 959,
      "Ġread": 960,
      "Ġsomet": 961,
      "ĠWe": 962,
      "ĠAsk": 963,
      "ress": 964,
      "ize": 965,
      "Ġfood": 966,
      "Ġhand": 967,
      "Ġtravel": 968,
      "Ġslight": 969,
      "Ġfam": 970,
      "imple": 971,
      "une": 972,
      "ction": 973,
      "Ġsec": 974,
      "ograp": 975,
      "Ġslightly": 976,
      "Ġpot": 977,
      "Ġri": 978,
      "Ġworld": 979,
      "ves": 980,
      "ĠIf": 981,
      "ĠTh": 982,
      "Ġwhile": 983,
      "any": 984,
      "iting": 985,
      "Ġstran": 986,
      "ends": 987,
      "St": 988,
      "Ġset": 989,
      "osa": 990,
      "Ġafterwards": 991,
      "uth": 992,
      "Ġfloor": 993,
      "pt": 994,
      "Ġhum": 995,
      "ĠAny": 996,
      "Ġten": 997,
      "Ġfour": 998,
      "Ġcle": 999,
      "Ġworth": 1000,
      "Ġunderstanding": 1001,
      "Ġacross": 1002,
      "sla": 1003,
      "Ġsin": 1004,
      "ons": 1005,
      "Ġstill": 1006,
      "Ġgot": 1007,
      "Ġnotice": 1008,
      "Ġslowly": 1009,
      "aster": 1010,
      "Ġpiece": 1011,
      "gine": 1012,
      "Ġbook": 1013,
      "lice": 1014,
      "âĢ": 1015,
      "ĠSt": 1016,
      "Ġtea": 1017,
      "âĢĶ": 1018,
      "erc": 1019,
      "Ġbeg": 1020,
      "Ġro": 1021,
      "Ġsk": 1022,
      "Ġcr": 1023,
      "Ġbetter": 1024,
      "It": 1025,
      "Ġcome": 1026,
      "Ġthank": 1027,
      "Ġsomething": 1028,
      "ud": 1029,
      "Ġsw": 1030,
      "ĠSimple": 1031,
      "Ġhold": 1032,
      "form": 1033,
      "ĠâĢĶ": 1034,
      "Ġdeliver": 1035,
      "Ġturned": 1036,
      "ĠReally": 1037,
      "Ġlate": 1038,
      "Ġthought": 1039,
      "Ġpost": 1040,
      "Ġtomorrow": 1041,
      "Ġpoint": 1042,
      "Ġsqu": 1043,
      "than": 1044,
      "ered": 1045,
      "Ġstood": 1046,
      "cle": 1047,
      "llow": 1048,
      "Ġstay": 1049,
      "Ġsimply": 1050,
      "gs": 1051,
      "red": 1052,
      "lla": 1053,
      "imon": 1054,
      "Nina": 1055,
      "Ġsc": 1056,
      "Ġinv": 1057,
      "iced": 1058,
      "Ġstop": 1059,
      "elen": 1060,
      "Ġvis": 1061,
      "arden": 1062,
      "ĠPer": 1063,
      "Ġphot": 1064,
      "Ġriver": 1065,
      "Ġthen": 1066,
      "lias": 1067,
      "Ġcau": 1068,
      "Ġdeep": 1069,
      "Ġgarden": 1070,
      "kend": 1071,
      "ried": 1072,
      "Ġweekend": 1073,
      "Ġimp": 1074,
      "Ġcl": 1075,
      "arl": 1076,
      "elt": 1077,
      "ĠOf": 1078,
      "ĠLet": 1079,
      "Ġsalt": 1080,
      "Vera": 1081,
      "Ġphotograp": 1082,
      "ect": 1083,
      "fia": 1084,
      "Ġcha": 1085,
      "self": 1086,
      "Ġlife": 1087,
      "ĠSee": 1088,
      "chool": 1089,
      "ĠOh": 1090,
      "Ġloc": 1091,
      "ĠJust": 1092,
      "Ġhoney": 1093,
      "ah": 1094,
      "Ġschool": 1095,
      "Ġbread": 1096,
      "Ġmatter": 1097,
      "Ġnoticed": 1098,
      "Every": 1099,
      "Ġmother": 1100,
      "ĠAre": 1101,
      "imes": 1102,
      "Ġhear": 1103,
      "Ġmake": 1104,
      "Ġexerc": 1105,
      "Kate": 1106,
      "Ġop": 1107,
      "mell": 1108,
      "gest": 1109,
      "ĠHave": 1110,
      "Isla": 1111,
      "na": 1112,
      "Ġsmell": 1113,
      "ings": 1114,
      "ĠMaybe": 1115,
      "ĠBe": 1116,
      "Ġexercise": 1117,
      "ĠSh": 1118,
      "Ġwithin": 1119,
      "Ġmostly": 1120,
      "Ġsurvi": 1121,
      "lena": 1122,
      "mar": 1123,
      "Ġdep": 1124,
      "Ġthree": 1125,
      "Ġnext": 1126,
      "Grace": 1127,
      "Dana": 1128,
      "Ġche": 1129,
      "Ġnothing": 1130,
      "Ġmornings": 1131,
      "pected": 1132,
      "ove": 1133,
      "Ġlar": 1134,
      "eter": 1135,
      "isha": 1136,
      "Ġmeet": 1137,
      "ĠBy": 1138,
      "Uma": 1139,
      "gers": 1140,
      "Ġyears": 1141,
      "'d": 1142,
      "June": 1143,
      "Ġsit": 1144,
      "Ġear": 1145,
      "'ll": 1146,
      "Ken": 1147,
      "ani": 1148,
      "Ġinform": 1149,
      "ĠWhere": 1150,
      "Ġoffice": 1151,
      "oe": 1152,
      "Ġfell": 1153,
      "Ġpict": 1154,
      "Ġrather": 1155,
      "ĠSund": 1156,
      "adi": 1157,
      "Ġmoved": 1158,
      "endy": 1159,
      "Ġfollow": 1160,
      "Ġpicture": 1161,
      "ĠSunday": 1162,
      "dam": 1163,
      "ng": 1164,
      "usted": 1165,
      "Ġhome": 1166,
      "ĠBecause": 1167,
      "When": 1168,
      "uck": 1169,
      "Ġfair": 1170,
      "atur": 1171,
      "Ġreal": 1172,
      "Ġlived": 1173,
      "aches": 1174,
      "ffee": 1175,
      "aves": 1176,
      "Ġkeeping": 1177,
      "Ġparts": 1178,
      "Ġforgotten": 1179,
      "Marco": 1180,
      "Ethan": 1181,
      "Hal": 1182,
      "Helen": 1183,
      "So": 1184,
      "ious": 1185,
      "ert": 1186,
      "Ġnight": 1187,
      "Ġrain": 1188,
      "Ġrough": 1189,
      "Ġdec": 1190,
      "Ġimport": 1191,
      "Mona": 1192,
      "wen": 1193,
      "Ġke": 1194,
      "ĠTo": 1195,
      "Ġproof": 1196,
      "Ġtrue": 1197,
      "Ġsquare": 1198,
      "aniel": 1199,
      "Ġimportant": 1200,
      "Zoe": 1201,
      "lara": 1202,
      "Ġtheir": 1203,
      "Ġsat": 1204,
      "oup": 1205,
      "Ġfelt": 1206,
      "ading": 1207,
      "Ġusually": 1208,
      "Ġfamous": 1209,
      "Ġstrangers": 1210,
      "Ġphotograph": 1211,
      "clock": 1212,
      "ges": 1213,
      "pite": 1214,
      "Ġcat": 1215,
      "Ġchan": 1216,
      "Ġeg": 1217,
      "Ġuse": 1218,
      "Ġcover": 1219,
      "Ġwarning": 1220,
      "ugo": 1221,
      "onable": 1222,
      "Ġexplanations": 1223,
      "Ġshowed": 1224,
      "ĠNear": 1225,
      "Ġcoffee": 1226,
      "ĠYears": 1227,
      "Ġtrusted": 1228,
      "Ġoffered": 1229,
      "ountain": 1230,
      "Ġreasonable": 1231,
      "fway": 1232,
      "oors": 1233,
      "enry": 1234,
      "Ġey": 1235,
      "riya": 1236,
      "Ġdespite": 1237,
      "Ġwaited": 1238,
      "Ġdamage": 1239,
      "Nobody": 1240,
      "Ġpat": 1241,
      "Ġhelps": 1242,
      "Ġindoors": 1243,
      "Ġsurvived": 1244,
      "Halfway": 1245,
      "eli": 1246,
      "ild": 1247,
      "rection": 1248,
      "aya": 1249,
      "Ġworks": 1250,
      "Sofia": 1251,
      "elix": 1252,
      "No": 1253,
      "Ġend": 1254,
      "ready": 1255,
      "Noah": 1256,
      "Mark": 1257,
      "de": 1258,
      "oke": 1259,
      "ul": 1260,
      "Ġour": 1261,
      "ĠSatur": 1262,
      "Ġmoon": 1263,
      "ella": 1264,
      "Ġleft": 1265,
      "ĠSaturday": 1266,
      "Oliver": 1267,
      "br": 1268,
      "ier": 1269,
      "Ġfin": 1270,
      "Ġbel": 1271,
      "Ġsoon": 1272,
      "Ġcomm": 1273,
      "'m": 1274,
      "eo": 1275,
      "ĠMr": 1276,
      "Carl": 1277,
      "Hana": 1278,
      "Vict": 1279,
      "oes": 1280,
      "uli": 1281,
      "ance": 1282,
      "Ġalready": 1283,
      "Ġcompl": 1284,
      "Paula": 1285,
      "Victor": 1286,
      "ary": 1287,
      "Ġform": 1288,
      "Ġdeeper": 1289,
      "Aisha": 1290,
      "Simon": 1291,
      "ature": 1292,
      "ase": 1293,
      "Paul": 1294,
      "Everyone": 1295,
      "Dora": 1296,
      "Lena": 1297,
      "Ruth": 1298,
      "Ġspe": 1299,
      "Ġpass": 1300,
      "Ġsoft": 1301,
      "onah": 1302,
      "adiya": 1303,
      "Wendy": 1304,
      "Ġmany": 1305,
      "Ġob": 1306,
      "ĠAll": 1307,
      "Ġcol": 1308,
      "Ġproud": 1309,
      "Ġlooking": 1310,
      "Ġgoing": 1311,
      "Ġquestions": 1312,
      "uby": 1313,
      "Elena": 1314,
      "iam": 1315,
      "mma": 1316,
      "Ġfence": 1317,
      "Ġdon": 1318,
      "Ġplace": 1319,
      "Ġsimpler": 1320,
      "Ġeasy": 1321,
      "Ġeyes": 1322,
      "Elias": 1323,
      "Ġexpected": 1324,
      "ames": 1325,
      "ĠOn": 1326,
      "Adam": 1327,
      "Then": 1328,
      "Ġvery": 1329,
      "ilk": 1330,
      "Ġgrate": 1331,
      "erely": 1332,
      "Ġconfu": 1333,
      "Ġcalling": 1334,
      "Ġroughly": 1335,
      "avid": 1336,
      "arah": 1337,
      "ield": 1338,
      "Ġbusy": 1339,
      "Ġgrateful": 1340,
      "An": 1341,
      "Jake": 1342,
      "Thank": 1343,
      "eor": 1344,
      "ies": 1345,
      "vy": 1346,
      "Ġfire": 1347,
      "urch": 1348,
      "ours": 1349,
      "Ġagree": 1350,
      "Ġleaves": 1351,
      "Ġhumans": 1352,
      "eorge": 1353,
      "Rosa": 1354,
      "Sam": 1355,
      "ip": 1356,
      "round": 1357,
      "ents": 1358,
      "amp": 1359,
      "Ġwriting": 1360,
      "Ġhours": 1361,
      "Ġappre": 1362,
      "Alice": 1363,
      "Priya": 1364,
      "lish": 1365,
      "ret": 1366,
      "icated": 1367,
      "Ġgl": 1368,
      "Ġsuggest": 1369,
      "Ġbegin": 1370,
      "Omar": 1371,
      "com": 1372,
      "Ġdays": 1373,
      "Ġchurch": 1374,
      "Dear": 1375,
      "Daniel": 1376,
      "Iris": 1377,
      "Tara": 1378,
      "Yours": 1379,
      "ax": 1380,
      "cerely": 1381,
      "mer": 1382,
      "Ġlast": 1383,
      "Ġdifferent": 1384,
      "Ġshelf": 1385,
      "Ġsincerely": 1386,
      "Ġbelong": 1387,
      "Anna": 1388,
      "Ġsuggests": 1389,
      "Ask": 1390,
      "cas": 1391,
      "Ġbir": 1392,
      "Ġmean": 1393,
      "Ġeveryone": 1394,
      "Ġreply": 1395,
      "Ġlocals": 1396,
      "Ġrealize": 1397,
      "ulia": 1398,
      "Ġcomplicated": 1399,
      "ience": 1400,
      "Ġsent": 1401,
      "Ġyard": 1402,
      "Ġeveryday": 1403,
      "ĠEar": 1404,
      "Ġdirection": 1405,
      "Bella": 1406,
      "Leo": 1407,
      "Ġmilk": 1408,
      "Ġinc": 1409,
      "right": 1410,
      "ĠFr": 1411,
      "Ġcomp": 1412,
      "Ġlove": 1413,
      "..": 1414,
      "ol": 1415,
      "Ġwalk": 1416,
      "Ġhalf": 1417,
      "ĠWell": 1418,
      "ĠEng": 1419,
      "Ġgoes": 1420,
      "ĠEarth": 1421,
      "Felix": 1422,
      "oy": 1423,
      "sc": 1424,
      "ĠTake": 1425,
      "essa": 1426,
      "ĠEnglish": 1427,
      "Owen": 1428,
      "Ġ'": 1429,
      "Ġnice": 1430,
      "Ġhist": 1431,
      "hered": 1432,
      "Ġadd": 1433,
      "Ġserious": 1434,
      "Clara": 1435,
      "Hugo": 1436,
      "Maya": 1437,
      "ef": 1438,
      "Ġland": 1439,
      "ĠSomet": 1440,
      "Ġused": 1441,
      "hris": 1442,
      "rot": 1443,
      "ines": 1444,
      "Ġwent": 1445,
      "Ġmaybe": 1446,
      "Ġsea": 1447,
      "Ġseed": 1448,
      "Ġspoon": 1449,
      "ĠNothing": 1450,
      "Luis": 1451,
      "Ġdepends": 1452,
      "Ġconfuse": 1453,
      "Ġhistory": 1454,
      "Ella": 1455,
      "ian": 1456,
      "where": 1457,
      "Ġima": 1458,
      "ices": 1459,
      "ions": 1460,
      "Ġval": 1461,
      "bot": 1462,
      "Ġdropped": 1463,
      "Ġinside": 1464,
      "Ġbelonged": 1465,
      "ĠSometimes": 1466,
      "Ravi": 1467,
      "Ġpap": 1468,
      "Ġeven": 1469,
      "ĠCould": 1470,
      "aste": 1471,
      "Ġtrain": 1472,
      "Ġteaches": 1473,
      "Ġunbot": 1474,
      "Ġclean": 1475,
      "scar": 1476,
      "Ġunbothered": 1477,
      "Nadiya": 1478,
      "hind": 1479,
      "up": 1480,
      "erday": 1481,
      "rets": 1482,
      "Ġmet": 1483,
      "ense": 1484,
      "Ġyest": 1485,
      "ane": 1486,
      "Ġlarge": 1487,
      "Ġyesterday": 1488,
      "Jonah": 1489,
      "dire": 1490,
      "va": 1491,
      "Ġed": 1492,
      "ats": 1493,
      "ank": 1494,
      "Ġbehind": 1495,
      "Ġhope": 1496,
      "alls": 1497,
      "laid": 1498,
      "Ġcareful": 1499,
      "Ġmisdire": 1500,
      "Ġmislaid": 1501,
      "Ġsecrets": 1502,
      "Ġcaught": 1503,
      "Ġsmelled": 1504,
      "Ġmisdirected": 1505,
      "Ġflow": 1506,
      "ĠMost": 1507,
      "Ġhappens": 1508,
      "Maria": 1509,
      "ĠEveryone": 1510,
      "Farah": 1511,
      "Mia": 1512,
      "haps": 1513,
      "Ġmix": 1514,
      "Ġlamp": 1515,
      "ĠAround": 1516,
      "ĠNow": 1517,
      "inks": 1518,
      "Ġgreen": 1519,
      "Ġvisited": 1520,
      "Ġkept": 1521,
      "bs": 1522,
      "ting": 1523,
      "Ġwon": 1524,
      "ĠWh": 1525,
      "Ġshop": 1526,
      "Ġquite": 1527,
      "avier": 1528,
      "ĠPerhaps": 1529,
      "Ġvalue": 1530,
      "Xavier": 1531,
      "Yara": 1532,
      "Ġtop": 1533,
      "Ġever": 1534,
      "Oscar": 1535,
      "most": 1536,
      "Ġtake": 1537,
      "Ġwise": 1538,
      "Ġboth": 1539,
      "Ġcook": 1540,
      "idge": 1541,
      "illage": 1542,
      "aker": 1543,
      "Ġgray": 1544,
      "ĠDo": 1545,
      "Ġeggs": 1546,
      "Ġimagine": 1547,
      "David": 1548,
      "Henry": 1549,
      "ric": 1550,
      "Emma": 1551,
      "George": 1552,
      "Ruby": 1553,
      "Tom": 1554,
      "cer": 1555,
      "dle": 1556,
      "ond": 1557,
      "Ġfast": 1558,
      "ĠAh": 1559,
      "eed": 1560,
      "ins": 1561,
      "Ġbody": 1562,
      "Ġlikely": 1563,
      "Lily": 1564,
      "Nora": 1565,
      "Ġtalk": 1566,
      "Ġap": 1567,
      "Ġbag": 1568,
      "Ġfield": 1569,
      "Ġmust": 1570,
      "Ġless": 1571,
      "ets": 1572,
      "Ġeight": 1573,
      "Ġwonder": 1574,
      "ses": 1575,
      "Ġ1": 1576,
      "anc": 1577,
      "Ġstand": 1578,
      "Ġhill": 1579,
      "Ġlibr": 1580,
      "Ġalmost": 1581,
      "Ġvillage": 1582,
      "ushed": 1583,
      "Ġdriver": 1584,
      "Lucas": 1585,
      "Peter": 1586,
      "Zane": 1587,
      "get": 1588,
      "Ġdry": 1589,
      "enty": 1590,
      "fect": 1591,
      "Ġblue": 1592,
      "Ġhelp": 1593,
      "Ġopen": 1594,
      "Not": 1595,
      "Ġtin": 1596,
      "Ġemp": 1597,
      "ĠThen": 1598,
      "Ġdis": 1599,
      "esday": 1600,
      "Ġstopped": 1601,
      "Ġplant": 1602,
      "ĠDan": 1603,
      "Ġarg": 1604,
      "Ġcont": 1605,
      "Ġforget": 1606,
      "Liam": 1607,
      "Ġclo": 1608,
      "Ġgrass": 1609,
      "Ġhonest": 1610,
      "Chris": 1611,
      "Max": 1612,
      "Ġsix": 1613,
      "Ġfri": 1614,
      "lly": 1615,
      "Ġinst": 1616,
      "opping": 1617,
      "Ġready": 1618,
      "Ben": 1619,
      "ey": 1620,
      "oose": 1621,
      "ĠMar": 1622,
      "Ġbridge": 1623,
      "apor": 1624,
      "Ġsugar": 1625,
      "Ġearly": 1626,
      "Tessa": 1627,
      "Ġbu": 1628,
      "Ġbig": 1629,
      "Ġmag": 1630,
      "Ġcount": 1631,
      "Ġbutter": 1632,
      "Ġorder": 1633,
      "Ġlost": 1634,
      "Ġsky": 1635,
      "Ġbirds": 1636,
      "Ġsle": 1637,
      "Ġstorm": 1638,
      "Ġsoil": 1639,
      "Ġpract": 1640,
      "fully": 1641,
      "efan": 1642,
      "Ivy": 1643,
      "Ġwood": 1644,
      "Ġide": 1645,
      "Ġclock": 1646,
      "Ġpain": 1647,
      "Ġstation": 1648,
      "Ġhot": 1649,
      "Ġrice": 1650,
      "Ġdog": 1651,
      "Ġenough": 1652,
      "Ġtiny": 1653,
      "asure": 1654,
      "icy": 1655,
      "Ġthir": 1656,
      "Ġseems": 1657,
      "Ġgrew": 1658,
      "ĠReading": 1659,
      "ever": 1660,
      "ĠU": 1661,
      "Ġhat": 1662,
      "Ġpar": 1663,
      "Ġpool": 1664,
      "Ġele": 1665,
      "Ġwatched": 1666,
      "Ġtruck": 1667,
      "Ġtaste": 1668,
      "Ġmon": 1669,
      "Ġcool": 1670,
      "log": 1671,
      "Ġempty": 1672,
      "In": 1673,
      "James": 1674,
      "You": 1675,
      "Ġwant": 1676,
      "Ġfish": 1677,
      "Ġpe": 1678,
      "Ġpers": 1679,
      "ash": 1680,
      "Ġgreet": 1681,
      "eps": 1682,
      "Ġyourself": 1683,
      "unt": 1684,
      "Ġreason": 1685,
      "Ġswim": 1686,
      "Ġuseful": 1687,
      "Julia": 1688,
      "ule": 1689,
      "Ġtable": 1690,
      "Ġsand": 1691,
      "Ġel": 1692,
      "Ġrun": 1693,
      "Ġrhy": 1694,
      "Ġanother": 1695,
      "thm": 1696,
      "Ġstays": 1697,
      "Ġaddress": 1698,
      "Ġrhythm": 1699,
      "olog": 1700,
      "sed": 1701,
      "Ġ2": 1702,
      "inter": 1703,
      "Ġbot": 1704,
      "Ġbaker": 1705,
      "Ġword": 1706,
      "Ġlonger": 1707,
      "Ġchain": 1708,
      "ĠWho": 1709,
      "Ava": 1710,
      "inger": 1711,
      "Ġpick": 1712,
      "ask": 1713,
      "Ġhi": 1714,
      "Ġworked": 1715,
      "Ġmetal": 1716,
      "Ġmonth": 1717,
      "ger": 1718,
      "ĠK": 1719,
      "Ġbright": 1720,
      "Ġfound": 1721,
      "Ġfres": 1722,
      "Ġmaking": 1723,
      "Ġres": 1724,
      "Ġkit": 1725,
      "Ġmost": 1726,
      "Ġmeasure": 1727,
      "Ġyours": 1728,
      "Ġprob": 1729,
      "avy": 1730,
      "Ġaround": 1731,
      "Ġamount": 1732,
      "Ġcarried": 1733,
      "Ġcommun": 1734,
      "Ġfresh": 1735,
      "ale": 1736,
      "Ġsell": 1737,
      "Ġsched": 1738,
      "Ġnow": 1739,
      "Ġev": 1740,
      "Ġhis": 1741,
      "Ġhead": 1742,
      "ĠBut": 1743,
      "ĠFor": 1744,
      "Ġfarm": 1745,
      "Ġreasons": 1746,
      "Ġapples": 1747,
      "Ġedges": 1748,
      "Ġperson": 1749,
      "Ġelse": 1750,
      "ment": 1751,
      "Ġtri": 1752,
      "ese": 1753,
      "Ġsold": 1754,
      "ormal": 1755,
      "come": 1756,
      "Ġletter": 1757,
      "Ġindeed": 1758,
      "Ġmeaning": 1759,
      "Ġfriends": 1760,
      "man": 1761,
      "ual": 1762,
      "Ġfore": 1763,
      "uring": 1764,
      "Ġheavy": 1765,
      "Ġprices": 1766,
      "Ġhonestly": 1767,
      "Ġeasier": 1768,
      "Steps": 1769,
      "Ġbooks": 1770,
      "Ġlibrary": 1771,
      "Ġargue": 1772,
      "Ġbicy": 1773,
      "Ġfree": 1774,
      "Ġdist": 1775,
      "Ġstret": 1776,
      "Ġwithout": 1777,
      "Ġquiz": 1778,
      "Ġcho": 1779,
      "ĠAsking": 1780,
      "Ġlesson": 1781,
      "Ġcommunity": 1782,
      "chen": 1783,
      "ming": 1784,
      "zz": 1785,
      "Ġmus": 1786,
      "ĠIs": 1787,
      "Ġgi": 1788,
      "Ġhund": 1789,
      "Ġris": 1790,
      "Ġseal": 1791,
      "oppers": 1792,
      "Ġherbs": 1793,
      "Ġkitchen": 1794,
      "Ġbicycle": 1795,
      "ncle": 1796,
      "Ġwet": 1797,
      "Ġmountain": 1798,
      "Ġstopping": 1799,
      "Ġthose": 1800,
      "Ġrout": 1801,
      "ctor": 1802,
      "Ġlooked": 1803,
      "Ġdrink": 1804,
      "venience": 1805,
      "Ġsideways": 1806,
      "Ġcrushed": 1807,
      "Ġcheese": 1808,
      "Ġapolog": 1809,
      "ible": 1810,
      "atoes": 1811,
      "lem": 1812,
      "Ġmem": 1813,
      "ĠMe": 1814,
      "ared": 1815,
      "Ġfox": 1816,
      "vious": 1817,
      "ĠStalls": 1818,
      "ĠShoppers": 1819,
      "Ġswimming": 1820,
      "Ġseller": 1821,
      "Ġhundred": 1822,
      "Ġginger": 1823,
      "Ġhur": 1824,
      "ellow": 1825,
      "Ġquick": 1826,
      "bles": 1827,
      "acked": 1828,
      "Ġflowers": 1829,
      "Ġgoose": 1830,
      "Ġbecome": 1831,
      "ides": 1832,
      "Ġexp": 1833,
      "ustom": 1834,
      "Ġolder": 1835,
      "ations": 1836,
      "Ġdeli": 1837,
      "Ġgreat": 1838,
      "Ġpaper": 1839,
      "Ġidea": 1840,
      "Ġproblem": 1841,
      "master": 1842,
      "yard": 1843,
      "Ġdue": 1844,
      "Ġyellow": 1845,
      "Ġitself": 1846,
      "Ġnum": 1847,
      "Ġstra": 1848,
      "ĠTu": 1849,
      "unch": 1850,
      "Ġconst": 1851,
      "Ġwalls": 1852,
      "ciate": 1853,
      "Ġhands": 1854,
      "Ġclear": 1855,
      "Ġtalking": 1856,
      "Ġchoir": 1857,
      "boy": 1858,
      "cher": 1859,
      "tom": 1860,
      "Ġbre": 1861,
      "Ġfall": 1862,
      "Ġduring": 1863,
      "Ġtold": 1864,
      "Ġusual": 1865,
      "Ġbox": 1866,
      "Stefan": 1867,
      "Ġformal": 1868,
      "Ġobvious": 1869,
      "Ġappreciate": 1870,
      "Ġdelivery": 1871,
      "ĠTuesday": 1872,
      "Ġoften": 1873,
      "urs": 1874,
      "ctually": 1875,
      "ĠNe": 1876,
      "isted": 1877,
      "Ġshar": 1878,
      "ĠThanks": 1879,
      "ĠThis": 1880,
      "Ġfinish": 1881,
      "Ġsentence": 1882,
      "side": 1883,
      "Ġsum": 1884,
      "oun": 1885,
      "orry": 1886,
      "Ġlunch": 1887,
      "Ġisn": 1888,
      "Ġstore": 1889,
      "ainly": 1890,
      "Ġbutcher": 1891,
      "Ġroad": 1892,
      "Ġrock": 1893,
      "Ġchurchyard": 1894,
      "Ġparrot": 1895,
      "ustomer": 1896,
      "Ġchoirboy": 1897,
      "Ġchoirboys": 1898,
      "uit": 1899,
      "Ġwinter": 1900,
      "Ġsoup": 1901,
      "Ġsense": 1902,
      "Ġsorry": 1903,
      "onday": 1904,
      "Ġbub": 1905,
      "Ġcert": 1906,
      "Ġcup": 1907,
      "Ġgent": 1908,
      "ĠMonday": 1909,
      "pped": 1910,
      "Ġago": 1911,
      "Ġdesk": 1912,
      "Ġskin": 1913,
      "dd": 1914,
      "ouse": 1915,
      "Ġfountain": 1916,
      "sten": 1917,
      "Ġper": 1918,
      "Ġown": 1919,
      "Ġlakes": 1920,
      "ote": 1921,
      "Ġgra": 1922,
      "Ġrece": 1923,
      "ĠNature": 1924,
      "Ġtrick": 1925,
      "Ġsharp": 1926,
      "Ġbubbles": 1927,
      "Rose": 1928,
      "noon": 1929,
      "Ġlow": 1930,
      "ates": 1931,
      "Ġdoctor": 1932,
      "Ġpro": 1933,
      "Ġkeeper": 1934,
      "Ġsalad": 1935,
      "Ġthanks": 1936,
      "Ġroutine": 1937,
      "ike": 1938,
      "ken": 1939,
      "Ġfew": 1940,
      "Ġple": 1941,
      "ang": 1942,
      "ettle": 1943,
      "iter": 1944,
      "Ġstacked": 1945,
      "ĠTr": 1946,
      "Ġhair": 1947,
      "Ġkettle": 1948,
      "ĠCh": 1949,
      "Ġanyway": 1950,
      "ĠRosa": 1951,
      "Ġbro": 1952,
      "Ġfog": 1953,
      "Ġhappened": 1954,
      "Ġinsisted": 1955,
      "Ġsince": 1956,
      "Ġmeeting": 1957,
      "Ġconstable": 1958,
      "Here": 1959,
      "Ġtre": 1960,
      "Ġfaster": 1961,
      "store": 1962,
      "Ġpatter": 1963,
      "Ġones": 1964,
      "ĠMorning": 1965,
      "Ġprop": 1966,
      "Ġprice": 1967,
      "Ġafternoon": 1968,
      "Ġsteps": 1969,
      "Ġagainst": 1970,
      "Ġbookstore": 1971,
      "ĠPerfect": 1972,
      "ĠShould": 1973,
      "Ġchange": 1974,
      "Ġcolor": 1975,
      "Ġwonderful": 1976,
      "Ġelect": 1977,
      "Ġschedule": 1978,
      "Ġpattern": 1979,
      "Ġtree": 1980,
      "Ġwhe": 1981,
      "Ġborrow": 1982,
      "Ġpark": 1983,
      "iday": 1984,
      "ĠAfter": 1985,
      "ĠYes": 1986,
      "ĠEx": 1987,
      "Ġseen": 1988,
      "ĠDe": 1989,
      "Ġgets": 1990,
      "Ġtrail": 1991,
      "ects": 1992,
      "Ġpath": 1993,
      "Ġthird": 1994,
      "Ġdistance": 1995,
      "ĠTuesdays": 1996,
      "On": 1997,
      "ces": 1998,
      "mons": 1999,
      "Ġtry": 2000,
      "Ġtick": 2001,
      "Ġsu": 2002,
      "ical": 2003,
      "Ġstr": 2004,
      "Ġhop": 2005,
      "Ġround": 2006,
      "ards": 2007,
      "ĠYour": 2008,
      "ĠDon": 2009,
      "Ġpock": 2010,
      "ĠFirst": 2011,
      "Ġsomeone": 2012,
      "Ġfeels": 2013,
      "Ġgrows": 2014,
      "Ġlovely": 2015,
      "Ġhoping": 2016,
      "Uncle": 2017,
      "ccer": 2018,
      "hill": 2019,
      "inally": 2020,
      "Ġice": 2021,
      "Ġfac": 2022,
      "Ġfav": 2023,
      "Ġfive": 2024,
      "Ġmid": 2025,
      "Ġcut": 2026,
      "Ġcustomer": 2027,
      "Ġgas": 2028,
      "seum": 2029,
      "Ġsoccer": 2030,
      "ĠEach": 2031,
      "ĠLove": 2032,
      "Ġtool": 2033,
      "Ġmuseum": 2034,
      "Ġengine": 2035,
      "Ġwaiting": 2036,
      "ĠThurs": 2037,
      "Ġcertainly": 2038,
      "Ġbroken": 2039,
      "ĠLovely": 2040,
      "ĠThursday": 2041,
      "Ġcand": 2042,
      "Ġpress": 2043,
      "Ġforty": 2044,
      "key": 2045,
      "Ġwatch": 2046,
      "ĠFinally": 2047,
      "Ġdonkey": 2048,
      "Ġglass": 2049,
      "ĠFriday": 2050,
      "Ġfavor": 2051,
      "Qu": 2052,
      "ead": 2053,
      "Ġbar": 2054,
      "Ġmention": 2055,
      "Ġda": 2056,
      "Ġthick": 2057,
      "ĠSure": 2058,
      "Ġmoor": 2059,
      "Ġfruit": 2060,
      "ĠDid": 2061,
      "Ġwrote": 2062,
      "ĠGive": 2063,
      "Ġsaw": 2064,
      "Ġstayed": 2065,
      "Ġcauses": 2066,
      "Ġincl": 2067,
      "Ġcompany": 2068,
      "...": 2069,
      "Ġbottom": 2070,
      "ĠNext": 2071,
      "ĠTrue": 2072,
      "Ġelectric": 2073,
      "den": 2074,
      "land": 2075,
      "Ġtried": 2076,
      "Ġwra": 2077,
      "Ġbow": 2078,
      "Ġeff": 2079,
      "ĠTell": 2080,
      "ops": 2081,
      "Ġliving": 2082,
      "Ġshr": 2083,
      "Ġwhenever": 2084,
      "nderst": 2085,
      "Ġhardest": 2086,
      "Ġclosed": 2087,
      "Ġnumber": 2088,
      "ĠExactly": 2089,
      "uh": 2090,
      "ĠQu": 2091,
      "Ġoil": 2092,
      "vest": 2093,
      "Ġliqu": 2094,
      "ĠSay": 2095,
      "ĠSpe": 2096,
      "ĠHuh": 2097,
      "Ġsays": 2098,
      "Ġrepair": 2099,
      "Ġsecond": 2100,
      "Ġbegan": 2101,
      "Ġspend": 2102,
      "Ġborrowed": 2103,
      "Ġinclud": 2104,
      "Ġwrapped": 2105,
      "Ġbowl": 2106,
      "Ġliquid": 2107,
      "uce": 2108,
      "Ġfed": 2109,
      "Ġmed": 2110,
      "Ġmot": 2111,
      "Ġthin": 2112,
      "Ġnote": 2113,
      "Ġmove": 2114,
      "isten": 2115,
      "Ġground": 2116,
      "Ġbroke": 2117,
      "Ġarrive": 2118,
      "Ġdownhill": 2119,
      "Ġfinding": 2120,
      "ĠAnything": 2121,
      "Ġvisit": 2122,
      "Ġcovered": 2123,
      "Ġglad": 2124,
      "ĠFrom": 2125,
      "Ġcontact": 2126,
      "Ġpractice": 2127,
      "Ġstretched": 2128,
      "Ġplease": 2129,
      "ĠDeal": 2130,
      "Ġwoke": 2131,
      "ouble": 2132,
      "Ġcur": 2133,
      "Ġpus": 2134,
      "ayer": 2135,
      "Ġrec": 2136,
      "Ġexist": 2137,
      "Ġplain": 2138,
      "Ġanywhere": 2139,
      "ntice": 2140,
      "Ġsmo": 2141,
      "ĠListen": 2142,
      "Ġtemp": 2143,
      "Ġboard": 2144,
      "Ġevening": 2145,
      "Ġsleep": 2146,
      "Ġhurry": 2147,
      "Ġincluding": 2148,
      "ife": 2149,
      "pie": 2150,
      "ume": 2151,
      "Ġmain": 2152,
      "ater": 2153,
      "ics": 2154,
      "Ġroof": 2155,
      "ĠAdd": 2156,
      "aded": 2157,
      "Ġworse": 2158,
      "ĠHone": 2159,
      "Ġheart": 2160,
      "ĠGet": 2161,
      "Ġquieter": 2162,
      "Ġturns": 2163,
      "Ġcalled": 2164,
      "ĠAnyway": 2165,
      "ĠStreet": 2166,
      "Ġinvite": 2167,
      "Ġriverb": 2168,
      "Ġapprentice": 2169,
      "ancy": 2170,
      "Ġopening": 2171,
      "Ġmiddle": 2172,
      "em": 2173,
      "ĠVer": 2174,
      "ren": 2175,
      "Ġfe": 2176,
      "Ġcine": 2177,
      "ars": 2178,
      "Ġlame": 2179,
      "ĠSe": 2180,
      "ĠActually": 2181,
      "ĠMine": 2182,
      "ĠHa": 2183,
      "ĠHi": 2184,
      "Ġtrouble": 2185,
      "Ġtwice": 2186,
      "Ġstarting": 2187,
      "Ġfollowing": 2188,
      "Ġcolors": 2189,
      "Ġincon": 2190,
      "eyed": 2191,
      "Ġmagpie": 2192,
      "ĠUnderst": 2193,
      "Ġlakeside": 2194,
      "Ġwheel": 2195,
      "Ġsmooth": 2196,
      "ĠHonestly": 2197,
      "Ġriverbank": 2198,
      "Ġcinema": 2199,
      "gy": 2200,
      "lm": 2201,
      "ron": 2202,
      "ted": 2203,
      "Ġfancy": 2204,
      "Ġpull": 2205,
      "Ġyet": 2206,
      "Ġinse": 2207,
      "Ġworry": 2208,
      "ello": 2209,
      "ĠHope": 2210,
      "ĠHello": 2211,
      "pper": 2212,
      "Ġlooks": 2213,
      "Ġgoat": 2214,
      "ppens": 2215,
      "Ġspin": 2216,
      "Ġexplained": 2217,
      "Ġacc": 2218,
      "Ġcrust": 2219,
      "ĠSpeaking": 2220,
      "Ġvisitors": 2221,
      "ĠHappens": 2222,
      "ĠUnderstood": 2223,
      "Ġinsect": 2224,
      "'re": 2225,
      "ding": 2226,
      "erature": 2227,
      "Ġbask": 2228,
      "Ġtoward": 2229,
      "Ġplenty": 2230,
      "Ġheading": 2231,
      "Ġplants": 2232,
      "rane": 2233,
      "Ġrestful": 2234,
      "Ġreturned": 2235,
      "Ġfindings": 2236,
      "ĠOnce": 2237,
      "Ġcooked": 2238,
      "Ġbakery": 2239,
      "Ġapologize": 2240,
      "Ġtrees": 2241,
      "ĠQuite": 2242,
      "ĠVery": 2243,
      "ĠHopefully": 2244,
      "mist": 2245,
      "Ġbor": 2246,
      "Ġbatter": 2247,
      "Ġcal": 2248,
      "Ġnort": 2249,
      "Ġgu": 2250,
      "Ġglow": 2251,
      "Ġonion": 2252,
      "Ġknife": 2253,
      "ĠElm": 2254,
      "ands": 2255,
      "ffic": 2256,
      "Ġarm": 2257,
      "Ġfoot": 2258,
      "cipe": 2259,
      "lerk": 2260,
      "Grand": 2261,
      "Ġfamily": 2262,
      "Ġrises": 2263,
      "Ġtemperature": 2264,
      "Ġinconvenience": 2265,
      "Let": 2266,
      "book": 2267,
      "mb": 2268,
      "not": 2269,
      "Ġtou": 2270,
      "Ġboun": 2271,
      "Ġdone": 2272,
      "Ġpier": 2273,
      "Ġloud": 2274,
      "Ġlinks": 2275,
      "Ġrare": 2276,
      "Ġplay": 2277,
      "aught": 2278,
      "ĠNormal": 2279,
      "Ġvapor": 2280,
      "Ġenter": 2281,
      "Ġopin": 2282,
      "Ġobj": 2283,
      "Notice": 2284,
      "Nothing": 2285,
      "Ġresume": 2286,
      "Ġve": 2287,
      "Ġtid": 2288,
      "Ġfill": 2289,
      "Ġpre": 2290,
      "ath": 2291,
      "Ġname": 2292,
      "Ġbeing": 2293,
      "ider": 2294,
      "Ġanim": 2295,
      "Ġwel": 2296,
      "Ġcannot": 2297,
      "Ġstreets": 2298,
      "Ġmemory": 2299,
      "Ġsummer": 2300,
      "People": 2301,
      "Ġwed": 2302,
      "Ġfre": 2303,
      "Ġfaded": 2304,
      "Ġpay": 2305,
      "ened": 2306,
      "Ġla": 2307,
      "ange": 2308,
      "Ġexam": 2309,
      "Ġcoll": 2310,
      "umps": 2311,
      "Ġvi": 2312,
      "Ġblack": 2313,
      "Ġboy": 2314,
      "Ġpoints": 2315,
      "Ġchar": 2316,
      "Ġdecor": 2317,
      "coming": 2318,
      "Ġwooden": 2319,
      "Ġmeasures": 2320,
      "Ġtidy": 2321,
      "Ġwedding": 2322,
      "How": 2323,
      "led": 2324,
      "ness": 2325,
      "Ġmess": 2326,
      "Ġline": 2327,
      "Ġbeach": 2328,
      "oman": 2329,
      "Ġalone": 2330,
      "ĠGra": 2331,
      "Ġcarrot": 2332,
      "Ġshape": 2333,
      "Ġsurpr": 2334,
      "Ġflood": 2335,
      "getable": 2336,
      "Ġnotebook": 2337,
      "Ġvegetable": 2338,
      "Ġcarrots": 2339,
      "Mom": 2340,
      "moon": 2341,
      "net": 2342,
      "ware": 2343,
      "Ġbree": 2344,
      "Ġcell": 2345,
      "Ġcoup": 2346,
      "Ġclerk": 2347,
      "Ġtoget": 2348,
      "esc": 2349,
      "Ġhaving": 2350,
      "Ġrem": 2351,
      "Ġlisten": 2352,
      "hern": 2353,
      "ilt": 2354,
      "ĠHe": 2355,
      "Ġjar": 2356,
      "ĠPau": 2357,
      "Ġoutside": 2358,
      "Ġorange": 2359,
      "Ġspins": 2360,
      "Ġener": 2361,
      "Ġsunlight": 2362,
      "Ġboat": 2363,
      "Ġweeks": 2364,
      "Ġdriving": 2365,
      "Ġhardware": 2366,
      "ign": 2367,
      "Ġflour": 2368,
      "Ġstrange": 2369,
      "Ġpostc": 2370,
      "Ġhoneymoon": 2371,
      "Ġpainting": 2372,
      "Ġstationmaster": 2373,
      "Ġdecorated": 2374,
      "Ġbreeze": 2375,
      "Ġcouple": 2376,
      "Ġtogether": 2377,
      ",\"": 2378,
      "ient": 2379,
      "ym": 2380,
      "Ġesc": 2381,
      "Ġsl": 2382,
      "Ġcent": 2383,
      "Ġpic": 2384,
      "Ġpud": 2385,
      "Ġgate": 2386,
      "Ġgym": 2387,
      "ished": 2388,
      "Ġthous": 2389,
      "ented": 2390,
      "Ġeverywhere": 2391,
      "Ġprot": 2392,
      "Ġtwenty": 2393,
      "Ġblank": 2394,
      "Ġdoesn": 2395,
      "Ġflu": 2396,
      "ular": 2397,
      "Ġevapor": 2398,
      "Ġwelcoming": 2399,
      "Ġsurpris": 2400,
      "Ġpostcards": 2401,
      "Ġpicn": 2402,
      "bit": 2403,
      "kers": 2404,
      "ny": 2405,
      "vity": 2406,
      "Ġdin": 2407,
      "Ġpip": 2408,
      "Ġlos": 2409,
      "Ġyear": 2410,
      "Ġthor": 2411,
      "ĠHere": 2412,
      "ĠCo": 2413,
      "Ġwarmth": 2414,
      "Ġtraffic": 2415,
      "Ġblood": 2416,
      "ages": 2417,
      "Ġserve": 2418,
      "Ġschoolmist": 2419,
      "Ġnights": 2420,
      "Ġpatience": 2421,
      "ildren": 2422,
      "Ġended": 2423,
      "Ġpeas": 2424,
      "Ġpocket": 2425,
      "Ġtools": 2426,
      "Ġexisting": 2427,
      "Ġspinning": 2428,
      "Ġenergy": 2429,
      "Ġprotect": 2430,
      "Ġpipes": 2431,
      "Ġschoolmistress": 2432,
      "ups": 2433,
      "ules": 2434,
      "wo": 2435,
      "Ġslice": 2436,
      "Ġlang": 2437,
      "Ġred": 2438,
      "Ġref": 2439,
      "Ġhouse": 2440,
      "Ġrug": 2441,
      "Ġcoast": 2442,
      "Ġfrog": 2443,
      "Ġvo": 2444,
      "Ġvan": 2445,
      "ĠJune": 2446,
      "Ġshade": 2447,
      "Ġpotatoes": 2448,
      "Ġrivers": 2449,
      "Ġbuild": 2450,
      "Ġtrip": 2451,
      "Ġpressure": 2452,
      "Ġlangu": 2453,
      "At": 2454,
      "cha": 2455,
      "Ġtaught": 2456,
      "ingly": 2457,
      "ato": 2458,
      "Ġext": 2459,
      "ump": 2460,
      "Ġdrought": 2461,
      "Ġlocal": 2462,
      "Ġegg": 2463,
      "Ġhigh": 2464,
      "Ġshrinks": 2465,
      "Ġpushes": 2466,
      "Ġaccount": 2467,
      "Ġbaskets": 2468,
      "Ġborder": 2469,
      "Ġloudly": 2470,
      "cum": 2471,
      "mon": 2472,
      "ments": 2473,
      "Ġball": 2474,
      "Ġmach": 2475,
      "Ġpen": 2476,
      "Ġge": 2477,
      "Ġreg": 2478,
      "ĠHenry": 2479,
      "elay": 2480,
      "ĠLu": 2481,
      "Ġleather": 2482,
      "Ġwindows": 2483,
      "Ġreport": 2484,
      "Ġnews": 2485,
      "Ġkey": 2486,
      "Ġticks": 2487,
      "Ġwheels": 2488,
      "Ġrarely": 2489,
      "Ġthorough": 2490,
      "now": 2491,
      "set": 2492,
      "under": 2493,
      "Ġaut": 2494,
      "Ġsy": 2495,
      "Ġcause": 2496,
      "Ġdelay": 2497,
      "Ġstir": 2498,
      "Ġrope": 2499,
      "allow": 2500,
      "ĠSimon": 2501,
      "Ġmoves": 2502,
      "ĠNina": 2503,
      "Ġabove": 2504,
      "ĠElias": 2505,
      "Ġdried": 2506,
      "cient": 2507,
      "ĠThin": 2508,
      "Ġswallow": 2509,
      "Ġinvol": 2510,
      "Ġinvented": 2511,
      "Ġcloud": 2512,
      "Ġcheck": 2513,
      "Ġcounted": 2514,
      "Ġgravity": 2515,
      "Ġeffects": 2516,
      "Ġcalm": 2517,
      "Ġpuddle": 2518,
      "Ġdinner": 2519,
      "Ġvoice": 2520,
      "Ġinvolving": 2521,
      "rm": 2522,
      "ro": 2523,
      "ring": 2524,
      "Ġtakes": 2525,
      "Ġsess": 2526,
      "Ġbes": 2527,
      "Ġfer": 2528,
      "Ġdate": 2529,
      "Ġpin": 2530,
      "Ġpan": 2531,
      "Ġpres": 2532,
      "ator": 2533,
      "ases": 2534,
      "ĠTwo": 2535,
      "Ġbecom": 2536,
      "Ġbeats": 2537,
      "Ġrele": 2538,
      "Ġhid": 2539,
      "ution": 2540,
      "Ġplum": 2541,
      "ĠMona": 2542,
      "Ġgro": 2543,
      "umn": 2544,
      "Ġsheep": 2545,
      "Ġtomato": 2546,
      "Ġclim": 2547,
      "Ġforms": 2548,
      "ĠMarco": 2549,
      "Ġbuilt": 2550,
      "Ġgives": 2551,
      "Ġdaily": 2552,
      "Ġanimals": 2553,
      "Ġsurprisingly": 2554,
      "Ġbecomes": 2555,
      "Aunt": 2556,
      "cles": 2557,
      "fric": 2558,
      "pa": 2559,
      "ĠV": 2560,
      "orth": 2561,
      "Ġgame": 2562,
      "Ġgather": 2563,
      "Ġbell": 2564,
      "Ġhim": 2565,
      "Ġhig": 2566,
      "ĠAfric": 2567,
      "outh": 2568,
      "Ġbrain": 2569,
      "Ġwrite": 2570,
      "ĠJulia": 2571,
      "ossible": 2572,
      "Ġscr": 2573,
      "Ġearli": 2574,
      "Ġpapers": 2575,
      "Ġrocks": 2576,
      "Ġrecei": 2577,
      "Ġmessy": 2578,
      "Ġcells": 2579,
      "Ġextra": 2580,
      "Ġferry": 2581,
      "Ġgrocer": 2582,
      "Th": 2583,
      "Ġbur": 2584,
      "ica": 2585,
      "Ġhabit": 2586,
      "ached": 2587,
      "Ġplast": 2588,
      "Ġfrost": 2589,
      "place": 2590,
      "action": 2591,
      "Ġgold": 2592,
      "Ġfold": 2593,
      "Ġmisty": 2594,
      "Ġattend": 2595,
      "Ġdesert": 2596,
      "Ġfalling": 2597,
      "Ġfacing": 2598,
      "Ġbeside": 2599,
      "Ġplastic": 2600,
      "Re": 2601,
      "woman": 2602,
      "rect": 2603,
      "ont": 2604,
      "nds": 2605,
      "ased": 2606,
      "Ġinter": 2607,
      "Ġsteep": 2608,
      "Ġants": 2609,
      "Ġworn": 2610,
      "ries": 2611,
      "ĠCut": 2612,
      "Ġsmug": 2613,
      "ĠRose": 2614,
      "ĠRuth": 2615,
      "Ġarran": 2616,
      "Ġchildren": 2617,
      "Ġchance": 2618,
      "comme": 2619,
      "Ġseeds": 2620,
      "Ġslept": 2621,
      "Ġmonths": 2622,
      "Ġarmcha": 2623,
      "Ġentered": 2624,
      "Ġpinch": 2625,
      "ĠAfrica": 2626,
      "Ġarmchair": 2627,
      "Have": 2628,
      "after": 2629,
      "aff": 2630,
      "iz": 2631,
      "Ġwool": 2632,
      "Ġsil": 2633,
      "Ġsign": 2634,
      "erve": 2635,
      "Ġman": 2636,
      "Ġmap": 2637,
      "Ġdra": 2638,
      "Ġled": 2639,
      "Ġgone": 2640,
      "Ġonions": 2641,
      "Ġthunder": 2642,
      "Ġrecomme": 2643,
      "ioned": 2644,
      "Ġdocum": 2645,
      "pping": 2646,
      "Ġtrade": 2647,
      "ended": 2648,
      "Ġspace": 2649,
      "Ġsunny": 2650,
      "Ġboil": 2651,
      "Ġcolder": 2652,
      "Ġexplains": 2653,
      "Ġcarefully": 2654,
      "Ġphone": 2655,
      "Ġholds": 2656,
      "Ġhearth": 2657,
      "Ġfireplace": 2658,
      "Ġwalking": 2659,
      "Ġwalked": 2660,
      "Ġwondered": 2661,
      "Ġinstead": 2662,
      "Ġforewoman": 2663,
      "Ġmuscles": 2664,
      "Ġexpense": 2665,
      "Ġblackened": 2666,
      "Ġreleases": 2667,
      "Ġhidden": 2668,
      "Ġferryman": 2669,
      "==": 2670,
      "af": 2671,
      "east": 2672,
      "fa": 2673,
      "Ġtur": 2674,
      "Ġfact": 2675,
      "enses": 2676,
      "Ġlake": 2677,
      "Ġyeast": 2678,
      "Ġinvest": 2679,
      "oti": 2680,
      "itt": 2681,
      "itution": 2682,
      "vers": 2683,
      "aces": 2684,
      "Ġsofa": 2685,
      "oney": 2686,
      "ourn": 2687,
      "Ġfront": 2688,
      "Ġthereafter": 2689,
      "Ġwindy": 2690,
      "Ġdem": 2691,
      "Ġlegs": 2692,
      "Ġslower": 2693,
      "Ġtomatoes": 2694,
      "ography": 2695,
      "Start": 2696,
      "Ġcloth": 2697,
      "Ġdepth": 2698,
      "Ġfinished": 2699,
      "Ġbeginning": 2700,
      "Ġgently": 2701,
      "Ġmotor": 2702,
      "Ġnorthern": 2703,
      "mbre": 2704,
      "Ġopinions": 2705,
      "Ġvegetables": 2706,
      "Ġcloudy": 2707,
      "Ġarmchairs": 2708,
      "chan": 2709,
      "fash": 2710,
      "goti": 2711,
      "hi": 2712,
      "eros": 2713,
      "Ġbed": 2714,
      "Ġfi": 2715,
      "Ġflock": 2716,
      "Ġmoney": 2717,
      "Ġpast": 2718,
      "Ġlau": 2719,
      "ĠTom": 2720,
      "Ġbee": 2721,
      "Ġwash": 2722,
      "Ġumbre": 2723,
      "ĠWash": 2724,
      "Ġprayer": 2725,
      "ĠRo": 2726,
      "Ġwriter": 2727,
      "Ġlemons": 2728,
      "Ġnoise": 2729,
      "Ġboats": 2730,
      "aceful": 2731,
      "view": 2732,
      "Ġdrizz": 2733,
      "Ġservice": 2734,
      "Ġflask": 2735,
      "Ġinstitution": 2736,
      "Ġpeaceful": 2737,
      "Ġstrand": 2738,
      "Ġperfect": 2739,
      "Ġproper": 2740,
      "Ġroofs": 2741,
      "Ġaccounted": 2742,
      "Ġgeography": 2743,
      "This": 2744,
      "Ġarrange": 2745,
      "fashioned": 2746,
      "Ġdrizzly": 2747,
      "Keep": 2748,
      "ged": 2749,
      "lared": 2750,
      "ped": 2751,
      "Ġent": 2752,
      "Ġsen": 2753,
      "rent": 2754,
      "onds": 2755,
      "Ġbal": 2756,
      "Ġbike": 2757,
      "Ġfalls": 2758,
      "Ġpop": 2759,
      "Ġoce": 2760,
      "Ġnormal": 2761,
      "ots": 2762,
      "icc": 2763,
      "Ġhicc": 2764,
      "Ġring": 2765,
      "ĠAmer": 2766,
      "Ġnegoti": 2767,
      "imet": 2768,
      "Ġsol": 2769,
      "Ġship": 2770,
      "ĠMix": 2771,
      "unter": 2772,
      "ĠClara": 2773,
      "Ġgroup": 2774,
      "oduce": 2775,
      "Ġvase": 2776,
      "ĠOwen": 2777,
      "ĠDana": 2778,
      "Ġtwel": 2779,
      "Ġminuted": 2780,
      "Ġheats": 2781,
      "Ġserving": 2782,
      "Ġsermons": 2783,
      "Ġdeclared": 2784,
      "Ġcommitt": 2785,
      "Ġspeaking": 2786,
      "Ġmagnet": 2787,
      "Ġquickly": 2788,
      "Ġcandy": 2789,
      "Ġcurrent": 2790,
      "Ġboarded": 2791,
      "Ġlaw": 2792,
      "ĠGrace": 2793,
      "Ġflooded": 2794,
      "Ġfluid": 2795,
      "Ġpicnics": 2796,
      "Ġreceived": 2797,
      "Ġumbrella": 2798,
      "Ġnegotiations": 2799,
      "bar": 2800,
      "bike": 2801,
      "ior": 2802,
      "ne": 2803,
      "oin": 2804,
      "ock": 2805,
      "Ġwound": 2806,
      "Ġsep": 2807,
      "Ġsize": 2808,
      "Ġsides": 2809,
      "Ġmaster": 2810,
      "inge": 2811,
      "edom": 2812,
      "Ġlic": 2813,
      "Ġnut": 2814,
      "Ġnine": 2815,
      "Ġnorth": 2816,
      "Ġech": 2817,
      "Ġstud": 2818,
      "Ġbeat": 2819,
      "Ġreaches": 2820,
      "ute": 2821,
      "Ġupper": 2822,
      "ĠHugo": 2823,
      "Ġjourn": 2824,
      "ĠPeter": 2825,
      "ĠRuby": 2826,
      "rank": 2827,
      "Ġblunt": 2828,
      "Ġblunter": 2829,
      "aged": 2830,
      "Ġseconds": 2831,
      "Ġhumid": 2832,
      "Ġlarger": 2833,
      "Ġdecree": 2834,
      "Ġcats": 2835,
      "Ġpatient": 2836,
      "Ġfinally": 2837,
      "Ġpassed": 2838,
      "Ġpractical": 2839,
      "Ġhikers": 2840,
      "Ġsupp": 2841,
      "Ġmoorings": 2842,
      "Ġfreedom": 2843,
      "Ġdemand": 2844,
      "Ġmotorbike": 2845,
      "Ġstranded": 2846,
      "Ġpopular": 2847,
      "Ġocean": 2848,
      "Ġsepar": 2849,
      "Ġlicenses": 2850,
      "ape": 2851,
      "ected": 2852,
      "ling": 2853,
      "teen": 2854,
      "Ġtimes": 2855,
      "hest": 2856,
      "ories": 2857,
      "Ġcity": 2858,
      "Ġpumps": 2859,
      "Ġluck": 2860,
      "ĠIsla": 2861,
      "att": 2862,
      "athe": 2863,
      "atch": 2864,
      "Ġreview": 2865,
      "Ġwhite": 2866,
      "ĠItal": 2867,
      "Ġdoors": 2868,
      "ĠHana": 2869,
      "ĠEmma": 2870,
      "Ġju": 2871,
      "ush": 2872,
      "Ġpoem": 2873,
      "Ġtwos": 2874,
      "Ġchose": 2875,
      "Ġrooms": 2876,
      "ailor": 2877,
      "Ġdrops": 2878,
      "Ġapple": 2879,
      "Ġretire": 2880,
      "Ġscatter": 2881,
      "Ġfollowed": 2882,
      "Ġrunning": 2883,
      "ĠKeep": 2884,
      "iterrane": 2885,
      "Ġinsects": 2886,
      "Grandpa": 2887,
      "Ġregret": 2888,
      "Ġautumn": 2889,
      "Ġrecommends": 2890,
      "Ġinvestig": 2891,
      "Ġcommittee": 2892,
      "iterranean": 2893,
      "Making": 2894,
      "cond": 2895,
      "gen": 2896,
      "ium": 2897,
      "lt": 2898,
      "ĠUma": 2899,
      "Ġta": 2900,
      "Ġsort": 2901,
      "Ġscient": 2902,
      "Ġcry": 2903,
      "Ġdrank": 2904,
      "Ġnames": 2905,
      "Ġisland": 2906,
      "Ġhall": 2907,
      "irty": 2908,
      "ĠEthan": 2909,
      "ĠBen": 2910,
      "opper": 2911,
      "Ġrestore": 2912,
      "Ġsunset": 2913,
      "less": 2914,
      "cover": 2915,
      "Ġinspe": 2916,
      "Ġdamaged": 2917,
      "Ġholding": 2918,
      "Ġschoolmaster": 2919,
      "Ġspeci": 2920,
      "ĠMaria": 2921,
      "Ġkitchens": 2922,
      "Ġwinters": 2923,
      "Ġengineer": 2924,
      "Ġcandle": 2925,
      "Ġbarn": 2926,
      "Ġloses": 2927,
      "Ġprotective": 2928,
      "Ġlanguage": 2929,
      "Ġhighest": 2930,
      "Ġearliest": 2931,
      "Ġsteepest": 2932,
      "Ġbeginnings": 2933,
      "Ġperfectly": 2934,
      "Ġseparate": 2935,
      "Ġlucky": 2936,
      "attended": 2937,
      "ĠItalian": 2938,
      "Ġscientist": 2939,
      "bute": 2940,
      "nam": 2941,
      "so": 2942,
      "ĠZoe": 2943,
      "ĠVictor": 2944,
      "Ġtailor": 2945,
      "ord": 2946,
      "Ġban": 2947,
      "Ġface": 2948,
      "Ġcups": 2949,
      "Ġox": 2950,
      "Ġnone": 2951,
      "ition": 2952,
      "Ġstove": 2953,
      "ĠTara": 2954,
      "Ġhook": 2955,
      "uty": 2956,
      "ĠSam": 2957,
      "urope": 2958,
      "ĠThey": 2959,
      "ained": 2960,
      "Ġtired": 2961,
      "ĠElena": 2962,
      "ĠEurope": 2963,
      "atest": 2964,
      "ĠRavi": 2965,
      "Ġlights": 2966,
      "Ġconvenience": 2967,
      "ĠJake": 2968,
      "Ġappro": 2969,
      "Ġgreatest": 2970,
      "Ġshare": 2971,
      "Ġattached": 2972,
      "Ġsurf": 2973,
      "Ġreading": 2974,
      "Ġtravels": 2975,
      "Ġinvis": 2976,
      "Everything": 2977,
      "erties": 2978,
      "Ġcompass": 2979,
      "Ġstormy": 2980,
      "Ġsandw": 2981,
      "Ġtribute": 2982,
      "Ġstraight": 2983,
      "Ġreceive": 2984,
      "Ġstrong": 2985,
      "Ġrecent": 2986,
      "ĠSecond": 2987,
      "Ġtoured": 2988,
      "Ġcollie": 2989,
      "Ġburst": 2990,
      "Ġdocument": 2991,
      "Ġsenior": 2992,
      "Ġbalance": 2993,
      "Ġechoes": 2994,
      "Ġdemanded": 2995,
      "Ġscatters": 2996,
      "Ġinvestigate": 2997,
      "Do": 2998,
      "ab": 2999,
      "hone": 3000,
      "joy": 3001,
      "nesday": 3002,
      "wl": 3003,
      "wor": 3004,
      "ying": 3005,
      "ygen": 3006,
      "inci": 3007,
      "Ġim": 3008,
      "Ġiron": 3009,
      "orter": 3010,
      "Ġbad": 3011,
      "Ġcre": 3012,
      "Ġcris": 3013,
      "Ġcross": 3014,
      "arian": 3015,
      "ednesday": 3016,
      "Ġlad": 3017,
      "lep": 3018,
      "ĠTessa": 3019,
      "Ġant": 3020,
      "ĠWednesday": 3021,
      "ĠAs": 3022,
      "ĠAva": 3023,
      "Ġplaces": 3024,
      "Ġshoes": 3025,
      "ĠMaya": 3026,
      "Ġfringe": 3027,
      "ĠBased": 3028,
      "orted": 3029,
      "ĠDetail": 3030,
      "Ġtells": 3031,
      "Ġintr": 3032,
      "Ġpartic": 3033,
      "aper": 3034,
      "Ġdrop": 3035,
      "Ġscale": 3036,
      "Ġchair": 3037,
      "Ġbottle": 3038,
      "Ġmeasurements": 3039,
      "Ġgift": 3040,
      "Ġbreathe": 3041,
      "Ġgentle": 3042,
      "Ġproperties": 3043,
      "Ġfaces": 3044,
      "Ġbattery": 3045,
      "Ġexamines": 3046,
      "ĠPaul": 3047,
      "Recipe": 3048,
      "Ġinspection": 3049,
      "Ġsandwich": 3050,
      "Ġcrisp": 3051,
      "ĠDetails": 3052,
      "we": 3053,
      "Ġmom": 3054,
      "Ġcopper": 3055,
      "arter": 3056,
      "str": 3057,
      "Ġdough": 3058,
      "Ġduty": 3059,
      "Ġpow": 3060,
      "Ġpanc": 3061,
      "Ġtoad": 3062,
      "Ġoven": 3063,
      "Ġlee": 3064,
      "Ġlater": 3065,
      "ĠIbar": 3066,
      "atched": 3067,
      "Ġequ": 3068,
      "Ġrecipe": 3069,
      "Ġfork": 3070,
      "Ġdoing": 3071,
      "Ġshorter": 3072,
      "ĠCha": 3073,
      "Ġjoin": 3074,
      "ĠPour": 3075,
      "ĠOmar": 3076,
      "Ġuses": 3077,
      "ĠDavid": 3078,
      "Ġharvest": 3079,
      "ĠGeorge": 3080,
      "Ġcarp": 3081,
      "ĠSoft": 3082,
      "ĠSofia": 3083,
      "Ġlets": 3084,
      "Ġinspected": 3085,
      "ĠAnna": 3086,
      "Ġunable": 3087,
      "Ġhandle": 3088,
      "Ġapart": 3089,
      "Ġclose": 3090,
      "Ġforest": 3091,
      "Ġmusic": 3092,
      "Ġapology": 3093,
      "Ġexpands": 3094,
      "Ġbounces": 3095,
      "Ġviol": 3096,
      "Ġescorted": 3097,
      "Ġcentur": 3098,
      "hives": 3099,
      "Ġbeehives": 3100,
      "Ġentire": 3101,
      "Ġoxygen": 3102,
      "Ġinvisible": 3103,
      "lephone": 3104,
      "ĠIbarra": 3105,
      "Learn": 3106,
      "aut": 3107,
      "ject": 3108,
      "tuce": 3109,
      "ĠKate": 3110,
      "Ġtimet": 3111,
      "Ġsli": 3112,
      "Ġbound": 3113,
      "Ġfis": 3114,
      "Ġfur": 3115,
      "Ġcra": 3116,
      "eds": 3117,
      "Ġstead": 3118,
      "Ġrose": 3119,
      "sel": 3120,
      "cept": 3121,
      "tery": 3122,
      "Ġsoap": 3123,
      "Ġmoist": 3124,
      "rist": 3125,
      "ĠMy": 3126,
      "ĠHelen": 3127,
      "ĠCarl": 3128,
      "ĠPale": 3129,
      "ĠDaniel": 3130,
      "ĠLily": 3131,
      "Ġlemon": 3132,
      "ĠFelix": 3133,
      "ouses": 3134,
      "Ġtelephone": 3135,
      "Ġspring": 3136,
      "Ġfarmer": 3137,
      "ĠJonah": 3138,
      "Ġeng": 3139,
      "ags": 3140,
      "Ġpieces": 3141,
      "Ġshows": 3142,
      "Ġpottery": 3143,
      "Ġchanges": 3144,
      "Ġfields": 3145,
      "Ġdiscover": 3146,
      "Ġsuch": 3147,
      "Ġmedium": 3148,
      "Ġfeet": 3149,
      "Ġbounce": 3150,
      "Ġthousand": 3151,
      "Ġblankets": 3152,
      "Ġevaporates": 3153,
      "Ġclimate": 3154,
      "Ġapproved": 3155,
      "Ġintroduce": 3156,
      "Ġviolin": 3157,
      "Ġtimetable": 3158,
      "Ġmoisture": 3159,
      "Be": 3160,
      "away": 3161,
      "app": 3162,
      "bags": 3163,
      "fth": 3164,
      "house": 3165,
      "kes": 3166,
      "sh": 3167,
      "Ġ4": 3168,
      "ĠVera": 3169,
      "ĠKen": 3170,
      "Ġtall": 3171,
      "innam": 3172,
      "Ġfail": 3173,
      "Ġfix": 3174,
      "Ġmay": 3175,
      "Ġcinnam": 3176,
      "Ġdust": 3177,
      "Ġpossible": 3178,
      "ĠIris": 3179,
      "Ġrules": 3180,
      "ĠSha": 3181,
      "Ġwear": 3182,
      "ĠThere": 3183,
      "Ġmechan": 3184,
      "rier": 3185,
      "ĠNadiya": 3186,
      "ĠYara": 3187,
      "Ġplane": 3188,
      "ĠBell": 3189,
      "ĠLiam": 3190,
      "ief": 3191,
      "Ġneeds": 3192,
      "Ġchief": 3193,
      "ometer": 3194,
      "Ġlettuce": 3195,
      "Ġsometimes": 3196,
      "Ġhandful": 3197,
      "ult": 3198,
      "Ġbegins": 3199,
      "Ġedge": 3200,
      "Ġshops": 3201,
      "Ġthirty": 3202,
      "Ġsandbags": 3203,
      "ĠKnow": 3204,
      "Ġrising": 3205,
      "ĠChrist": 3206,
      "Ġmotion": 3207,
      "Ġguild": 3208,
      "Ġnewsp": 3209,
      "Ġlaugh": 3210,
      "Ġsurface": 3211,
      "Ġengines": 3212,
      "Ġdiscovered": 3213,
      "Ġcinnamon": 3214,
      "ĠKnowing": 3215,
      "Simple": 3216,
      "That": 3217,
      "With": 3218,
      "Why": 3219,
      "bines": 3220,
      "bars": 3221,
      "fest": 3222,
      "grap": 3223,
      "io": 3224,
      "no": 3225,
      "ners": 3226,
      "njoy": 3227,
      "pel": 3228,
      "ula": 3229,
      "Ġton": 3230,
      "Ġtides": 3231,
      "Ġtherm": 3232,
      "Ġwis": 3233,
      "erved": 3234,
      "arrow": 3235,
      "Ġtow": 3236,
      "ener": 3237,
      "Ġlayer": 3238,
      "Ġwashes": 3239,
      "Ġhouses": 3240,
      "Ġrub": 3241,
      "ĠShe": 3242,
      "ĠAisha": 3243,
      "ĠAdam": 3244,
      "adow": 3245,
      "Ġwest": 3246,
      "Ġmeans": 3247,
      "ctob": 3248,
      "ĠMia": 3249,
      "ĠHill": 3250,
      "ĠHans": 3251,
      "Ġtight": 3252,
      "aks": 3253,
      "athers": 3254,
      "ĠCrane": 3255,
      "Ġsmile": 3256,
      "ĠOctob": 3257,
      "Ġnoon": 3258,
      "Ġupright": 3259,
      "Ġneeded": 3260,
      "icken": 3261,
      "Ġenvy": 3262,
      "Ġshawl": 3263,
      "Ġcorrect": 3264,
      "Ġsalty": 3265,
      "ĠNoah": 3266,
      "Ġfourteen": 3267,
      "Ġends": 3268,
      "insula": 3269,
      "Ġplanted": 3270,
      "ĠFord": 3271,
      "Ġstretch": 3272,
      "stening": 3273,
      "Ġelectricity": 3274,
      "ĠSea": 3275,
      "Ġobjects": 3276,
      "Ġrefle": 3277,
      "Ġpeninsula": 3278,
      "Ġsession": 3279,
      "Ġscratched": 3280,
      "erosion": 3281,
      "ĠAmerica": 3282,
      "Ġhandlebars": 3283,
      "Ġboundary": 3284,
      "Ġtonight": 3285,
      "Ġthermometer": 3286,
      "ĠOctober": 3287,
      "Serve": 3288,
      "ients": 3289,
      "med": 3290,
      "oc": 3291,
      "ral": 3292,
      "to": 3293,
      "inse": 3294,
      "Ġwaste": 3295,
      "Ġsing": 3296,
      "Ġsud": 3297,
      "Ġsip": 3298,
      "hara": 3299,
      "Ġmer": 3300,
      "Ġpara": 3301,
      "Ġowe": 3302,
      "Ġeat": 3303,
      "Ġsteel": 3304,
      "Ġstings": 3305,
      "Ġrow": 3306,
      "Ġrider": 3307,
      "alley": 3308,
      "Ġass": 3309,
      "ristening": 3310,
      "Ġwhose": 3311,
      "ĠNew": 3312,
      "ĠMay": 3313,
      "ĠMount": 3314,
      "ĠMax": 3315,
      "Ġtipping": 3316,
      "Ġabs": 3317,
      "Ġpram": 3318,
      "ĠElla": 3319,
      "ĠChris": 3320,
      "ĠPar": 3321,
      "Ġseas": 3322,
      "ĠLena": 3323,
      "ĠFarah": 3324,
      "Ġcarries": 3325,
      "Ġspider": 3326,
      "Ġchicken": 3327,
      "Ġchristening": 3328,
      "Ġcorrection": 3329,
      "Ġharden": 3330,
      "ĠNov": 3331,
      "ĠStefan": 3332,
      "Ġcrops": 3333,
      "Ġsmells": 3334,
      "Ġfairy": 3335,
      "Ġdirections": 3336,
      "Ġspoons": 3337,
      "Ġdisapp": 3338,
      "Ġrunaway": 3339,
      "Ġboxes": 3340,
      "Ġcutting": 3341,
      "Grandma": 3342,
      "Ġobjected": 3343,
      "Ġslices": 3344,
      "Ġthousands": 3345,
      "Ġblanket": 3346,
      "umping": 3347,
      "ĠLuis": 3348,
      "Ġplums": 3349,
      "Ġtales": 3350,
      "ĠChapel": 3351,
      "Ġmechanic": 3352,
      "ĠChristian": 3353,
      "graph": 3354,
      "Ġsingle": 3355,
      "Ġsudden": 3356,
      "Ġcorrections": 3357,
      "dom": 3358,
      "ging": 3359,
      "keep": 3360,
      "sing": 3361,
      "Ġtears": 3362,
      "Ġcaut": 3363,
      "ens": 3364,
      "icine": 3365,
      "Ġsting": 3366,
      "Ġstained": 3367,
      "Ġrequ": 3368,
      "cel": 3369,
      "ĠWendy": 3370,
      "ĠSouth": 3371,
      "ills": 3372,
      "thirty": 3373,
      "ĠMelt": 3374,
      "Ġhere": 3375,
      "ersen": 3376,
      "Ġjumping": 3377,
      "esting": 3378,
      "Ġvalley": 3379,
      "ĠOk": 3380,
      "ĠOliver": 3381,
      "maid": 3382,
      "Ġsafest": 3383,
      "Ġstreetlight": 3384,
      "Ġblade": 3385,
      "Ġshallow": 3386,
      "Ġshaped": 3387,
      "ĠAndersen": 3388,
      "Ġcared": 3389,
      "uthor": 3390,
      "Ġscout": 3391,
      "Ġgardener": 3392,
      "Ġchem": 3393,
      "ĠDanish": 3394,
      "zzle": 3395,
      "Ġmemories": 3396,
      "Ġticket": 3397,
      "Ġpockets": 3398,
      "Ġmedicine": 3399,
      "Ġfeathers": 3400,
      "Ġcharges": 3401,
      "ĠPaula": 3402,
      "Ġevaporation": 3403,
      "Ġmachine": 3404,
      "ĠLucas": 3405,
      "Ġsilver": 3406,
      "Ġboils": 3407,
      "Ġturbines": 3408,
      "Ġimpr": 3409,
      "Ġparticles": 3410,
      "Ġmermaid": 3411,
      "ĠNovak": 3412,
      "Ġcautious": 3413,
      "Enjoy": 3414,
      "bers": 3415,
      "cess": 3416,
      "ches": 3417,
      "five": 3418,
      "ib": 3419,
      "old": 3420,
      "room": 3421,
      "ton": 3422,
      "zen": 3423,
      "Ġauthor": 3424,
      "Ġsear": 3425,
      "Ġfan": 3426,
      "Ġcase": 3427,
      "Ġpil": 3428,
      "enter": 3429,
      "Ġlay": 3430,
      "anas": 3431,
      "ety": 3432,
      "Ġgener": 3433,
      "Ġbeans": 3434,
      "isp": 3435,
      "ĠAl": 3436,
      "Ġmeadow": 3437,
      "Ġshopping": 3438,
      "ĠMark": 3439,
      "Ġalso": 3440,
      "Ġquarter": 3441,
      "unk": 3442,
      "Ġfraction": 3443,
      "ĠPriya": 3444,
      "ĠBella": 3445,
      "Ġbrass": 3446,
      "Ġleave": 3447,
      "Ġsail": 3448,
      "Ġunderne": 3449,
      "Ġtraps": 3450,
      "Ġlearns": 3451,
      "Ġpointing": 3452,
      "Ġclay": 3453,
      "Ġcommon": 3454,
      "Ġ19": 3455,
      "Ġpainted": 3456,
      "Ġcools": 3457,
      "Ġgrand": 3458,
      "Ġproject": 3459,
      "Ġpulls": 3460,
      "Ġprep": 3461,
      "Ġvibr": 3462,
      "Ġremain": 3463,
      "Ġmachines": 3464,
      "Ġpreserved": 3465,
      "ized": 3466,
      "ĠRome": 3467,
      "Ġtwelfth": 3468,
      "Ġlaws": 3469,
      "Ġjuice": 3470,
      "Ġbananas": 3471,
      "Ġcraft": 3472,
      "Ġnewspaper": 3473,
      "Ġparagraph": 3474,
      "Ġunderneath": 3475,
      "Take": 3476,
      "ced": 3477,
      "came": 3478,
      "dow": 3479,
      "eared": 3480,
      "uild": 3481,
      "Ġerosion": 3482,
      "Ġactually": 3483,
      "Ġwire": 3484,
      "reat": 3485,
      "Ġfun": 3486,
      "Ġfable": 3487,
      "Ġcrow": 3488,
      "ingers": 3489,
      "arm": 3490,
      "stem": 3491,
      "Ġpor": 3492,
      "Ġpack": 3493,
      "enno": 3494,
      "itf": 3495,
      "Ġstone": 3496,
      "Ġbecame": 3497,
      "ised": 3498,
      "Ġrate": 3499,
      "Ġann": 3500,
      "Ġlist": 3501,
      "ĠAlice": 3502,
      "Ġnest": 3503,
      "Ġmold": 3504,
      "lies": 3505,
      "Ġshi": 3506,
      "ĠNora": 3507,
      "asted": 3508,
      "Ġarch": 3509,
      "pect": 3510,
      "ĠLenno": 3511,
      "Ġdead": 3512,
      "Ġlightning": 3513,
      "Ġlighthouse": 3514,
      "Ġupward": 3515,
      "Ġneedle": 3516,
      "Ġcomes": 3517,
      "Ġparty": 3518,
      "Ġspent": 3519,
      "Ġspoke": 3520,
      "ĠInside": 3521,
      "Ġasking": 3522,
      "Ġsaying": 3523,
      "ubl": 3524,
      "Ġfloats": 3525,
      "Ġhummed": 3526,
      "Ġsquee": 3527,
      "redients": 3528,
      "ĠOne": 3529,
      "Ġlibrarian": 3530,
      "ĠMarsh": 3531,
      "Ġideas": 3532,
      "Ġevents": 3533,
      "Ġnorthe": 3534,
      "Ġsystem": 3535,
      "Ġfift": 3536,
      "Ġproperly": 3537,
      "Ġfisher": 3538,
      "ĠParis": 3539,
      "Ġsearched": 3540,
      "ĠLennox": 3541,
      "'ve": 3542,
      "body": 3543,
      "bled": 3544,
      "build": 3545,
      "cus": 3546,
      "iles": 3547,
      "ibr": 3548,
      "ned": 3549,
      "Ġwaves": 3550,
      "Ġsour": 3551,
      "Ġsong": 3552,
      "eral": 3553,
      "Ġill": 3554,
      "ream": 3555,
      "ords": 3556,
      "Ġmight": 3557,
      "arct": 3558,
      "editerranean": 3559,
      "stice": 3560,
      "ene": 3561,
      "ities": 3562,
      "ĠTen": 3563,
      "Ġlive": 3564,
      "acher": 3565,
      "ĠMediterranean": 3566,
      "Ġheals": 3567,
      "ĠDora": 3568,
      "Ġart": 3569,
      "Ġsmaller": 3570,
      "Ġlevel": 3571,
      "Ġnovel": 3572,
      "Ġamong": 3573,
      "Ġlighter": 3574,
      "ĠGreat": 3575,
      "Ġconvers": 3576,
      "Ġspill": 3577,
      "Ġspread": 3578,
      "Ġwarmed": 3579,
      "Ġmult": 3580,
      "Ġshadow": 3581,
      "Ġcorners": 3582,
      "Ġeasily": 3583,
      "Ġuni": 3584,
      "Ġswe": 3585,
      "Ġdelivered": 3586,
      "Ġscent": 3587,
      "uled": 3588,
      "Ġfiref": 3589,
      "Ġflows": 3590,
      "ĠWhitf": 3591,
      "Ġdiss": 3592,
      "Ġcooler": 3593,
      "Ġscheduled": 3594,
      "Ġmuscle": 3595,
      "Ġlower": 3596,
      "ppery": 3597,
      "Ġopinion": 3598,
      "Ġescape": 3599,
      "Ġsessions": 3600,
      "Ġinteresting": 3601,
      "===": 3602,
      "afor": 3603,
      "Ġsolstice": 3604,
      "Ġslippery": 3605,
      "Ġwearing": 3606,
      "Ġcorrectly": 3607,
      "Ġdisappeared": 3608,
      "keeper": 3609,
      "celain": 3610,
      "ĠOkafor": 3611,
      "Ġporcelain": 3612,
      "Ġmoldy": 3613,
      "ĠWhitfield": 3614,
      ".'": 3615,
      "ald": 3616,
      "bing": 3617,
      "bumps": 3618,
      "din": 3619,
      "gu": 3620,
      "igh": 3621,
      "ipe": 3622,
      "poon": 3623,
      "ru": 3624,
      "vid": 3625,
      "ĠZane": 3626,
      "ern": 3627,
      "erv": 3628,
      "Ġbli": 3629,
      "Ġbak": 3630,
      "Ġbul": 3631,
      "Ġbase": 3632,
      "Ġfingers": 3633,
      "Ġmill": 3634,
      "Ġmatch": 3635,
      "stors": 3636,
      "Ġpur": 3637,
      "Ġpubl": 3638,
      "let": 3639,
      "Ġste": 3640,
      "Ġstor": 3641,
      "verb": 3642,
      "Ġreli": 3643,
      "Ġreaction": 3644,
      "Ġrebuild": 3645,
      "Ġrich": 3646,
      "Ġrise": 3647,
      "Ġradi": 3648,
      "cestors": 3649,
      "Ġancestors": 3650,
      "Ġlif": 3651,
      "Ġkil": 3652,
      "ĠAnt": 3653,
      "ĠIts": 3654,
      "Ġweight": 3655,
      "ility": 3656,
      "Ġcost": 3657,
      "ĠEn": 3658,
      "ĠCar": 3659,
      "ĠPin": 3660,
      "ĠPut": 3661,
      "ĠBra": 3662,
      "Ġbrought": 3663,
      "Ġpol": 3664,
      "swald": 3665,
      "Ġtook": 3666,
      "Ġlose": 3667,
      "Ġcond": 3668,
      "ired": 3669,
      "rance": 3670,
      "Ġshel": 3671,
      "Ġsheet": 3672,
      "Ġflat": 3673,
      "Ġflash": 3674,
      "Ġfourth": 3675,
      "astern": 3676,
      "Ġroot": 3677,
      "Ġscared": 3678,
      "Ġbirth": 3679,
      "Ġshopkeeper": 3680,
      "Ġhelped": 3681,
      "Ġcontin": 3682,
      "Ġcountry": 3683,
      "ĠUncle": 3684,
      "Ġeleven": 3685,
      "zzard": 3686,
      "Ġgoosebumps": 3687,
      "Ġwatching": 3688,
      "Ġthicker": 3689,
      "Ġrecords": 3690,
      "Ġtouch": 3691,
      "Ġpref": 3692,
      "Ġlosing": 3693,
      "ĠColl": 3694,
      "Ġswallows": 3695,
      "Ġswallowing": 3696,
      "Ġcalms": 3697,
      "Ġcalmly": 3698,
      "Ġhiccup": 3699,
      "Ġhiccups": 3700,
      "Ġjournal": 3701,
      "Ġmusician": 3702,
      "Ġsteady": 3703,
      "Ġtighten": 3704,
      "Ġreflex": 3705,
      "Ġassist": 3706,
      "Ġabsor": 3707,
      "Ġfisherman": 3708,
      "Ġdissol": 3709,
      "Ġblizzard": 3710,
      "Ġrebuilds": 3711,
      "ĠAntarct": 3712,
      "aver": 3713,
      "gle": 3714,
      "ied": 3715,
      "ky": 3716,
      "vie": 3717,
      "wave": 3718,
      "zon": 3719,
      "ĠXavier": 3720,
      "erator": 3721,
      "Ġfly": 3722,
      "Ġcake": 3723,
      "storm": 3724,
      "Ġpale": 3725,
      "ĠIvy": 3726,
      "ating": 3727,
      "itten": 3728,
      "Ġstub": 3729,
      "Ġhail": 3730,
      "Ġrushed": 3731,
      "ĠWill": 3732,
      "ĠSp": 3733,
      "acter": 3734,
      "ĠAt": 3735,
      "Ġdozen": 3736,
      "urse": 3737,
      "Ġmovie": 3738,
      "riger": 3739,
      "ĠHer": 3740,
      "chio": 3741,
      "Ġprinci": 3742,
      "odi": 3743,
      "ĠBo": 3744,
      "Ġseven": 3745,
      "ĠRinse": 3746,
      "Ġbrush": 3747,
      "ĠLe": 3748,
      "ĠLind": 3749,
      "ĠLeo": 3750,
      "Ġteacher": 3751,
      "Ġconf": 3752,
      "Ġappears": 3753,
      "Ġweekly": 3754,
      "Ġheatwave": 3755,
      "tenance": 3756,
      "born": 3757,
      "Ġunf": 3758,
      "gineers": 3759,
      "Ġroots": 3760,
      "Ġimpossible": 3761,
      "Ġoperator": 3762,
      "Ġchanging": 3763,
      "Ġbelt": 3764,
      "Ġmilkman": 3765,
      "Ġcooking": 3766,
      "Ġargum": 3767,
      "Ġfriend": 3768,
      "Ġparish": 3769,
      "Ġforever": 3770,
      "Ġhurried": 3771,
      "Ġnumbers": 3772,
      "Ġproverb": 3773,
      "ĠChina": 3774,
      "Ġelectrician": 3775,
      "Ġeffect": 3776,
      "Ġshrink": 3777,
      "Ġmaintenance": 3778,
      "Ġfreak": 3779,
      "ĠGrand": 3780,
      "Ġrefriger": 3781,
      "Ġlanguages": 3782,
      "umpy": 3783,
      "Ġkeys": 3784,
      "Ġgathers": 3785,
      "Ġdrags": 3786,
      "Ġjourney": 3787,
      "Ġmoment": 3788,
      "Ġcarpenter": 3789,
      "Ġwestern": 3790,
      "occhio": 3791,
      "ĠNewton": 3792,
      "Ġchemical": 3793,
      "dinary": 3794,
      "Ġbaked": 3795,
      "Ġpurp": 3796,
      "ĠEngineers": 3797,
      "ĠCarlo": 3798,
      "ĠPinocchio": 3799,
      "ĠCollodi": 3800,
      "ĠAntarctica": 3801,
      "Ġstubborn": 3802,
      "Ġhailstorm": 3803,
      "Ġprincip": 3804,
      "Ġrefrigerator": 3805,
      "aac": 3806,
      "qv": 3807,
      "ror": 3808,
      "ram": 3809,
      "vil": 3810,
      "wright": 3811,
      "zer": 3812,
      "Ġing": 3813,
      "Ġter": 3814,
      "iness": 3815,
      "Ġwipe": 3816,
      "Ġbaking": 3817,
      "Ġbacter": 3818,
      "Ġfil": 3819,
      "Ġfeed": 3820,
      "Ġmug": 3821,
      "Ġdish": 3822,
      "Ġpu": 3823,
      "Ġpins": 3824,
      "essel": 3825,
      "esaver": 3826,
      "itor": 3827,
      "Ġstri": 3828,
      "Ġstate": 3829,
      "Ġstaff": 3830,
      "iss": 3831,
      "Ġthrow": 3832,
      "Ġhapp": 3833,
      "Ġreef": 3834,
      "Ġhor": 3835,
      "Ġrule": 3836,
      "ĠWind": 3837,
      "ĠSa": 3838,
      "ĠAunt": 3839,
      "tern": 3840,
      "ĠMom": 3841,
      "ighter": 3842,
      "Ġvessel": 3843,
      "ĠBake": 3844,
      "Ġsever": 3845,
      "peare": 3846,
      "Ġdie": 3847,
      "Ġwritten": 3848,
      "lace": 3849,
      "Ġcons": 3850,
      "Ġhole": 3851,
      "Ġliter": 3852,
      "ĠJuli": 3853,
      "ĠJames": 3854,
      "Ġename": 3855,
      "Ġshortest": 3856,
      "hess": 3857,
      "Ġshell": 3858,
      "ĠAndes": 3859,
      "Ġsurround": 3860,
      "Ġwait": 3861,
      "Ġdamp": 3862,
      "Ġroll": 3863,
      "Ġskills": 3864,
      "Ġlargest": 3865,
      "Ġdecid": 3866,
      "Ġclocks": 3867,
      "Ġtables": 3868,
      "Ġpicks": 3869,
      "ĠKing": 3870,
      "ĠIsaac": 3871,
      "Ġrepairs": 3872,
      "Ġplaywright": 3873,
      "ĠHeat": 3874,
      "Ġstudy": 3875,
      "Ġspecial": 3876,
      "workers": 3877,
      "ĠAsia": 3878,
      "Ġpancakes": 3879,
      "Ġjoined": 3880,
      "Ġclosely": 3881,
      "Ġcenturies": 3882,
      "Bex": 3883,
      "kespeare": 3884,
      "ĠShakespeare": 3885,
      "Ġpilot": 3886,
      "ĠRomeo": 3887,
      "Ġcraftworkers": 3888,
      "Ġsqueeze": 3889,
      "Ġsongs": 3890,
      "Ġfirefighter": 3891,
      "Ġpublic": 3892,
      "Ġlifesaver": 3893,
      "Ġbirthday": 3894,
      "Ġprefers": 3895,
      "Ġassistant": 3896,
      "Ġabsorbs": 3897,
      "ĠWilliam": 3898,
      "ĠLindqv": 3899,
      "Ġunfair": 3900,
      "Ġingredients": 3901,
      "Ġbacteria": 3902,
      "ĠJuliet": 3903,
      "ĠLindqvist": 3904,
      "Dad": 3905,
      "Rules": 3906,
      "beds": 3907,
      "gad": 3908,
      "if": 3909,
      "iver": 3910,
      "mers": 3911,
      "mother": 3912,
      "night": 3913,
      "val": 3914,
      "Ġaw": 3915,
      "Ġwings": 3916,
      "Ġsout": 3917,
      "Ġsure": 3918,
      "Ġsouth": 3919,
      "ouds": 3920,
      "Ġbra": 3921,
      "Ġbuck": 3922,
      "Ġbumpy": 3923,
      "Ġfever": 3924,
      "Ġci": 3925,
      "Ġcough": 3926,
      "Ġcards": 3927,
      "Ġchess": 3928,
      "Ġdou": 3929,
      "Ġpages": 3930,
      "Ġandes": 3931,
      "ication": 3932,
      "Ġgara": 3933,
      "Ġreach": 3934,
      "Ġra": 3935,
      "Ġwhisp": 3936,
      "Ġlift": 3937,
      "Ġlives": 3938,
      "ĠSimp": 3939,
      "Ġneigh": 3940,
      "imeter": 3941,
      "lip": 3942,
      "Ġplate": 3943,
      "ĠMoon": 3944,
      "Ġcores": 3945,
      "Ġallow": 3946,
      "ĠCr": 3947,
      "elgad": 3948,
      "ĠBoth": 3949,
      "usk": 3950,
      "ĠDelgad": 3951,
      "Ġdig": 3952,
      "Ġdirect": 3953,
      "mazon": 3954,
      "Ġlean": 3955,
      "Ġleast": 3956,
      "Ġsafe": 3957,
      "ometers": 3958,
      "Ġasked": 3959,
      "Ġshares": 3960,
      "Ġnearly": 3961,
      "ogram": 3962,
      "Ġdrier": 3963,
      "Ġdrift": 3964,
      "airs": 3965,
      "Ġripe": 3966,
      "Ġhuman": 3967,
      "Ġclouds": 3968,
      "Ġmatters": 3969,
      "Ġmoonlight": 3970,
      "Ġconfused": 3971,
      "Ġbird": 3972,
      "Ġseriously": 3973,
      "Ġseedbeds": 3974,
      "Ġtrains": 3975,
      "Ġforgetting": 3976,
      "Ġcountries": 3977,
      "Ġpainter": 3978,
      "Ġmountains": 3979,
      "Ġdrinking": 3980,
      "Ġstraw": 3981,
      "Ġbreak": 3982,
      "Ġbreaking": 3983,
      "Ġsummers": 3984,
      "Ġmediterranean": 3985,
      "Ġfluff": 3986,
      "Ġpicnic": 3987,
      "ĠCover": 3988,
      "Ġbuilds": 3989,
      "Ġsymp": 3990,
      "Ġplumber": 3991,
      "Ġhabitat": 3992,
      "Ġgolden": 3993,
      "Ġtwelve": 3994,
      "Ġsupply": 3995,
      "work": 3996,
      "Ġpower": 3997,
      "Ġvibrates": 3998,
      "Ġartist": 3999,
      "Ġmultip": 4000,
      "Ġkilometers": 4001,
      "ĠSpread": 4002,
      "ĠBoil": 4003,
      "Ġjourneys": 4004,
      "Ġpurpose": 4005,
      "Ġprinciple": 4006,
      "Ġhappy": 4007,
      "Ġseveral": 4008,
      "Ġenamel": 4009,
      "Ġsurrounded": 4010,
      "Ġsouthern": 4011,
      "Ġbucket": 4012,
      "Ġgarage": 4013,
      "ĠSimply": 4014,
      "ĠDelgado": 4015,
      "Mr": 4016,
      "con": 4017,
      "cue": 4018,
      "iff": 4019,
      "ms": 4020,
      "oat": 4021,
      "per": 4022,
      "ract": 4023,
      "uly": 4024,
      "Ġsim": 4025,
      "Ġsinks": 4026,
      "rel": 4027,
      "ones": 4028,
      "onard": 4029,
      "nding": 4030,
      "Ġbark": 4031,
      "Ġfu": 4032,
      "Ġmar": 4033,
      "Ġcir": 4034,
      "Ġdusk": 4035,
      "atic": 4036,
      "Ġeast": 4037,
      "ower": 4038,
      "Ġstall": 4039,
      "Ġstable": 4040,
      "Ġstiff": 4041,
      "Ġgears": 4042,
      "isa": 4043,
      "isitor": 4044,
      "utter": 4045,
      "idence": 4046,
      "ird": 4047,
      "irt": 4048,
      "ache": 4049,
      "aced": 4050,
      "ĠAust": 4051,
      "ĠArm": 4052,
      "Ġweaker": 4053,
      "ĠTheir": 4054,
      "Ġsore": 4055,
      "aint": 4056,
      "liz": 4057,
      "elling": 4058,
      "Ġplot": 4059,
      "Ġeverybody": 4060,
      "ĠHart": 4061,
      "ppos": 4062,
      "Ġprin": 4063,
      "Ġprinter": 4064,
      "ĠPlace": 4065,
      "Ġtrans": 4066,
      "Ġvet": 4067,
      "Ġvac": 4068,
      "Ġordinary": 4069,
      "ĠOswald": 4070,
      "ĠLisa": 4071,
      "Ġdevil": 4072,
      "Ġleaf": 4073,
      "Ġchill": 4074,
      "ormous": 4075,
      "Ġmud": 4076,
      "Ġthinking": 4077,
      "ĠSome": 4078,
      "Ġenormous": 4079,
      "Ġothers": 4080,
      "becue": 4081,
      "Ġappear": 4082,
      "Ġdries": 4083,
      "rapes": 4084,
      "Ġdarker": 4085,
      "Ġlearned": 4086,
      "Ġswings": 4087,
      "Ġclot": 4088,
      "Ġcatch": 4089,
      "Ġeye": 4090,
      "Ġsoften": 4091,
      "Ġmeters": 4092,
      "Ġpaint": 4093,
      "Ġheadache": 4094,
      "Ġletters": 4095,
      "mann": 4096,
      "Ġbreath": 4097,
      "Ġbarrier": 4098,
      "Ġbarbecue": 4099,
      "Ġpush": 4100,
      "nett": 4101,
      "ĠVinci": 4102,
      "Ġgathering": 4103,
      "Ġbedroom": 4104,
      "ĠBennett": 4105,
      "Ġpowers": 4106,
      "Ġpancake": 4107,
      "Ġcentury": 4108,
      "Ġlemonade": 4109,
      "Ġwisdom": 4110,
      "Ġtowel": 4111,
      "unks": 4112,
      "Ġprepare": 4113,
      "Ġcrowd": 4114,
      "Ġsweet": 4115,
      "ĠLeonard": 4116,
      "Ġfriendly": 4117,
      "ĠSahara": 4118,
      "ĠCrack": 4119,
      "Ġsymptom": 4120,
      "Ġsimmer": 4121,
      "ĠHartmann": 4122,
      "ĠLeonardo": 4123,
      "If": 4124,
      "Raff": 4125,
      "aps": 4126,
      "bed": 4127,
      "eved": 4128,
      "fast": 4129,
      "hod": 4130,
      "ial": 4131,
      "vas": 4132,
      "yp": 4133,
      "Ġ3": 4134,
      "Ġtasted": 4135,
      "Ġaver": 4136,
      "Ġali": 4137,
      "Ġact": 4138,
      "Ġaff": 4139,
      "Ġastr": 4140,
      "Ġwakes": 4141,
      "Ġsn": 4142,
      "Ġsnow": 4143,
      "ery": 4144,
      "Ġbite": 4145,
      "Ġfine": 4146,
      "Ġmeter": 4147,
      "Ġced": 4148,
      "arrier": 4149,
      "Ġdying": 4150,
      "Ġoc": 4151,
      "Ġloose": 4152,
      "Ġyoung": 4153,
      "antern": 4154,
      "lec": 4155,
      "Ġecon": 4156,
      "ically": 4157,
      "Ġgive": 4158,
      "Ġonto": 4159,
      "verest": 4160,
      "Ġbending": 4161,
      "ision": 4162,
      "eef": 4163,
      "Ġrepl": 4164,
      "Ġran": 4165,
      "Ġrot": 4166,
      "Ġride": 4167,
      "Ġrail": 4168,
      "ident": 4169,
      "ĠWater": 4170,
      "ĠServe": 4171,
      "ades": 4172,
      "Ġneck": 4173,
      "Ġmoder": 4174,
      "Ġmolec": 4175,
      "ambled": 4176,
      "Ġsho": 4177,
      "Ġshown": 4178,
      "ĠNep": 4179,
      "Ġprogram": 4180,
      "ĠEverest": 4181,
      "artina": 4182,
      "ests": 4183,
      "osen": 4184,
      "ĠBarrier": 4185,
      "Ġcanvas": 4186,
      "ĠReef": 4187,
      "ĠDri": 4188,
      "Ġways": 4189,
      "Ġdef": 4190,
      "onaut": 4191,
      "Ġupon": 4192,
      "Ġneedles": 4193,
      "Ġteam": 4194,
      "Ġconc": 4195,
      "Ġcamel": 4196,
      "Ġchunks": 4197,
      "Ġchosen": 4198,
      "Ġsomewhere": 4199,
      "Ġknows": 4200,
      "Ġcourage": 4201,
      "Ġthroat": 4202,
      "Ġfloat": 4203,
      "Ġherons": 4204,
      "ption": 4205,
      "ĠStir": 4206,
      "Ġlately": 4207,
      "Ġsquir": 4208,
      "Ġphotographer": 4209,
      "Ġschools": 4210,
      "ĠToky": 4211,
      "Ġsoftly": 4212,
      "Ġtraining": 4213,
      "Ġcleaning": 4214,
      "Ġeverest": 4215,
      "Ġopened": 4216,
      "Ġpools": 4217,
      "Ġpeaks": 4218,
      "Ġruns": 4219,
      "Ġamounts": 4220,
      "Ġevent": 4221,
      "Ġfarmland": 4222,
      "Ġprocess": 4223,
      "Ġstrug": 4224,
      "Ġrounds": 4225,
      "arsh": 4226,
      "Ġbasket": 4227,
      "Ġprec": 4228,
      "Ġanimal": 4229,
      "Ġcharge": 4230,
      "Ġremove": 4231,
      "Ġbuilding": 4232,
      "Ġautom": 4233,
      "Ġscrambled": 4234,
      "Ġpoems": 4235,
      "ably": 4236,
      "Ġladder": 4237,
      "Ġmoments": 4238,
      "Ġstretching": 4239,
      "ralia": 4240,
      "Ġrowed": 4241,
      "Ġshallows": 4242,
      "Ġimprove": 4243,
      "Ġships": 4244,
      "Ġarchive": 4245,
      "Ġnortheast": 4246,
      "Ġconversation": 4247,
      "Ġsteam": 4248,
      "Ġstorage": 4249,
      "Ġcontinent": 4250,
      "Ġdissolves": 4251,
      "Ġflying": 4252,
      "Ġargument": 4253,
      "Ġdecided": 4254,
      "Ġbreakfast": 4255,
      "Ġbarked": 4256,
      "ĠAustralia": 4257,
      "Ġclothes": 4258,
      "Raffi": 4259,
      "Ġeconom": 4260,
      "ĠNepal": 4261,
      "ĠTokyo": 4262,
      "69": 4263,
      "We": 4264,
      "cy": 4265,
      "gain": 4266,
      "ime": 4267,
      "line": 4268,
      "mit": 4269,
      "sized": 4270,
      "uct": 4271,
      "uum": 4272,
      "yes": 4273,
      "Ġer": 4274,
      "head": 4275,
      "Ġage": 4276,
      "Ġsang": 4277,
      "Ġblock": 4278,
      "Ġmir": 4279,
      "Ġmarsh": 4280,
      "Ġcities": 4281,
      "Ġpair": 4282,
      "Ġpines": 4283,
      "Ġpushed": 4284,
      "ences": 4285,
      "Ġoppos": 4286,
      "atform": 4287,
      "Ġinland": 4288,
      "Ġnin": 4289,
      "Ġnatur": 4290,
      "ete": 4291,
      "itch": 4292,
      "Ġstom": 4293,
      "Ġstock": 4294,
      "Ġgrapes": 4295,
      "Ġbean": 4296,
      "Ġrel": 4297,
      "Ġreached": 4298,
      "Ġancient": 4299,
      "ĠWatch": 4300,
      "Ġkite": 4301,
      "Ġkeros": 4302,
      "Ġdogs": 4303,
      "ains": 4304,
      "Ġexc": 4305,
      "amed": 4306,
      "Ġplatform": 4307,
      "ĠNile": 4308,
      "ĠMill": 4309,
      "Ġtire": 4310,
      "Ġprom": 4311,
      "ored": 4312,
      "aken": 4313,
      "ĠCor": 4314,
      "plant": 4315,
      "ĠPl": 4316,
      "ĠPeel": 4317,
      "aving": 4318,
      "ĠBird": 4319,
      "arent": 4320,
      "ĠRiver": 4321,
      "Ġtowns": 4322,
      "ĠFine": 4323,
      "ĠField": 4324,
      "ĠFarrow": 4325,
      "ĠFrance": 4326,
      "ĠFlip": 4327,
      "Ġlighting": 4328,
      "ending": 4329,
      "Ġsahara": 4330,
      "Ġmineral": 4331,
      "Ġminute": 4332,
      "Ġasks": 4333,
      "Ġshared": 4334,
      "ĠReyes": 4335,
      "viliz": 4336,
      "ĠEverything": 4337,
      "Ġcarrying": 4338,
      "Ġreaders": 4339,
      "ctions": 4340,
      "ercent": 4341,
      "Ġcrack": 4342,
      "Ġphotography": 4343,
      "Ġspeed": 4344,
      "Ġobs": 4345,
      "Ġcleaner": 4346,
      "Ġflower": 4347,
      "Ġstands": 4348,
      "Ġbigger": 4349,
      "Ġgreeting": 4350,
      "Ġrespect": 4351,
      "rench": 4352,
      "Ġplaying": 4353,
      "Ġhouseplant": 4354,
      "Ġfrogs": 4355,
      "Ġpresent": 4356,
      "Ġhigher": 4357,
      "Ġearlier": 4358,
      "Ġsilence": 4359,
      "Ġdraw": 4360,
      "ĠRoll": 4361,
      "ĠAmeric": 4362,
      "Ġjuicy": 4363,
      "Ġladle": 4364,
      "Ġlayers": 4365,
      "Ġmeadows": 4366,
      "Ġquarters": 4367,
      "Ġgrandmother": 4368,
      "Ġfifty": 4369,
      "Ġshelves": 4370,
      "Ġstriped": 4371,
      "Ġwhispered": 4372,
      "Ġmultiply": 4373,
      "Ġfuel": 4374,
      "Ġvacuum": 4375,
      "Ġaverage": 4376,
      "Ġastronaut": 4377,
      "Ġreplaced": 4378,
      "ĠDrizzle": 4379,
      "Ġsquirrel": 4380,
      "Ġstruggle": 4381,
      "Ġimprovement": 4382,
      "Ġopposite": 4383,
      "Ġstomach": 4384,
      "Ġkerosene": 4385,
      "Joss": 4386,
      "Libr": 4387,
      "Mina": 4388,
      "aw": 4389,
      "aur": 4390,
      "afe": 4391,
      "bon": 4392,
      "cil": 4393,
      "gin": 4394,
      "gent": 4395,
      "hold": 4396,
      "ios": 4397,
      "ns": 4398,
      "rop": 4399,
      "tage": 4400,
      "tled": 4401,
      "use": 4402,
      "Ġ(": 4403,
      "Ġzer": 4404,
      "Ġtu": 4405,
      "Ġtyp": 4406,
      "ined": 4407,
      "Ġwoman": 4408,
      "reng": 4409,
      "Ġbri": 4410,
      "Ġbare": 4411,
      "Ġblow": 4412,
      "Ġbank": 4413,
      "Ġfight": 4414,
      "Ġfurn": 4415,
      "Ġmainly": 4416,
      "Ġce": 4417,
      "Ġcoun": 4418,
      "Ġdirty": 4419,
      "Ġpep": 4420,
      "Ġpage": 4421,
      "Ġpiles": 4422,
      "Ġpercent": 4423,
      "Ġtot": 4424,
      "ley": 4425,
      "Ġnature": 4426,
      "Ġnerv": 4427,
      "Ġnurse": 4428,
      "Ġeats": 4429,
      "Ġeastern": 4430,
      "Ġstar": 4431,
      "Ġstairs": 4432,
      "Ġbeli": 4433,
      "Ġbeaches": 4434,
      "Ġrefu": 4435,
      "Ġrepe": 4436,
      "Ġreeds": 4437,
      "allation": 4438,
      "idents": 4439,
      "omps": 4440,
      "irm": 4441,
      "ĠWink": 4442,
      "ĠSun": 4443,
      "ĠSix": 4444,
      "acy": 4445,
      "aining": 4446,
      "Ġmod": 4447,
      "Ġworried": 4448,
      "Ġexcept": 4449,
      "Ġarea": 4450,
      "ĠMartina": 4451,
      "ĠHis": 4452,
      "Ġhed": 4453,
      "Ġheld": 4454,
      "Ġknot": 4455,
      "Ġknock": 4456,
      "There": 4457,
      "ately": 4458,
      "odore": 4459,
      "ĠOak": 4460,
      "oses": 4461,
      "ĠBring": 4462,
      "Ġbrown": 4463,
      "Ġpoll": 4464,
      "ĠLight": 4465,
      "ĠLower": 4466,
      "Ġwhatever": 4467,
      "Ġupset": 4468,
      "Ġgover": 4469,
      "Ġthemsel": 4470,
      "Ġteles": 4471,
      "Ġload": 4472,
      "Ġspr": 4473,
      "Ġspot": 4474,
      "skar": 4475,
      "ranger": 4476,
      "Ġrestaur": 4477,
      "agree": 4478,
      "Ġuns": 4479,
      "ĠThomps": 4480,
      "Stranger": 4481,
      "Ġrained": 4482,
      "Ġdecade": 4483,
      "Ġchanged": 4484,
      "ulation": 4485,
      "Ġcolumn": 4486,
      "Ġcomput": 4487,
      "Ġseedling": 4488,
      "ĠDoor": 4489,
      "Ġ14": 4490,
      "Ġdisagree": 4491,
      "Ġinstallation": 4492,
      "Ġbiggest": 4493,
      "Ġstorms": 4494,
      "Ġwanted": 4495,
      "Ġhike": 4496,
      "Ġevidence": 4497,
      "Ġproblems": 4498,
      "ĠNeil": 4499,
      "Ġsummar": 4500,
      "Ġgentler": 4501,
      "Ġperform": 4502,
      "ĠChop": 4503,
      "Ġwhether": 4504,
      "Ġpulled": 4505,
      "Ġfilled": 4506,
      "Ġcentral": 4507,
      "Ġcoastal": 4508,
      "Ġvanish": 4509,
      "Ġhabits": 4510,
      "Ġattendance": 4511,
      "Ġturning": 4512,
      "Ġsupport": 4513,
      "Ġspecif": 4514,
      "Ġcrew": 4515,
      "strong": 4516,
      "Ġequal": 4517,
      "Ġcarpet": 4518,
      "Ġseasons": 4519,
      "Ġrequired": 4520,
      "Ġimpro": 4521,
      "Ġ1969": 4522,
      "Ġfifteen": 4523,
      "Ġuniform": 4524,
      "Ġpuzzle": 4525,
      "Ġtablespoon": 4526,
      "Ġciviliz": 4527,
      "ĠArmstrong": 4528,
      "Ġsweetness": 4529,
      "Ġcedar": 4530,
      "Ġocc": 4531,
      "Ġmodern": 4532,
      "Ġautomatic": 4533,
      "Ġblocks": 4534,
      "ĠAmerican": 4535,
      "Librarian": 4536,
      "Ġzero": 4537,
      "rength": 4538,
      "Ġnervous": 4539,
      "ĠWinkler": 4540,
      "Ġthemselves": 4541,
      "Ġtelesc": 4542,
      "Ġrestaurant": 4543,
      "ĠThompson": 4544,
      "?\"": 4545,
      "By": 4546,
      "Che": 4547,
      "Customer": 4548,
      "For": 4549,
      "Ms": 4550,
      "Pete": 4551,
      "Visitor": 4552,
      "aid": 4553,
      "awn": 4554,
      "bors": 4555,
      "can": 4556,
      "cri": 4557,
      "cast": 4558,
      "gre": 4559,
      "gth": 4560,
      "gles": 4561,
      "men": 4562,
      "ued": 4563,
      "vent": 4564,
      "Ġast": 4565,
      "Ġahead": 4566,
      "Ġwing": 4567,
      "Ġspl": 4568,
      "Ġsub": 4569,
      "ongest": 4570,
      "ndar": 4571,
      "Ġben": 4572,
      "Ġbill": 4573,
      "Ġfat": 4574,
      "Ġfla": 4575,
      "Ġfinger": 4576,
      "Ġmerc": 4577,
      "Ġmild": 4578,
      "Ġcap": 4579,
      "Ġcale": 4580,
      "aries": 4581,
      "stim": 4582,
      "Ġdow": 4583,
      "Ġduck": 4584,
      "Ġdaught": 4585,
      "Ġpave": 4586,
      "ength": 4587,
      "Ġobe": 4588,
      "ators": 4589,
      "ative": 4590,
      "asant": 4591,
      "Ġnile": 4592,
      "ays": 4593,
      "owal": 4594,
      "its": 4595,
      "ither": 4596,
      "Ġstew": 4597,
      "Ġstick": 4598,
      "Ġstrength": 4599,
      "Ġgarl": 4600,
      "Ġgutter": 4601,
      "Ġbeha": 4602,
      "ism": 4603,
      "Ġhun": 4604,
      "Ġrat": 4605,
      "Ġrush": 4606,
      "uture": 4607,
      "alth": 4608,
      "ĠWar": 4609,
      "ĠSm": 4610,
      "ionist": 4611,
      "hant": 4612,
      "ĠTheodore": 4613,
      "ently": 4614,
      "entil": 4615,
      "Ġasse": 4616,
      "Ġmeant": 4617,
      "amm": 4618,
      "rau": 4619,
      "Ġseeing": 4620,
      "Ġque": 4621,
      "Ġfridge": 4622,
      "Ġplanet": 4623,
      "ĠCon": 4624,
      "ĠCom": 4625,
      "ĠChan": 4626,
      "Ġdaylight": 4627,
      "Ġwatering": 4628,
      "oplets": 4629,
      "ntown": 4630,
      "ode": 4631,
      "Ġvol": 4632,
      "Ġoutward": 4633,
      "ĠOscar": 4634,
      "Ġadj": 4635,
      "ĠBet": 4636,
      "Ġusage": 4637,
      "ĠRep": 4638,
      "Ġdivid": 4639,
      "Ġpolish": 4640,
      "laim": 4641,
      "Ġlever": 4642,
      "ĠFrench": 4643,
      "Ġcoming": 4644,
      "Ġlog": 4645,
      "Ġsparrow": 4646,
      "Ġchild": 4647,
      "Ġchoose": 4648,
      "Ġholes": 4649,
      "Ġthinks": 4650,
      "ants": 4651,
      "ski": 4652,
      "Ġenvel": 4653,
      "Ġdrinks": 4654,
      "Ġdroplets": 4655,
      "Ġbusiness": 4656,
      "Ġcoldest": 4657,
      "Ġarrives": 4658,
      "Ġhero": 4659,
      "Ġreader": 4660,
      "Ġpots": 4661,
      "Ġsettle": 4662,
      "Ġstops": 4663,
      "Ġgardening": 4664,
      "Ġhearing": 4665,
      "Ġsurvive": 4666,
      "Ġchemist": 4667,
      "Ġears": 4668,
      "Ġspeak": 4669,
      "amph": 4670,
      "Ġbelongs": 4671,
      "Ġflowing": 4672,
      "Ġ18": 4673,
      "Ġinstru": 4674,
      "Ġbuy": 4675,
      "ĠKowal": 4676,
      "Ġresult": 4677,
      "Ġprobably": 4678,
      "Ġfarmers": 4679,
      "Ġdistant": 4680,
      "Ġbreaks": 4681,
      "Ġcertain": 4682,
      "Ġpleasant": 4683,
      "Ġdawn": 4684,
      "Ġrecord": 4685,
      "Ġenters": 4686,
      "Ġobject": 4687,
      "Ġcharged": 4688,
      "Ġmessage": 4689,
      "Ġcentimet": 4690,
      "Ġhousehold": 4691,
      "Ġpens": 4692,
      "Ġchecked": 4693,
      "Recept": 4694,
      "Ġdocuments": 4695,
      "Ġstudying": 4696,
      "Ġcrossing": 4697,
      "Ġsteadily": 4698,
      "Ġwishes": 4699,
      "Ġrubbing": 4700,
      "Ġseason": 4701,
      "Ġgenerations": 4702,
      "ĠAlma": 4703,
      "Ġfuneral": 4704,
      "Ġannoy": 4705,
      "Ġannoun": 4706,
      "Ġnortheastern": 4707,
      "Ġbulges": 4708,
      "lete": 4709,
      "Ġrelieved": 4710,
      "Ġradio": 4711,
      "Ġcosts": 4712,
      "ĠBraun": 4713,
      "Ġflatten": 4714,
      "Ġconfident": 4715,
      "ĠGrandpa": 4716,
      "Ġneighbors": 4717,
      "Ġallowed": 4718,
      "Ġmolecule": 4719,
      "Ġprecise": 4720,
      "Ġmirror": 4721,
      "Ġnaturally": 4722,
      "ĠWatching": 4723,
      "Ġtube": 4724,
      "Ġpepper": 4725,
      "Ġtotal": 4726,
      "Ġunsafe": 4727,
      "Ġsummary": 4728,
      "Ġspecific": 4729,
      "Ġtablespoons": 4730,
      "Chef": 4731,
      "Ġcalendar": 4732,
      "Ġdowntown": 4733,
      "Ġpavement": 4734,
      "Ġgarlic": 4735,
      "Ġenvelope": 4736,
      "ĠKowalski": 4737,
      "Ġcentimeters": 4738,
      "Receptionist": 4739,
      "',": 4740,
      "Ana": 4741,
      "Agent": 4742,
      "He": 4743,
      "Nurse": 4744,
      "Oskar": 4745,
      "Pat": 4746,
      "bt": 4747,
      "bow": 4748,
      "ders": 4749,
      "ees": 4750,
      "for": 4751,
      "hip": 4752,
      "ift": 4753,
      "ires": 4754,
      "ians": 4755,
      "kin": 4756,
      "king": 4757,
      "lines": 4758,
      "mark": 4759,
      "misp": 4760,
      "pen": 4761,
      "rit": 4762,
      "rid": 4763,
      "rum": 4764,
      "the": 4765,
      "tain": 4766,
      "tops": 4767,
      "ues": 4768,
      "vol": 4769,
      "zed": 4770,
      "zil": 4771,
      "Ġtun": 4772,
      "Ġamazon": 4773,
      "ince": 4774,
      "Ġwin": 4775,
      "Ġward": 4776,
      "Ġsad": 4777,
      "Ġsel": 4778,
      "Ġsilk": 4779,
      "erves": 4780,
      "rew": 4781,
      "Ġbat": 4782,
      "Ġbay": 4783,
      "Ġbod": 4784,
      "Ġburn": 4785,
      "Ġbought": 4786,
      "Ġbud": 4787,
      "Ġfle": 4788,
      "Ġfuture": 4789,
      "Ġmood": 4790,
      "Ġmerely": 4791,
      "Ġmater": 4792,
      "steps": 4793,
      "Ġdirt": 4794,
      "Ġpour": 4795,
      "Ġpos": 4796,
      "Ġport": 4797,
      "Ġlength": 4798,
      "ĠIma": 4799,
      "aspoon": 4800,
      "leep": 4801,
      "Ġnap": 4802,
      "Ġnail": 4803,
      "icler": 4804,
      "ital": 4805,
      "iture": 4806,
      "itched": 4807,
      "itions": 4808,
      "Ġstories": 4809,
      "Ġstream": 4810,
      "Ġgave": 4811,
      "vert": 4812,
      "ĠTe": 4813,
      "Ġbees": 4814,
      "Ġbead": 4815,
      "ishing": 4816,
      "Ġhang": 4817,
      "Ġrect": 4818,
      "Ġhon": 4819,
      "Ġru": 4820,
      "Ġrid": 4821,
      "Ġrum": 4822,
      "Ġrinse": 4823,
      "sequ": 4824,
      "ids": 4825,
      "omes": 4826,
      "ĠWith": 4827,
      "ĠWarm": 4828,
      "opes": 4829,
      "Ġlies": 4830,
      "Ġking": 4831,
      "ĠSon": 4832,
      "ĠSlow": 4833,
      "ĠSib": 4834,
      "ĠAc": 4835,
      "ĠAr": 4836,
      "ĠAug": 4837,
      "ĠAmazon": 4838,
      "Ġweak": 4839,
      "hants": 4840,
      "Ġmoons": 4841,
      "Ġexact": 4842,
      "Ġexpect": 4843,
      "Ġmel": 4844,
      "ril": 4845,
      "Ġshout": 4846,
      "Ġshore": 4847,
      "cts": 4848,
      "ĠMake": 4849,
      "ĠMap": 4850,
      "ĠHale": 4851,
      "Ġheard": 4852,
      "Ġhemisp": 4853,
      "Ġcoins": 4854,
      "Ġalarm": 4855,
      "ists": 4856,
      "Ġproduce": 4857,
      "usts": 4858,
      "eeping": 4859,
      "ĠCape": 4860,
      "Ġgrain": 4861,
      "Ġjam": 4862,
      "odu": 4863,
      "ffect": 4864,
      "Ġtruth": 4865,
      "els": 4866,
      "Ġsmoke": 4867,
      "cks": 4868,
      "ĠOr": 4869,
      "Ġoldest": 4870,
      "ĠDone": 4871,
      "ĠDear": 4872,
      "Ġbrick": 4873,
      "ures": 4874,
      "berley": 4875,
      "ĠLantern": 4876,
      "Ġleaving": 4877,
      "Ġcarbon": 4878,
      "Ġcomb": 4879,
      "Ġteaspoon": 4880,
      "Ġconv": 4881,
      "Ġconqu": 4882,
      "Ġconsequ": 4883,
      "Ġspee": 4884,
      "Ġanswering": 4885,
      "Ġfocus": 4886,
      "Ġmudd": 4887,
      "antry": 4888,
      "ĠJuly": 4889,
      "Ġknown": 4890,
      "Ġgrowing": 4891,
      "ager": 4892,
      "Ġshall": 4893,
      "Ġarriving": 4894,
      "Ġovernight": 4895,
      "Ġmiss": 4896,
      "Ġindi": 4897,
      "Ġthroughout": 4898,
      "Ġribs": 4899,
      "ĠThree": 4900,
      "Ġsettled": 4901,
      "Ġsweeping": 4902,
      "redict": 4903,
      "Ġsciss": 4904,
      "Ġvisible": 4905,
      "ĠShop": 4906,
      "Ġearth": 4907,
      "ĠMrs": 4908,
      "Ġpassing": 4909,
      "Ġpasses": 4910,
      "Ġcolon": 4911,
      "Ġagreement": 4912,
      "rete": 4913,
      "Ġdifferently": 4914,
      "Ġimage": 4915,
      "Ġcleanup": 4916,
      "Ġfastest": 4917,
      "Ġstanding": 4918,
      "Ġhills": 4919,
      "Ġinstrum": 4920,
      "ĠMarch": 4921,
      "Ġcooling": 4922,
      "Ġmeasured": 4923,
      "Ġgiven": 4924,
      "Ġroute": 4925,
      "Ġfallen": 4926,
      "Ġstored": 4927,
      "Ġroads": 4928,
      "Ġrockier": 4929,
      "Ġperimeter": 4930,
      "Ġprof": 4931,
      "Ġfewer": 4932,
      "ĠChron": 4933,
      "ĠChildren": 4934,
      "Ġcurious": 4935,
      "Ġrooftops": 4936,
      "ronom": 4937,
      "Ġpulling": 4938,
      "Ġglowed": 4939,
      "Ġfootsteps": 4940,
      "Ġtouched": 4941,
      "Ġcollars": 4942,
      "ĠVen": 4943,
      "Ġsteeper": 4944,
      "izes": 4945,
      "change": 4946,
      "Ġentrance": 4947,
      "Ġcrossings": 4948,
      "Ġlady": 4949,
      "Ġfishing": 4950,
      "Ġfailed": 4951,
      "Ġtower": 4952,
      "ibility": 4953,
      "Ġshift": 4954,
      "Ġsource": 4955,
      "Ġspreads": 4956,
      "ĠBrazil": 4957,
      "Ġcondition": 4958,
      "Ġshelter": 4959,
      "Ġstatement": 4960,
      "Ġrolled": 4961,
      "Ġdoubled": 4962,
      "Ġraised": 4963,
      "Ġdrifting": 4964,
      "Ġprinted": 4965,
      "Ġsnail": 4966,
      "Ġshoots": 4967,
      "ĠMiller": 4968,
      "Ġvacuuming": 4969,
      "Ġfighting": 4970,
      "Ġrepeated": 4971,
      "Ġhedge": 4972,
      "Ġdisagreement": 4973,
      "Ġtelescope": 4974,
      "Ġdaughter": 4975,
      "Ġobey": 4976,
      "Ġqueue": 4977,
      "laimed": 4978,
      "Ġchemistry": 4979,
      "Patient": 4980,
      "Ġbodies": 4981,
      "ĠImagine": 4982,
      "Ġnapkin": 4983,
      "Ġrectang": 4984,
      "ĠSibberley": 4985,
      "ĠAugust": 4986,
      "Ġhemisphere": 4987,
      "Ġmuddy": 4988,
      "Ġscissors": 4989,
      "ĠChronicler": 4990,
      "Clerk": 4991,
      "Fog": 4992,
      "Gu": 4993,
      "Met": 4994,
      "Oct": 4995,
      "Vend": 4996,
      "aly": 4997,
      "ales": 4998,
      "bug": 4999,
      "cing": 5000,
      "eve": 5001,
      "fish": 5002,
      "gi": 5003,
      "gn": 5004,
      "gree": 5005,
      "hog": 5006,
      "ipl": 5007,
      "iod": 5008,
      "iety": 5009,
      "met": 5010,
      "mered": 5011,
      "miss": 5012,
      "rob": 5013,
      "rise": 5014,
      "ss": 5015,
      "sha": 5016,
      "underst": 5017,
      "ye": 5018,
      "yme": 5019,
      "Ġtend": 5020,
      "Ġtaken": 5021,
      "Ġaid": 5022,
      "inople": 5023,
      "inated": 5024,
      "Ġsir": 5025,
      "Ġsink": 5026,
      "Ġsup": 5027,
      "oured": 5028,
      "harm": 5029,
      "ndry": 5030,
      "Ġbi": 5031,
      "Ġbit": 5032,
      "Ġbene": 5033,
      "Ġbones": 5034,
      "Ġfit": 5035,
      "Ġfau": 5036,
      "Ġfest": 5037,
      "Ġfences": 5038,
      "Ġfirm": 5039,
      "Ġcot": 5040,
      "Ġcli": 5041,
      "Ġcous": 5042,
      "Ġcere": 5043,
      "Ġcable": 5044,
      "Ġclaimed": 5045,
      "stant": 5046,
      "Ġdy": 5047,
      "Ġdan": 5048,
      "Ġdream": 5049,
      "Ġpra": 5050,
      "Ġpret": 5051,
      "Ġpond": 5052,
      "Ġparent": 5053,
      "Ġlot": 5054,
      "Ġlear": 5055,
      "Ġlongest": 5056,
      "Ġlentil": 5057,
      "ĠInd": 5058,
      "athered": 5059,
      "asuring": 5060,
      "leon": 5061,
      "Ġnarrow": 5062,
      "Ġnamed": 5063,
      "etry": 5064,
      "etition": 5065,
      "Ġestim": 5066,
      "Ġgri": 5067,
      "Ġglo": 5068,
      "Ġgap": 5069,
      "ĠTurn": 5070,
      "ishes": 5071,
      "issing": 5072,
      "Ġham": 5073,
      "Ġreact": 5074,
      "Ġhunt": 5075,
      "Ġhomes": 5076,
      "Ġrim": 5077,
      "Ġfort": 5078,
      "utation": 5079,
      "iddle": 5080,
      "alt": 5081,
      "ĠWissing": 5082,
      "Ġlie": 5083,
      "Ġkios": 5084,
      "ĠAb": 5085,
      "iment": 5086,
      "imately": 5087,
      "immered": 5088,
      "Ġdome": 5089,
      "ury": 5090,
      "urning": 5091,
      "Ġsoci": 5092,
      "Ġmember": 5093,
      "amps": 5094,
      "Ġshimmered": 5095,
      "iling": 5096,
      "ilos": 5097,
      "ĠNone": 5098,
      "ĠNobody": 5099,
      "ĠHar": 5100,
      "Ġheight": 5101,
      "Ġhealth": 5102,
      "Ġtied": 5103,
      "Ġcode": 5104,
      "epend": 5105,
      "ister": 5106,
      "ustance": 5107,
      "ĠEmp": 5108,
      "ĠCle": 5109,
      "ĠCall": 5110,
      "ĠClo": 5111,
      "ĠCustance": 5112,
      "ĠPr": 5113,
      "Ġtrad": 5114,
      "Ġtrust": 5115,
      "Ġtruly": 5116,
      "Ġvar": 5117,
      "ĠOld": 5118,
      "ĠOpen": 5119,
      "osp": 5120,
      "ĠBl": 5121,
      "ĠBread": 5122,
      "ĠRom": 5123,
      "Ġdied": 5124,
      "Ġdiffic": 5125,
      "Ġpoetry": 5126,
      "ĠLane": 5127,
      "ĠLike": 5128,
      "Ġtelling": 5129,
      "Ġharder": 5130,
      "hys": 5131,
      "Ġlead": 5132,
      "Ġnose": 5133,
      "ĠFour": 5134,
      "ĠFore": 5135,
      "ĠFrau": 5136,
      "Ġuphill": 5137,
      "Ġteach": 5138,
      "ulls": 5139,
      "Ġforgive": 5140,
      "Ġsave": 5141,
      "ometry": 5142,
      "Ġwarms": 5143,
      "apan": 5144,
      "antic": 5145,
      "ĠJapan": 5146,
      "Ġtrap": 5147,
      "Ġknowled": 5148,
      "Ġgrown": 5149,
      "rown": 5150,
      "Ġgrease": 5151,
      "Ġdidn": 5152,
      "entions": 5153,
      "Ġretelling": 5154,
      "Ġcalls": 5155,
      "Ġdesign": 5156,
      "Ġunderstood": 5157,
      "Marcus": 5158,
      "Ġaccept": 5159,
      "Ġreturns": 5160,
      "Ġindepend": 5161,
      "cience": 5162,
      "Lucy": 5163,
      "Ġfinds": 5164,
      "Ġdarkened": 5165,
      "Ġdarkness": 5166,
      "Ġreads": 5167,
      "Ġfami": 5168,
      "ĠThunder": 5169,
      "Ġclever": 5170,
      "Ġswelling": 5171,
      "Ġdeepest": 5172,
      "Ġclass": 5173,
      "ĠBefore": 5174,
      "Ġcheap": 5175,
      "Ġsits": 5176,
      "Ġfollows": 5177,
      "Ġdecades": 5178,
      "Ġending": 5179,
      "Ġcomplaint": 5180,
      "Ġcomplaining": 5181,
      "Ġvalve": 5182,
      "Ġmethod": 5183,
      "Ġhopeful": 5184,
      "Ġdisgu": 5185,
      "Ġcontain": 5186,
      "Ġcloves": 5187,
      "Ġsixty": 5188,
      "Ġwanting": 5189,
      "Ġrunny": 5190,
      "ology": 5191,
      "Ġgiving": 5192,
      "Ġperiod": 5193,
      "Ġstruct": 5194,
      "Ġbargain": 5195,
      "Ġsmoothie": 5196,
      "Ġcalc": 5197,
      "Ġguard": 5198,
      "Ġguess": 5199,
      "Ġlaid": 5200,
      "Ġcollect": 5201,
      "Ġremind": 5202,
      "Ġlistening": 5203,
      "ĠCoffee": 5204,
      "char": 5205,
      "Ġpengu": 5206,
      "ĠVillage": 5207,
      "Ġhimself": 5208,
      "Ġsigns": 5209,
      "Ġsignal": 5210,
      "Ġrecommend": 5211,
      "Ġfacts": 5212,
      "Ġlaundry": 5213,
      "Ġproperty": 5214,
      "Ġarrangement": 5215,
      "Ġsolid": 5216,
      "oint": 5217,
      "Ġstudents": 5218,
      "Ġcryst": 5219,
      "Ġspecies": 5220,
      "Ġbanana": 5221,
      "Doctor": 5222,
      "Ġcream": 5223,
      "Ġcreature": 5224,
      "Ġparticular": 5225,
      "Ġequator": 5226,
      "Ġjoint": 5227,
      "Ġforests": 5228,
      "Ġentirely": 5229,
      "Ġmayor": 5230,
      "Ġsiph": 5231,
      "Ġsailors": 5232,
      "Ġremains": 5233,
      "Ġmillion": 5234,
      "Ġpolite": 5235,
      "Ġcondu": 5236,
      "ĠHerron": 5237,
      "ĠGrandma": 5238,
      "Ġhorse": 5239,
      "ĠKingdom": 5240,
      "Ġdoubt": 5241,
      "Ġneighbor": 5242,
      "Ġleaned": 5243,
      "Ġalive": 5244,
      "Ġaffected": 5245,
      "Ġrailway": 5246,
      "Ġninety": 5247,
      "Ġbrief": 5248,
      "Ġfurniture": 5249,
      "Ġcounter": 5250,
      "Ġcomputer": 5251,
      "Ġsupports": 5252,
      "Ġimproves": 5253,
      "Ġoccur": 5254,
      "venture": 5255,
      "Ġbench": 5256,
      "Ġgutters": 5257,
      "Ġratio": 5258,
      "Ġassemb": 5259,
      "ammals": 5260,
      "ĠConstant": 5261,
      "ĠComm": 5262,
      "Ġself": 5263,
      "Ġfocused": 5264,
      "Ġindivid": 5265,
      "Ġinstruments": 5266,
      "Ġladybug": 5267,
      "Ġhedgehog": 5268,
      "Guard": 5269,
      "Method": 5270,
      "Vendor": 5271,
      "iplication": 5272,
      "harmacy": 5273,
      "Ġbeneath": 5274,
      "Ġcottage": 5275,
      "Ġlearning": 5276,
      "Ġhomesick": 5277,
      "Ġkiosk": 5278,
      "ilosop": 5279,
      "Ġknowledge": 5280,
      "Ġpenguin": 5281,
      "ĠConstantinople": 5282,
      "'.": 5283,
      "40": 5284,
      "?'": 5285,
      "But": 5286,
      "Ing": 5287,
      "Oswald": 5288,
      "She": 5289,
      "Snow": 5290,
      "Warm": 5291,
      "az": 5292,
      "bel": 5293,
      "cent": 5294,
      "cling": 5295,
      "cuse": 5296,
      "ex": 5297,
      "ection": 5298,
      "fl": 5299,
      "fer": 5300,
      "fly": 5301,
      "fort": 5302,
      "fact": 5303,
      "ground": 5304,
      "hop": 5305,
      "iow": 5306,
      "iful": 5307,
      "ips": 5308,
      "izz": 5309,
      "ipped": 5310,
      "ivers": 5311,
      "jo": 5312,
      "kward": 5313,
      "lantic": 5314,
      "maker": 5315,
      "oing": 5316,
      "ozen": 5317,
      "pril": 5318,
      "rom": 5319,
      "rain": 5320,
      "sit": 5321,
      "te": 5322,
      "uous": 5323,
      "vate": 5324,
      "wed": 5325,
      "water": 5326,
      "yle": 5327,
      "year": 5328,
      "zes": 5329,
      "Ġtil": 5330,
      "Ġtong": 5331,
      "Ġtap": 5332,
      "Ġtax": 5333,
      "Ġtilt": 5334,
      "Ġtests": 5335,
      "int": 5336,
      "inic": 5337,
      "inct": 5338,
      "inate": 5339,
      "ination": 5340,
      "Ġwob": 5341,
      "Ġwore": 5342,
      "Ġwide": 5343,
      "Ġwick": 5344,
      "Ġwish": 5345,
      "Ġwave": 5346,
      "Ġwig": 5347,
      "Ġsna": 5348,
      "Ġsizes": 5349,
      "Ġscience": 5350,
      "era": 5351,
      "erver": 5352,
      "erts": 5353,
      "reed": 5354,
      "rected": 5355,
      "orse": 5356,
      "orized": 5357,
      "orns": 5358,
      "Ġble": 5359,
      "Ġbone": 5360,
      "Ġbass": 5361,
      "Ġbab": 5362,
      "Ġfaint": 5363,
      "Ġmine": 5364,
      "Ġmiles": 5365,
      "Ġcam": 5366,
      "Ġcard": 5367,
      "Ġcustom": 5368,
      "Ġcenter": 5369,
      "Ġdress": 5370,
      "Ġdense": 5371,
      "Ġdates": 5372,
      "Ġditch": 5373,
      "Ġpal": 5374,
      "Ġpri": 5375,
      "Ġpul": 5376,
      "Ġpaid": 5377,
      "Ġpantry": 5378,
      "Ġpredict": 5379,
      "Ġpoured": 5380,
      "Ġphys": 5381,
      "Ġpharmacy": 5382,
      "Ġoak": 5383,
      "Ġoats": 5384,
      "Ġloo": 5385,
      "Ġlid": 5386,
      "Ġlane": 5387,
      "Ġlantern": 5388,
      "Ġyes": 5389,
      "ashes": 5390,
      "Ġnation": 5391,
      "Ġeither": 5392,
      "Ġeager": 5393,
      "icals": 5394,
      "ites": 5395,
      "Ġstat": 5396,
      "Ġstars": 5397,
      "Ġstarter": 5398,
      "verse": 5399,
      "Ġbelow": 5400,
      "Ġbends": 5401,
      "Ġbeaut": 5402,
      "ises": 5403,
      "Ġrear": 5404,
      "Ġredd": 5405,
      "Ġhinge": 5406,
      "Ġridge": 5407,
      "Ġrides": 5408,
      "Ġforce": 5409,
      "cell": 5410,
      "utions": 5411,
      "Ġangle": 5412,
      "Ġult": 5413,
      "ality": 5414,
      "irus": 5415,
      "ĠWalk": 5416,
      "ĠWinter": 5417,
      "ĠSame": 5418,
      "ĠSound": 5419,
      "Ġatom": 5420,
      "ĠApp": 5421,
      "ĠAgain": 5422,
      "ĠApril": 5423,
      "illa": 5424,
      "ithmet": 5425,
      "ĠItaly": 5426,
      "Ġsocks": 5427,
      "Ġaside": 5428,
      "Ġexha": 5429,
      "Ġmeasuring": 5430,
      "ells": 5431,
      "elly": 5432,
      "Ġshirt": 5433,
      "Ġwhoever": 5434,
      "ĠMo": 5435,
      "ĠMs": 5436,
      "ĠMan": 5437,
      "Ġcoin": 5438,
      "Ġcolla": 5439,
      "Ġquot": 5440,
      "Ġquant": 5441,
      "chn": 5442,
      "Ġknee": 5443,
      "These": 5444,
      "Ġpride": 5445,
      "Ġprodu": 5446,
      "ĠEven": 5447,
      "ĠCage": 5448,
      "ĠCity": 5449,
      "anding": 5450,
      "Ġjud": 5451,
      "Ġjoy": 5452,
      "Ġjelly": 5453,
      "ĠPers": 5454,
      "Ġtrunk": 5455,
      "umin": 5456,
      "Ġvirus": 5457,
      "Ġorchar": 5458,
      "cked": 5459,
      "Ġadult": 5460,
      "Ġadventure": 5461,
      "ĠBrown": 5462,
      "uss": 5463,
      "Ġusing": 5464,
      "ĠRain": 5465,
      "ĠDay": 5466,
      "ĠDad": 5467,
      "Ġbrother": 5468,
      "Ġbranc": 5469,
      "Ġagreed": 5470,
      "Ġdiv": 5471,
      "Ġdies": 5472,
      "Ġdiving": 5473,
      "Ġsmallest": 5474,
      "Ġpoor": 5475,
      "ĠLamps": 5476,
      "acks": 5477,
      "Ġwars": 5478,
      "Ġdeer": 5479,
      "Ġdegre": 5480,
      "Ġharm": 5481,
      "ĠFather": 5482,
      "Ġupside": 5483,
      "Ġrememb": 5484,
      "Ġcomfort": 5485,
      "Ġpartner": 5486,
      "Ġloan": 5487,
      "Ġloves": 5488,
      "Ġconcer": 5489,
      "Ġspare": 5490,
      "ession": 5491,
      "Ġfoam": 5492,
      "Ġmistakes": 5493,
      "Ġwarmer": 5494,
      "apers": 5495,
      "Ġenc": 5496,
      "Ġenjoy": 5497,
      "Ġrestless": 5498,
      "ague": 5499,
      "Ġmarks": 5500,
      "Ġsunrise": 5501,
      "Ġapplies": 5502,
      "Ġappoint": 5503,
      "Ġshaking": 5504,
      "Ġcorrid": 5505,
      "ĠRead": 5506,
      "venient": 5507,
      "Ġdescri": 5508,
      "Ġjobs": 5509,
      "Ġstarts": 5510,
      "Ġstarted": 5511,
      "Ġdoorways": 5512,
      "Ġinsulation": 5513,
      "Ġrept": 5514,
      "Ġreputation": 5515,
      "Ġunless": 5516,
      "Ġflame": 5517,
      "Ġflakes": 5518,
      "Ġminds": 5519,
      "Ġshowing": 5520,
      "Ġphilosop": 5521,
      "Ġtraveled": 5522,
      "Ġsecret": 5523,
      "Ġtens": 5524,
      "ĠStorm": 5525,
      "Ġcrate": 5526,
      "Ġthanking": 5527,
      "ude": 5528,
      "Ġinvent": 5529,
      "Ġsurvival": 5530,
      "Ġpictures": 5531,
      "Ġrainbow": 5532,
      "Ġdecide": 5533,
      "Ġdecides": 5534,
      "Ġworkshop": 5535,
      "ults": 5536,
      "Ġours": 5537,
      "Ġcomplete": 5538,
      "ols": 5539,
      "Ġwalks": 5540,
      "Ġbags": 5541,
      "ances": 5542,
      "Ġhelping": 5543,
      "Ġemper": 5544,
      "Ġdisc": 5545,
      "Ġdiscus": 5546,
      "Ġcontr": 5547,
      "Ġinstant": 5548,
      "ĠMarina": 5549,
      "Ġbuying": 5550,
      "Ġbutterfly": 5551,
      "Ġthirteen": 5552,
      "ĠUn": 5553,
      "Ġelep": 5554,
      "Ġbrighter": 5555,
      "Ġheads": 5556,
      "Ġchoice": 5557,
      "Ġexpens": 5558,
      "Ġperman": 5559,
      "Ġowners": 5560,
      "Ġbroad": 5561,
      "Ġtreasure": 5562,
      "Ġpropos": 5563,
      "Ġelectron": 5564,
      "Ġpatterns": 5565,
      "ĠExcuse": 5566,
      "Ġtrying": 5567,
      "Ġmidnight": 5568,
      "Ġengineered": 5569,
      "Ġfruits": 5570,
      "Ġcurtain": 5571,
      "Ġexists": 5572,
      "Ġmainland": 5573,
      "Ġwheelbar": 5574,
      "Ġaccord": 5575,
      "Ġborn": 5576,
      "Ġcalibr": 5577,
      "Ġplayed": 5578,
      "Ġlabor": 5579,
      "Ġlabel": 5580,
      "Ġcharger": 5581,
      "Ġremark": 5582,
      "Ġlistener": 5583,
      "Ġslide": 5584,
      "Ġcentimeter": 5585,
      "Ġdinosa": 5586,
      "Ġvanilla": 5587,
      "Ġgeometry": 5588,
      "Ġstirring": 5589,
      "Ġclimb": 5590,
      "Ġclimbs": 5591,
      "Ġclimbing": 5592,
      "ĠVisitor": 5593,
      "Ġscrub": 5594,
      "Ġreceives": 5595,
      "Ġburning": 5596,
      "Ġgoldfish": 5597,
      "Ġfolded": 5598,
      "Ġturtle": 5599,
      "Ġinvestment": 5600,
      "hips": 5601,
      "Ġfiles": 5602,
      "Ġfifth": 5603,
      "Ġpasta": 5604,
      "ĠRoad": 5605,
      "Ġsolar": 5606,
      "Ġtapping": 5607,
      "ability": 5608,
      "Ġcrossed": 5609,
      "Ġfails": 5610,
      "Ġfixed": 5611,
      "Ġnewspapers": 5612,
      "Ġtowers": 5613,
      "Ġrubber": 5614,
      "Ġrows": 5615,
      "Ġrequire": 5616,
      "Ġvalleys": 5617,
      "cessary": 5618,
      "ibly": 5619,
      "Ġpiling": 5620,
      "Ġgeneral": 5621,
      "Ġarchite": 5622,
      "Ġconversations": 5623,
      "Ġmultiplication": 5624,
      "rupt": 5625,
      "Ġstoring": 5626,
      "Ġreliable": 5627,
      "Ġpolished": 5628,
      "Ġarguments": 5629,
      "Ġterri": 5630,
      "Ġfilm": 5631,
      "Ġfilter": 5632,
      "Ġfeeds": 5633,
      "Ġhoriz": 5634,
      "Ġrolling": 5635,
      "ified": 5636,
      "Ġleaning": 5637,
      "ractice": 5638,
      "Ġcircum": 5639,
      "Ġtransl": 5640,
      "Ġalike": 5641,
      "Ġafford": 5642,
      "Ġconcert": 5643,
      "Ġconcrete": 5644,
      "Ġeventually": 5645,
      "Ġrelative": 5646,
      "Ġexcuse": 5647,
      "Ġobserver": 5648,
      "Ġdrawer": 5649,
      "Ġtypical": 5650,
      "Ġbelieve": 5651,
      "Ġpollinated": 5652,
      "Ġgoverned": 5653,
      "Ġperformance": 5654,
      "Ġcivilizations": 5655,
      "Ġastronom": 5656,
      "Ġsplit": 5657,
      "Ġflag": 5658,
      "Ġcapital": 5659,
      "Ġhung": 5660,
      "ĠChange": 5661,
      "Ġvolcan": 5662,
      "ĠBetter": 5663,
      "Ġdividing": 5664,
      "Ġsettles": 5665,
      "amphire": 5666,
      "Ġinstructions": 5667,
      "Ġcertainty": 5668,
      "Ġannoyed": 5669,
      "ritory": 5670,
      "volution": 5671,
      "Ġwardrob": 5672,
      "Ġbudget": 5673,
      "Ġposition": 5674,
      "Ġrumor": 5675,
      "Ġconsequence": 5676,
      "Ġspeech": 5677,
      "Ġcolony": 5678,
      "Ġprofession": 5679,
      "ĠVenice": 5680,
      "Ġtender": 5681,
      "Ġsuper": 5682,
      "Ġfault": 5683,
      "Ġfesti": 5684,
      "Ġcliff": 5685,
      "Ġdanger": 5686,
      "Ġlentils": 5687,
      "Ġsociety": 5688,
      "Ġhealthy": 5689,
      "ĠClose": 5690,
      "Ġtradition": 5691,
      "Ġfamilies": 5692,
      "Ġstructure": 5693,
      "Ġcalcul": 5694,
      "Ġcrystals": 5695,
      "Ġsiphon": 5696,
      "Ġconductor": 5697,
      "Ingredients": 5698,
      "iowa": 5699,
      "izza": 5700,
      "Ġtilted": 5701,
      "Ġwiggles": 5702,
      "Ġsnapper": 5703,
      "Ġcustomers": 5704,
      "Ġbeautiful": 5705,
      "Ġreddish": 5706,
      "ithmetic": 5707,
      "Ġcollaps": 5708,
      "Ġorchard": 5709,
      "Ġbranches": 5710,
      "Ġdegrees": 5711,
      "Ġremembers": 5712,
      "Ġcomfortable": 5713,
      "Ġcorridor": 5714,
      "Ġexpensive": 5715,
      "Ġwheelbarrow": 5716,
      "Ġaccordion": 5717,
      ",'": 5718,
      "00": 5719,
      "14": 5720,
      "79": 5721,
      "88": 5722,
      "Effect": 5723,
      "Fi": 5724,
      "To": 5725,
      "What": 5726,
      "Your": 5727,
      "ait": 5728,
      "bes": 5729,
      "band": 5730,
      "bus": 5731,
      "cut": 5732,
      "cra": 5733,
      "cuit": 5734,
      "dy": 5735,
      "ded": 5736,
      "dent": 5737,
      "dri": 5738,
      "eer": 5739,
      "eith": 5740,
      "free": 5741,
      "ga": 5742,
      "gg": 5743,
      "gl": 5744,
      "gly": 5745,
      "gate": 5746,
      "gant": 5747,
      "gment": 5748,
      "ggy": 5749,
      "ien": 5750,
      "ili": 5751,
      "iest": 5752,
      "iant": 5753,
      "ials": 5754,
      "lit": 5755,
      "liday": 5756,
      "lord": 5757,
      "mas": 5758,
      "mble": 5759,
      "mune": 5760,
      "mosp": 5761,
      "nal": 5762,
      "nch": 5763,
      "nast": 5764,
      "nect": 5765,
      "over": 5766,
      "oved": 5767,
      "oleon": 5768,
      "ojo": 5769,
      "pir": 5770,
      "pter": 5771,
      "port": 5772,
      "ros": 5773,
      "ration": 5774,
      "riting": 5775,
      "riter": 5776,
      "sm": 5777,
      "sis": 5778,
      "sion": 5779,
      "tling": 5780,
      "uc": 5781,
      "uff": 5782,
      "uaded": 5783,
      "ufact": 5784,
      "vo": 5785,
      "vant": 5786,
      "vals": 5787,
      "with": 5788,
      "well": 5789,
      "writing": 5790,
      "xiety": 5791,
      "your": 5792,
      "yond": 5793,
      "ycling": 5794,
      "zard": 5795,
      "Ġver": 5796,
      "Ġvers": 5797,
      "Ġtal": 5798,
      "Ġtest": 5799,
      "Ġtide": 5800,
      "Ġtaking": 5801,
      "Ġtank": 5802,
      "hear": 5803,
      "Ġaction": 5804,
      "Ġtheory": 5805,
      "ining": 5806,
      "inal": 5807,
      "ints": 5808,
      "intage": 5809,
      "Ġware": 5810,
      "Ġwild": 5811,
      "Ġwins": 5812,
      "Ġwasted": 5813,
      "Ġson": 5814,
      "Ġsus": 5815,
      "Ġsaves": 5816,
      "Ġsuit": 5817,
      "Ġsaving": 5818,
      "Ġsamphire": 5819,
      "erals": 5820,
      "erms": 5821,
      "Ġident": 5822,
      "reen": 5823,
      "onishing": 5824,
      "order": 5825,
      "orians": 5826,
      "Ġbas": 5827,
      "Ġbands": 5828,
      "Ġbath": 5829,
      "Ġfra": 5830,
      "Ġflight": 5831,
      "Ġfig": 5832,
      "Ġfert": 5833,
      "Ġfiddle": 5834,
      "Ġfuss": 5835,
      "Ġmen": 5836,
      "Ġmouth": 5837,
      "Ġmaps": 5838,
      "Ġmammals": 5839,
      "Ġcas": 5840,
      "Ġcamp": 5841,
      "lls": 5842,
      "aration": 5843,
      "arant": 5844,
      "ster": 5845,
      "Ġdom": 5846,
      "Ġdest": 5847,
      "Ġdise": 5848,
      "Ġdated": 5849,
      "Ġdance": 5850,
      "Ġped": 5851,
      "Ġpet": 5852,
      "Ġpad": 5853,
      "Ġpod": 5854,
      "Ġposs": 5855,
      "Ġpig": 5856,
      "Ġpup": 5857,
      "Ġpacked": 5858,
      "Ġpump": 5859,
      "Ġpizza": 5860,
      "Ġome": 5861,
      "Ġowl": 5862,
      "Ġlu": 5863,
      "Ġlone": 5864,
      "Ġlink": 5865,
      "Ġlines": 5866,
      "Ġlined": 5867,
      "Ġyawn": 5868,
      "Ġitem": 5869,
      "atra": 5870,
      "anes": 5871,
      "anch": 5872,
      "lebr": 5873,
      "Ġinj": 5874,
      "Ġincome": 5875,
      "Ġnet": 5876,
      "Ġnavi": 5877,
      "Ġnurs": 5878,
      "aying": 5879,
      "eturn": 5880,
      "eteen": 5881,
      "esidents": 5882,
      "ows": 5883,
      "oward": 5884,
      "otam": 5885,
      "icient": 5886,
      "itting": 5887,
      "itime": 5888,
      "Ġstage": 5889,
      "Ġstag": 5890,
      "Ġstair": 5891,
      "Ġgen": 5892,
      "Ġgir": 5893,
      "Ġgaps": 5894,
      "Ġgathered": 5895,
      "Ġgulls": 5896,
      "Ġgerms": 5897,
      "verted": 5898,
      "member": 5899,
      "ĠTer": 5900,
      "ĠTalk": 5901,
      "Ġbea": 5902,
      "Ġbeur": 5903,
      "Ġbeam": 5904,
      "Ġbecoming": 5905,
      "Ġbeyond": 5906,
      "Ġwasher": 5907,
      "isf": 5908,
      "ison": 5909,
      "isions": 5910,
      "Ġthum": 5911,
      "Ġthunderst": 5912,
      "Ġthyme": 5913,
      "Ġrent": 5914,
      "Ġreward": 5915,
      "Ġrela": 5916,
      "Ġrepr": 5917,
      "Ġrecover": 5918,
      "Ġrehear": 5919,
      "Ġhit": 5920,
      "Ġhide": 5921,
      "Ġhive": 5922,
      "Ġhoses": 5923,
      "Ġrap": 5924,
      "Ġrode": 5925,
      "Ġrusts": 5926,
      "Ġrye": 5927,
      "Ġwhis": 5928,
      "Ġwhom": 5929,
      "cend": 5930,
      "ceed": 5931,
      "aller": 5932,
      "idges": 5933,
      "vember": 5934,
      "Ġang": 5935,
      "Ġanxiety": 5936,
      "Ġund": 5937,
      "Ġugly": 5938,
      "alog": 5939,
      "almon": 5940,
      "irl": 5941,
      "ĠWi": 5942,
      "ĠWr": 5943,
      "ĠWor": 5944,
      "opo": 5945,
      "opy": 5946,
      "opatra": 5947,
      "opotam": 5948,
      "Ġlips": 5949,
      "Ġlimit": 5950,
      "Ġlizard": 5951,
      "Ġkill": 5952,
      "Ġkick": 5953,
      "ĠSqu": 5954,
      "ĠSoup": 5955,
      "ĠSince": 5956,
      "Ġatmosp": 5957,
      "ĠAd": 5958,
      "ĠAge": 5959,
      "illiant": 5960,
      "Ġneare": 5961,
      "iths": 5962,
      "Ġnotes": 5963,
      "ural": 5964,
      "ths": 5965,
      "Ġmob": 5966,
      "Ġworst": 5967,
      "Ġasleep": 5968,
      "Ġexisted": 5969,
      "Ġexchange": 5970,
      "lier": 5971,
      "like": 5972,
      "ams": 5973,
      "Ġplus": 5974,
      "iled": 5975,
      "ilities": 5976,
      "cture": 5977,
      "ctors": 5978,
      "nings": 5979,
      "geon": 5980,
      "gend": 5981,
      "ĠNap": 5982,
      "ĠNorth": 5983,
      "Ġareas": 5984,
      "ĠMany": 5985,
      "ĠHm": 5986,
      "ĠHal": 5987,
      "arded": 5988,
      "Ġhesit": 5989,
      "Ġtip": 5990,
      "ooked": 5991,
      "Ġcoat": 5992,
      "ĠYear": 5993,
      "Ġqueen": 5994,
      "Ġability": 5995,
      "unes": 5996,
      "unity": 5997,
      "They": 5998,
      "Ġprose": 5999,
      "Ġprove": 6000,
      "Ġprote": 6001,
      "ĠExt": 6002,
      "ĠEgy": 6003,
      "ĠEnjoy": 6004,
      "ounds": 6005,
      "Ġfrozen": 6006,
      "Ġplanting": 6007,
      "Ġplanets": 6008,
      "Ġplanned": 6009,
      "ĠCl": 6010,
      "ĠCount": 6011,
      "ĠCap": 6012,
      "ĠCons": 6013,
      "ĠCoun": 6014,
      "Ġtherefore": 6015,
      "Ġgrind": 6016,
      "Ġgrud": 6017,
      "Ġgrains": 6018,
      "plom": 6019,
      "plus": 6020,
      "asts": 6021,
      "asting": 6022,
      "astrop": 6023,
      "Ġjack": 6024,
      "ĠPat": 6025,
      "ĠPress": 6026,
      "ĠPro": 6027,
      "ĠProp": 6028,
      "ĠPractice": 6029,
      "Ġtrading": 6030,
      "Ġtrash": 6031,
      "Ġtraded": 6032,
      "Ġtrades": 6033,
      "elow": 6034,
      "ummer": 6035,
      "esty": 6036,
      "Ġouter": 6037,
      "Ġoutli": 6038,
      "ewer": 6039,
      "ewriter": 6040,
      "Ġorg": 6041,
      "Ġorig": 6042,
      "Ġorders": 6043,
      "ĠOver": 6044,
      "ĠOther": 6045,
      "ĠOption": 6046,
      "osy": 6047,
      "Ġadject": 6048,
      "ĠBud": 6049,
      "ĠBelow": 6050,
      "Ġsend": 6051,
      "Ġsees": 6052,
      "usion": 6053,
      "ushing": 6054,
      "Ġcancell": 6055,
      "ĠRight": 6056,
      "ĠRoman": 6057,
      "ĠRivers": 6058,
      "ĠReturn": 6059,
      "ĠDeep": 6060,
      "ĠDays": 6061,
      "Ġbridges": 6062,
      "Ġbrilliant": 6063,
      "Ġarithmetic": 6064,
      "Ġages": 6065,
      "actions": 6066,
      "Ġdigest": 6067,
      "Ġdizz": 6068,
      "Ġdiplom": 6069,
      "ĠLond": 6070,
      "ĠLife": 6071,
      "ĠLock": 6072,
      "ĠLibr": 6073,
      "reek": 6074,
      "Ġgoods": 6075,
      "Ġdevel": 6076,
      "Ġdefect": 6077,
      "Ġgetting": 6078,
      "Ġlevers": 6079,
      "Ġlegend": 6080,
      "ieve": 6081,
      "ieur": 6082,
      "ĠFl": 6083,
      "ĠFort": 6084,
      "ĠGr": 6085,
      "ĠGold": 6086,
      "ĠGreek": 6087,
      "Ġcarav": 6088,
      "Ġtext": 6089,
      "Ġtechn": 6090,
      "Ġloved": 6091,
      "Ġlocked": 6092,
      "Ġconnect": 6093,
      "Ġshouldn": 6094,
      "Ġspell": 6095,
      "Ġanswers": 6096,
      "Ġanswered": 6097,
      "Ġsaved": 6098,
      "pron": 6099,
      "Ġminor": 6100,
      "Ġfully": 6101,
      "Ġholly": 6102,
      "Ġholiday": 6103,
      "agement": 6104,
      "Ġsomebody": 6105,
      "Ġfeeling": 6106,
      "ĠJojo": 6107,
      "Ġenfor": 6108,
      "Ġunderground": 6109,
      "Ġtrapped": 6110,
      "Ġblanc": 6111,
      "Ġblamed": 6112,
      "Ġgrowth": 6113,
      "Ġmarked": 6114,
      "covery": 6115,
      "Ġletting": 6116,
      "Ġshake": 6117,
      "Ġshaken": 6118,
      "Ġcorrected": 6119,
      "ĠRem": 6120,
      "Ġattract": 6121,
      "Ġreturning": 6122,
      "vior": 6123,
      "Ġheating": 6124,
      "Ġdeserts": 6125,
      "Ġdescend": 6126,
      "Ġunderstands": 6127,
      "Ġdrive": 6128,
      "Ġdownward": 6129,
      "Ġaccom": 6130,
      "Ġkinds": 6131,
      "vels": 6132,
      "Ġbrings": 6133,
      "Ġinsight": 6134,
      "Ġcareless": 6135,
      "Ġmissing": 6136,
      "ciation": 6137,
      "Ġfloating": 6138,
      "ĠNovember": 6139,
      "Ġunlike": 6140,
      "ĠWeather": 6141,
      "Ġhandwriting": 6142,
      "Ġtraveler": 6143,
      "Ġripp": 6144,
      "Ġrival": 6145,
      "ĠThrow": 6146,
      "Ġstrangest": 6147,
      "Ġsets": 6148,
      "onsieur": 6149,
      "ĠStop": 6150,
      "ĠStates": 6151,
      "Ġskill": 6152,
      "Ġcrum": 6153,
      "Ġcrock": 6154,
      "Ġswitched": 6155,
      "Ġswells": 6156,
      "Ġposter": 6157,
      "Ġpointed": 6158,
      "Ġstaying": 6159,
      "llabus": 6160,
      "Ġscrap": 6161,
      "Ġscaff": 6162,
      "Ġinvited": 6163,
      "Ġinventions": 6164,
      "Ġclick": 6165,
      "Ġclub": 6166,
      "Ġclinic": 6167,
      "Ġchapter": 6168,
      "Ġlifegu": 6169,
      "Ġmattered": 6170,
      "ĠShower": 6171,
      "ĠShips": 6172,
      "Ġsurvives": 6173,
      "Ġdepot": 6174,
      "Ġdepending": 6175,
      "Ġchest": 6176,
      "oemaker": 6177,
      "Ġhomework": 6178,
      "Ġdecision": 6179,
      "Ġphotographs": 6180,
      "Ġcatalog": 6181,
      "Ġcatastrop": 6182,
      "ulum": 6183,
      "Ġfinal": 6184,
      "eolog": 6185,
      "Ġforming": 6186,
      "Ġformed": 6187,
      "ĠOnly": 6188,
      "ipment": 6189,
      "Ġglob": 6190,
      "casion": 6191,
      "Ġsentiment": 6192,
      "Ġcomple": 6193,
      "Ġcompare": 6194,
      "Ġcompared": 6195,
      "Ġcompetition": 6196,
      "Ġaddition": 6197,
      "Ġlandlord": 6198,
      "ĠSomething": 6199,
      "Ġimagin": 6200,
      "Ġevenings": 6201,
      "Ġeduc": 6202,
      "ĠWhich": 6203,
      "Ġtopics": 6204,
      "riculum": 6205,
      "anced": 6206,
      "Ġlibraries": 6207,
      "Ġdrying": 6208,
      "Ġdisaster": 6209,
      "Ġcontains": 6210,
      "Ġclos": 6211,
      "Ġclosing": 6212,
      "Ġinstinct": 6213,
      "Ġmagic": 6214,
      "Ġmagma": 6215,
      "Ġcounting": 6216,
      "Ġpracticed": 6217,
      "Ġclockwork": 6218,
      "ĠUp": 6219,
      "ĠUse": 6220,
      "Ġmonopo": 6221,
      "Ġpersuaded": 6222,
      "ĠKey": 6223,
      "Ġfarming": 6224,
      "Ġpersonally": 6225,
      "Ġelsewhere": 6226,
      "Ġtrial": 6227,
      "Ġfreeze": 6228,
      "Ġrisk": 6229,
      "Ġroutes": 6230,
      "Ġmemo": 6231,
      "Ġmemorized": 6232,
      "ĠMeadow": 6233,
      "Ġhurt": 6234,
      "Ġexper": 6235,
      "Ġexpert": 6236,
      "Ġconstru": 6237,
      "Ġclearly": 6238,
      "Ġgrace": 6239,
      "Ġgravel": 6240,
      "Ġprov": 6241,
      "Ġproved": 6242,
      "ĠChurch": 6243,
      "Ġpaths": 6244,
      "Ġsuff": 6245,
      "Ġsuffer": 6246,
      "Ġstring": 6247,
      "Ġstruck": 6248,
      "Ġcuts": 6249,
      "Ġgases": 6250,
      "ĠThursdays": 6251,
      "Ġelectrical": 6252,
      "lands": 6253,
      "Ġefficient": 6254,
      "Ġshrub": 6255,
      "ĠSpeak": 6256,
      "Ġspends": 6257,
      "Ġcurve": 6258,
      "Ġcurved": 6259,
      "Ġcurios": 6260,
      "Ġcurriculum": 6261,
      "Ġrecycling": 6262,
      "Ġfema": 6263,
      "Ġinconvenient": 6264,
      "Ġtowards": 6265,
      "Ġborders": 6266,
      "Ġguest": 6267,
      "Ġguests": 6268,
      "Ġguarant": 6269,
      "Ġarms": 6270,
      "Ġarmies": 6271,
      "mbols": 6272,
      "Ġentering": 6273,
      "Ġwelcome": 6274,
      "Ġpaying": 6275,
      "Ġlawn": 6276,
      "Ġcollection": 6277,
      "Ġview": 6278,
      "Ġfloods": 6279,
      "Ġremoved": 6280,
      "Ġsloth": 6281,
      "Ġslides": 6282,
      "Ġpudding": 6283,
      "Ġsurprised": 6284,
      "ĠCold": 6285,
      "Ġvoices": 6286,
      "Ġbuildings": 6287,
      "Ġhighway": 6288,
      "Ġaccounts": 6289,
      "mony": 6290,
      "Ġpencil": 6291,
      "Ġgeese": 6292,
      "Ġreported": 6293,
      "Ġsyllabus": 6294,
      "Ġsymbols": 6295,
      "Ġreleased": 6296,
      "Ġhiding": 6297,
      "Ġburied": 6298,
      "Ġfolding": 6299,
      "Ġinternet": 6300,
      "Ġinterview": 6301,
      "Ġinterchange": 6302,
      "affe": 6303,
      "izing": 6304,
      "Ġsilent": 6305,
      "Ġsigned": 6306,
      "Ġsignals": 6307,
      "Ġmanufact": 6308,
      "Ġdrag": 6309,
      "Ġdrawn": 6310,
      "Ġdraft": 6311,
      "Ġboiler": 6312,
      "ĠTomorrow": 6313,
      "Ġsens": 6314,
      "Ġmagnetic": 6315,
      "Ġcurrently": 6316,
      "Ġecho": 6317,
      "Ġstudent": 6318,
      "Ġsuppose": 6319,
      "Ġsupplier": 6320,
      "Ġislands": 6321,
      "Ġhallway": 6322,
      "Ġengineering": 6323,
      "Ġseparately": 6324,
      "ĠEuropean": 6325,
      "Ġsurfaces": 6326,
      "Ġimmune": 6327,
      "Ġequally": 6328,
      "Ġequipment": 6329,
      "Ġapartments": 6330,
      "Ġslip": 6331,
      "Ġfurther": 6332,
      "Before": 6333,
      "ĠShare": 6334,
      "ocr": 6335,
      "Ġassess": 6336,
      "ĠParish": 6337,
      "Ġdisappear": 6338,
      "Ġsuddenly": 6339,
      "keeping": 6340,
      "Ġrequires": 6341,
      "Ġchemicals": 6342,
      "olding": 6343,
      "Ġauthority": 6344,
      "ĠAlmost": 6345,
      "ĠAlso": 6346,
      "Ġprepared": 6347,
      "Ġpreparation": 6348,
      "Ġvibration": 6349,
      "Ġfungi": 6350,
      "Ġcrowds": 6351,
      "Ġdeadline": 6352,
      "Ġsystems": 6353,
      "Ġillusion": 6354,
      "Ġuniverse": 6355,
      "ervation": 6356,
      "Ġbulb": 6357,
      "Ġbulge": 6358,
      "Ġmillet": 6359,
      "Ġrelief": 6360,
      "Ġpolit": 6361,
      "Ġconduct": 6362,
      "Ġcontinuous": 6363,
      "Ġdissolved": 6364,
      "ĠAtlantic": 6365,
      "Ġconfirm": 6366,
      "Ġshrinking": 6367,
      "Ġterritory": 6368,
      "Ġpuzz": 6369,
      "Ġthrows": 6370,
      "Ġhorn": 6371,
      "ĠAuntie": 6372,
      "Ġdeciding": 6373,
      "Ġawful": 6374,
      "Ġawkward": 6375,
      "Ġbrakes": 6376,
      "Ġraise": 6377,
      "Ġwhisper": 6378,
      "Ġlifts": 6379,
      "Ġlifted": 6380,
      "Ġdign": 6381,
      "Ġdigit": 6382,
      "Ġhumanity": 6383,
      "Ġmarch": 6384,
      "Ġacts": 6385,
      "Ġdefense": 6386,
      "Ġprecision": 6387,
      "Ġeconomy": 6388,
      "Ġeconomics": 6389,
      "mitted": 6390,
      "Ġnineteen": 6391,
      "Ġexcited": 6392,
      "Ġpromise": 6393,
      "ĠPlaying": 6394,
      "ĠFielding": 6395,
      "Ġpresenting": 6396,
      "awning": 6397,
      "Ġtypewriter": 6398,
      "Ġbarely": 6399,
      "Ġbanks": 6400,
      "Ġcelebr": 6401,
      "Ġstarch": 6402,
      "Ġbelieved": 6403,
      "ĠSixty": 6404,
      "Ġmodest": 6405,
      "Ġpollen": 6406,
      "Ġsprout": 6407,
      "Ġsprings": 6408,
      "Ġastonishing": 6409,
      "Ġsubst": 6410,
      "Ġmercy": 6411,
      "Ġmerchants": 6412,
      "Ġbehave": 6413,
      "Ġbehavior": 6414,
      "ĠBetween": 6415,
      "Ġdivided": 6416,
      "Ġheroic": 6417,
      "Ġannoyingly": 6418,
      "Ġannounce": 6419,
      "Ġannounced": 6420,
      "Ġprecisely": 6421,
      "ifty": 6422,
      "market": 6423,
      "Ġtunn": 6424,
      "Ġbattle": 6425,
      "Ġburned": 6426,
      "Ġmaterial": 6427,
      "Ġmaterials": 6428,
      "Ġhonor": 6429,
      "Ġruler": 6430,
      "Ġkingdom": 6431,
      "ĠAcorns": 6432,
      "Ġmelts": 6433,
      "ĠOrdinary": 6434,
      "Ġcombine": 6435,
      "Ġconquered": 6436,
      "Ġrectangular": 6437,
      "mission": 6438,
      "Ġsinking": 6439,
      "Ġcousins": 6440,
      "Ġcables": 6441,
      "Ġdynast": 6442,
      "Ġpretend": 6443,
      "Ġgloves": 6444,
      "Ġhamster": 6445,
      "ĠAbout": 6446,
      "ĠHarbor": 6447,
      "ĠCleopatra": 6448,
      "ĠRomans": 6449,
      "Ġdifficult": 6450,
      "ĠForecast": 6451,
      "Ġdisguised": 6452,
      "Ġcreatures": 6453,
      "Ġpolitely": 6454,
      "Ġbriefly": 6455,
      "Ġindividual": 6456,
      "ference": 6457,
      "Ġtongue": 6458,
      "Ġbaby": 6459,
      "Ġcamera": 6460,
      "Ġpalm": 6461,
      "Ġprivate": 6462,
      "Ġpredictable": 6463,
      "Ġrearran": 6464,
      "Ġultimately": 6465,
      "ĠAppl": 6466,
      "Ġjudgment": 6467,
      "Ġappointment": 6468,
      "Ġemperor": 6469,
      "Ġelephant": 6470,
      "Ġpermanent": 6471,
      "Ġdinosaurs": 6472,
      "Ġhorizon": 6473,
      "Ġcircumference": 6474,
      "Ġsupermarket": 6475,
      "Ġdangerous": 6476,
      "pirin": 6477,
      "Ġversion": 6478,
      "Ġsusp": 6479,
      "Ġpupil": 6480,
      "Ġomelet": 6481,
      "Ġnetwork": 6482,
      "Ġnavigate": 6483,
      "Ġgiraffe": 6484,
      "Ġbeurre": 6485,
      "Ġthunderstorm": 6486,
      "Ġrelax": 6487,
      "Ġatmosphere": 6488,
      "Ġnearest": 6489,
      "ĠNapoleon": 6490,
      "Ġhesitation": 6491,
      "ĠEgypt": 6492,
      "ĠCouncil": 6493,
      "Ġgrudges": 6494,
      "ĠLondon": 6495,
      "Ġdevelop": 6496,
      "Ġscaffolding": 6497,
      "Ġlifeguard": 6498,
      "Ġconstruction": 6499,
      "Ġcuriosity": 6500,
      "Ġinterchangeable": 6501
    },
    "merges": [
      [
        "Ġ",
        "t"
      ],
      [
        "h",
        "e"
      ],
      [
        "Ġ",
        "a"
      ],
      [
        "Ġt",
        "he"
      ],
      [
        "i",
        "n"
      ],
      [
        "Ġ",
        "w"
      ],
      [
        "Ġ",
        "s"
      ],
      [
        "o",
        "u"
      ],
      [
        "e",
        "r"
      ],
      [
        "Ġ",
        "i"
      ],
      [
        "r",
        "e"
      ],
      [
        "o",
        "n"
      ],
      [
        "h",
        "a"
      ],
      [
        "o",
        "r"
      ],
      [
        "n",
        "d"
      ],
      [
        "Ġ",
        "b"
      ],
      [
        "Ġ",
        "f"
      ],
      [
        "Ġ",
        "m"
      ],
      [
        "Ġ",
        "c"
      ],
      [
        "in",
        "g"
      ],
      [
        "l",
        "l"
      ],
      [
        "a",
        "r"
      ],
      [
        "e",
        "d"
      ],
      [
        "s",
        "t"
      ],
      [
        "Ġ",
        "d"
      ],
      [
        "Ġ",
        "p"
      ],
      [
        "Ġt",
        "o"
      ],
      [
        "e",
        "n"
      ],
      [
        "Ġa",
        "nd"
      ],
      [
        "Ġ",
        "o"
      ],
      [
        "Ġ",
        "l"
      ],
      [
        "Ġ",
        "y"
      ],
      [
        "Ġi",
        "t"
      ],
      [
        "Ġ",
        "I"
      ],
      [
        "a",
        "t"
      ],
      [
        "ha",
        "t"
      ],
      [
        "Ġy",
        "ou"
      ],
      [
        "a",
        "n"
      ],
      [
        "a",
        "s"
      ],
      [
        "l",
        "e"
      ],
      [
        "Ġ",
        "in"
      ],
      [
        "Ġ",
        "n"
      ],
      [
        "Ġi",
        "s"
      ],
      [
        "a",
        "y"
      ],
      [
        "e",
        "t"
      ],
      [
        "Ġo",
        "f"
      ],
      [
        "e",
        "s"
      ],
      [
        "Ġ",
        "e"
      ],
      [
        "o",
        "w"
      ],
      [
        "o",
        "t"
      ],
      [
        "i",
        "c"
      ],
      [
        "i",
        "t"
      ],
      [
        "Ġs",
        "t"
      ],
      [
        "Ġ",
        "g"
      ],
      [
        "l",
        "d"
      ],
      [
        "Ġ",
        "on"
      ],
      [
        "v",
        "er"
      ],
      [
        "m",
        "e"
      ],
      [
        "o",
        "o"
      ],
      [
        "Ġ",
        "T"
      ],
      [
        "Ġb",
        "e"
      ],
      [
        "l",
        "y"
      ],
      [
        "Ġw",
        "as"
      ],
      [
        "i",
        "s"
      ],
      [
        "Ġt",
        "h"
      ],
      [
        "Ġt",
        "hat"
      ],
      [
        "Ġ",
        "ha"
      ],
      [
        "e",
        "e"
      ],
      [
        "Ġ",
        "re"
      ],
      [
        "Ġ",
        "h"
      ],
      [
        "g",
        "h"
      ],
      [
        "Ġ",
        "r"
      ],
      [
        "Ġf",
        "or"
      ],
      [
        "s",
        "e"
      ],
      [
        "Ġw",
        "h"
      ],
      [
        "c",
        "e"
      ],
      [
        "k",
        "e"
      ],
      [
        "a",
        "ll"
      ],
      [
        "u",
        "t"
      ],
      [
        "i",
        "d"
      ],
      [
        "gh",
        "t"
      ],
      [
        "o",
        "m"
      ],
      [
        "ou",
        "ld"
      ],
      [
        "v",
        "e"
      ],
      [
        "Ġa",
        "n"
      ],
      [
        "Ġ",
        "u"
      ],
      [
        "a",
        "l"
      ],
      [
        "i",
        "r"
      ],
      [
        "Ġ",
        "W"
      ],
      [
        "o",
        "p"
      ],
      [
        "Ġl",
        "i"
      ],
      [
        "Ġ",
        "k"
      ],
      [
        "Ġ",
        "S"
      ],
      [
        "a",
        "c"
      ],
      [
        "Ġa",
        "t"
      ],
      [
        "he",
        "r"
      ],
      [
        "i",
        "on"
      ],
      [
        "Ġ",
        "A"
      ],
      [
        "ou",
        "t"
      ],
      [
        "a",
        "d"
      ],
      [
        "i",
        "ll"
      ],
      [
        "t",
        "er"
      ],
      [
        "ver",
        "y"
      ],
      [
        "Ġn",
        "e"
      ],
      [
        "it",
        "h"
      ],
      [
        "i",
        "m"
      ],
      [
        "ĠI",
        "t"
      ],
      [
        "Ġw",
        "e"
      ],
      [
        "Ġd",
        "o"
      ],
      [
        "Ġw",
        "ith"
      ],
      [
        "ic",
        "e"
      ],
      [
        "Ġn",
        "ot"
      ],
      [
        "ha",
        "n"
      ],
      [
        "u",
        "r"
      ],
      [
        "ĠT",
        "he"
      ],
      [
        "Ġs",
        "o"
      ],
      [
        "t",
        "h"
      ],
      [
        "a",
        "in"
      ],
      [
        "in",
        "d"
      ],
      [
        "en",
        "t"
      ],
      [
        "Ġm",
        "o"
      ],
      [
        "Ġw",
        "or"
      ],
      [
        "Ġa",
        "s"
      ],
      [
        "on",
        "e"
      ],
      [
        "Ġe",
        "x"
      ],
      [
        "oo",
        "d"
      ],
      [
        "ou",
        "r"
      ],
      [
        "Ġm",
        "e"
      ],
      [
        "r",
        "i"
      ],
      [
        "l",
        "i"
      ],
      [
        "a",
        "me"
      ],
      [
        "a",
        "m"
      ],
      [
        "q",
        "u"
      ],
      [
        "e",
        "ll"
      ],
      [
        "he",
        "n"
      ],
      [
        "Ġon",
        "e"
      ],
      [
        "Ġp",
        "l"
      ],
      [
        "Ġs",
        "h"
      ],
      [
        "Ġwh",
        "o"
      ],
      [
        "r",
        "a"
      ],
      [
        "i",
        "l"
      ],
      [
        "Ġe",
        "very"
      ],
      [
        "c",
        "t"
      ],
      [
        "Ġw",
        "ill"
      ],
      [
        "ĠT",
        "hat"
      ],
      [
        "a",
        "u"
      ],
      [
        "n",
        "ing"
      ],
      [
        "g",
        "e"
      ],
      [
        "Ġ",
        "N"
      ],
      [
        "Ġa",
        "re"
      ],
      [
        "w",
        "ay"
      ],
      [
        "Ġ",
        "M"
      ],
      [
        "im",
        "p"
      ],
      [
        "Ġ",
        "H"
      ],
      [
        "ar",
        "d"
      ],
      [
        "Ġ",
        "he"
      ],
      [
        "Ġt",
        "i"
      ],
      [
        "on",
        "g"
      ],
      [
        "oo",
        "k"
      ],
      [
        "'",
        "s"
      ],
      [
        "Ġb",
        "y"
      ],
      [
        "Ġs",
        "ee"
      ],
      [
        "Ġc",
        "o"
      ],
      [
        "Ġa",
        "l"
      ],
      [
        "Ġ",
        "Y"
      ],
      [
        "e",
        "p"
      ],
      [
        "Ġ",
        "qu"
      ],
      [
        "Ġti",
        "me"
      ],
      [
        "Ġa",
        "b"
      ],
      [
        "Ġyou",
        "r"
      ],
      [
        "a",
        "ke"
      ],
      [
        "p",
        "p"
      ],
      [
        "u",
        "n"
      ],
      [
        "e",
        "ar"
      ],
      [
        "c",
        "h"
      ],
      [
        "Ġk",
        "n"
      ],
      [
        "Ġb",
        "ut"
      ],
      [
        "T",
        "he"
      ],
      [
        "Ġw",
        "at"
      ],
      [
        "i",
        "st"
      ],
      [
        "all",
        "y"
      ],
      [
        "Ġa",
        "ll"
      ],
      [
        "Ġab",
        "out"
      ],
      [
        "Ġp",
        "r"
      ],
      [
        "d",
        "ay"
      ],
      [
        "Ġt",
        "han"
      ],
      [
        "Ġs",
        "imp"
      ],
      [
        "u",
        "st"
      ],
      [
        "Ġ",
        "E"
      ],
      [
        "o",
        "b"
      ],
      [
        "Ġth",
        "is"
      ],
      [
        "o",
        "re"
      ],
      [
        "ee",
        "p"
      ],
      [
        "or",
        "ning"
      ],
      [
        "ou",
        "nd"
      ],
      [
        "Ġf",
        "r"
      ],
      [
        "Ġpl",
        "an"
      ],
      [
        "ar",
        "t"
      ],
      [
        "ou",
        "gh"
      ],
      [
        "i",
        "ght"
      ],
      [
        "a",
        "k"
      ],
      [
        "at",
        "e"
      ],
      [
        "Ġli",
        "ke"
      ],
      [
        "at",
        "her"
      ],
      [
        "Ġ",
        "C"
      ],
      [
        "he",
        "re"
      ],
      [
        "a",
        "nd"
      ],
      [
        "Ġthe",
        "re"
      ],
      [
        "r",
        "y"
      ],
      [
        "Ġd",
        "ay"
      ],
      [
        "Ġg",
        "r"
      ],
      [
        "or",
        "y"
      ],
      [
        "p",
        "l"
      ],
      [
        "Ġw",
        "ould"
      ],
      [
        "Ġm",
        "orning"
      ],
      [
        "ir",
        "st"
      ],
      [
        "Ġwat",
        "er"
      ],
      [
        "f",
        "ter"
      ],
      [
        "ar",
        "k"
      ],
      [
        "v",
        "ed"
      ],
      [
        "a",
        "st"
      ],
      [
        "th",
        "ing"
      ],
      [
        "f",
        "u"
      ],
      [
        "Ġan",
        "y"
      ],
      [
        "Ġs",
        "ame"
      ],
      [
        "op",
        "le"
      ],
      [
        "n",
        "t"
      ],
      [
        "er",
        "s"
      ],
      [
        "Ġc",
        "ould"
      ],
      [
        "Ġ",
        "j"
      ],
      [
        "Ġth",
        "ing"
      ],
      [
        "e",
        "ople"
      ],
      [
        "l",
        "o"
      ],
      [
        "Ġ",
        "P"
      ],
      [
        "o",
        "d"
      ],
      [
        "Ġf",
        "irst"
      ],
      [
        "ĠY",
        "ou"
      ],
      [
        "f",
        "f"
      ],
      [
        "Ġh",
        "ow"
      ],
      [
        "Ġt",
        "r"
      ],
      [
        "e",
        "l"
      ],
      [
        "u",
        "m"
      ],
      [
        "Ġl",
        "ook"
      ],
      [
        "Ġha",
        "ve"
      ],
      [
        "e",
        "st"
      ],
      [
        "Ġit",
        "s"
      ],
      [
        "a",
        "v"
      ],
      [
        "Ġ",
        "v"
      ],
      [
        "b",
        "le"
      ],
      [
        "Ġa",
        "fter"
      ],
      [
        "Ġ",
        "out"
      ],
      [
        "e",
        "w"
      ],
      [
        "Ġ",
        "or"
      ],
      [
        "Ġs",
        "m"
      ],
      [
        "Ġw",
        "ind"
      ],
      [
        "Ġha",
        "d"
      ],
      [
        "c",
        "k"
      ],
      [
        "Ġthe",
        "y"
      ],
      [
        "Ġw",
        "hen"
      ],
      [
        "Ġ",
        "O"
      ],
      [
        "o",
        "s"
      ],
      [
        "Ġa",
        "d"
      ],
      [
        "Ġne",
        "ver"
      ],
      [
        "Ġ",
        "B"
      ],
      [
        "Ġs",
        "e"
      ],
      [
        "u",
        "s"
      ],
      [
        "Ġi",
        "f"
      ],
      [
        "od",
        "y"
      ],
      [
        "a",
        "re"
      ],
      [
        "Ġst",
        "ep"
      ],
      [
        "Ġst",
        "ory"
      ],
      [
        "or",
        "t"
      ],
      [
        "w",
        "n"
      ],
      [
        "Ġfr",
        "om"
      ],
      [
        "l",
        "ow"
      ],
      [
        "Ġc",
        "an"
      ],
      [
        "ĠW",
        "hat"
      ],
      [
        "Ġsimp",
        "le"
      ],
      [
        "en",
        "ce"
      ],
      [
        "Ġo",
        "ld"
      ],
      [
        "u",
        "e"
      ],
      [
        "Ġu",
        "s"
      ],
      [
        "Ġwor",
        "k"
      ],
      [
        "Ġ",
        "R"
      ],
      [
        "au",
        "se"
      ],
      [
        "at",
        "ion"
      ],
      [
        "Ġ",
        "D"
      ],
      [
        "Ġb",
        "r"
      ],
      [
        "ur",
        "n"
      ],
      [
        "ar",
        "a"
      ],
      [
        "Ġa",
        "r"
      ],
      [
        "Ġa",
        "g"
      ],
      [
        "f",
        "ore"
      ],
      [
        "Ġex",
        "pl"
      ],
      [
        "in",
        "k"
      ],
      [
        "id",
        "e"
      ],
      [
        "p",
        "e"
      ],
      [
        "ac",
        "t"
      ],
      [
        "Ġd",
        "i"
      ],
      [
        "Ġk",
        "eep"
      ],
      [
        "Ġbe",
        "fore"
      ],
      [
        "u",
        "re"
      ],
      [
        "w",
        "ard"
      ],
      [
        "Ġwe",
        "ather"
      ],
      [
        "way",
        "s"
      ],
      [
        "Ġbe",
        "en"
      ],
      [
        "Ġwho",
        "le"
      ],
      [
        "c",
        "ause"
      ],
      [
        "Ġw",
        "ay"
      ],
      [
        "ic",
        "h"
      ],
      [
        "Ġsm",
        "all"
      ],
      [
        "b",
        "er"
      ],
      [
        "Ġp",
        "o"
      ],
      [
        "Ġ",
        "L"
      ],
      [
        "Ġw",
        "r"
      ],
      [
        "ac",
        "k"
      ],
      [
        "m",
        "a"
      ],
      [
        "re",
        "e"
      ],
      [
        "Ġkn",
        "ew"
      ],
      [
        "h",
        "ing"
      ],
      [
        "in",
        "e"
      ],
      [
        "Ġto",
        "wn"
      ],
      [
        "Ġg",
        "ood"
      ],
      [
        "v",
        "ing"
      ],
      [
        "Ġt",
        "ell"
      ],
      [
        "fu",
        "l"
      ],
      [
        "v",
        "ice"
      ],
      [
        "Ġw",
        "ar"
      ],
      [
        "Ġt",
        "w"
      ],
      [
        "Ġw",
        "hat"
      ],
      [
        "l",
        "a"
      ],
      [
        "Ġd",
        "e"
      ],
      [
        "Ġg",
        "et"
      ],
      [
        "Ġha",
        "r"
      ],
      [
        "ob",
        "ody"
      ],
      [
        "h",
        "y"
      ],
      [
        "Ġl",
        "e"
      ],
      [
        "Ġwh",
        "ich"
      ],
      [
        "re",
        "et"
      ],
      [
        "Ġn",
        "o"
      ],
      [
        "oo",
        "f"
      ],
      [
        "i",
        "e"
      ],
      [
        "u",
        "g"
      ],
      [
        "Ġad",
        "vice"
      ],
      [
        "Ġ",
        "F"
      ],
      [
        "ou",
        "s"
      ],
      [
        "i",
        "a"
      ],
      [
        "he",
        "d"
      ],
      [
        "Ġon",
        "ce"
      ],
      [
        "Ġa",
        "m"
      ],
      [
        "on",
        "a"
      ],
      [
        "Ġli",
        "ght"
      ],
      [
        "Ġal",
        "ways"
      ],
      [
        "it",
        "e"
      ],
      [
        "er",
        "e"
      ],
      [
        "Ġbe",
        "st"
      ],
      [
        "Ġu",
        "p"
      ],
      [
        "Ġqu",
        "i"
      ],
      [
        "e",
        "nd"
      ],
      [
        "Ġw",
        "ee"
      ],
      [
        "Ġin",
        "t"
      ],
      [
        "Ġ",
        "G"
      ],
      [
        "m",
        "ber"
      ],
      [
        "Ġc",
        "ar"
      ],
      [
        "Ġg",
        "o"
      ],
      [
        "Ġwh",
        "y"
      ],
      [
        "Ġthe",
        "m"
      ],
      [
        "Ġne",
        "ed"
      ],
      [
        "nd",
        "er"
      ],
      [
        "Ġha",
        "s"
      ],
      [
        "Ġre",
        "me"
      ],
      [
        "Ġreme",
        "mber"
      ],
      [
        "Ġr",
        "ight"
      ],
      [
        "Ġs",
        "low"
      ],
      [
        "Ġc",
        "om"
      ],
      [
        "s",
        "w"
      ],
      [
        "Ġp",
        "art"
      ],
      [
        "Ġsee",
        "m"
      ],
      [
        "Ġt",
        "e"
      ],
      [
        "u",
        "ll"
      ],
      [
        "Ġto",
        "o"
      ],
      [
        "Ġl",
        "o"
      ],
      [
        "Ġc",
        "on"
      ],
      [
        "Ġwe",
        "ll"
      ],
      [
        "Ġw",
        "here"
      ],
      [
        "Ġsh",
        "ould"
      ],
      [
        "pp",
        "en"
      ],
      [
        "Ġfor",
        "g"
      ],
      [
        "p",
        "s"
      ],
      [
        "Ġint",
        "o"
      ],
      [
        "t",
        "le"
      ],
      [
        "Ġp",
        "eople"
      ],
      [
        "Ġs",
        "p"
      ],
      [
        "l",
        "f"
      ],
      [
        "Ġan",
        "sw"
      ],
      [
        "op",
        "p"
      ],
      [
        "Ġevery",
        "thing"
      ],
      [
        "Ġansw",
        "er"
      ],
      [
        "f",
        "t"
      ],
      [
        "ic",
        "k"
      ],
      [
        "Ġc",
        "ame"
      ],
      [
        "ac",
        "h"
      ],
      [
        "ĠI",
        "n"
      ],
      [
        "oo",
        "m"
      ],
      [
        "Ġbe",
        "cause"
      ],
      [
        "es",
        "s"
      ],
      [
        "Ġs",
        "a"
      ],
      [
        "Ġof",
        "f"
      ],
      [
        "Ġmo",
        "re"
      ],
      [
        "d",
        "s"
      ],
      [
        "Ġb",
        "et"
      ],
      [
        "Ġc",
        "h"
      ],
      [
        "Ġre",
        "ally"
      ],
      [
        "Ġf",
        "o"
      ],
      [
        "Ġthing",
        "s"
      ],
      [
        "Ġqui",
        "et"
      ],
      [
        "ou",
        "nt"
      ],
      [
        "or",
        "m"
      ],
      [
        "Ġl",
        "ong"
      ],
      [
        "oo",
        "l"
      ],
      [
        "Ġs",
        "ound"
      ],
      [
        "ee",
        "l"
      ],
      [
        "Ġm",
        "ist"
      ],
      [
        "Ġr",
        "oom"
      ],
      [
        "Ġag",
        "ain"
      ],
      [
        "ad",
        "e"
      ],
      [
        "Ġha",
        "ppen"
      ],
      [
        "ak",
        "es"
      ],
      [
        "Ġh",
        "our"
      ],
      [
        "Ġf",
        "ar"
      ],
      [
        "ff",
        "er"
      ],
      [
        "p",
        "r"
      ],
      [
        "Ġm",
        "y"
      ],
      [
        "Ġm",
        "in"
      ],
      [
        "re",
        "s"
      ],
      [
        "Ġf",
        "ull"
      ],
      [
        "Ġh",
        "o"
      ],
      [
        "a",
        "ge"
      ],
      [
        "Ġdi",
        "ffer"
      ],
      [
        "an",
        "a"
      ],
      [
        "om",
        "et"
      ],
      [
        "is",
        "h"
      ],
      [
        "Ġwar",
        "m"
      ],
      [
        "Ġst",
        "reet"
      ],
      [
        "a",
        "p"
      ],
      [
        "Ġso",
        "me"
      ],
      [
        "Ġb",
        "ack"
      ],
      [
        "Ġm",
        "u"
      ],
      [
        "Ġn",
        "obody"
      ],
      [
        "Ġth",
        "ink"
      ],
      [
        "is",
        "e"
      ],
      [
        "a",
        "il"
      ],
      [
        "as",
        "s"
      ],
      [
        "ĠS",
        "o"
      ],
      [
        "an",
        "t"
      ],
      [
        "Ġmin",
        "ut"
      ],
      [
        "Ġf",
        "eel"
      ],
      [
        "ear",
        "s"
      ],
      [
        "Ġtw",
        "o"
      ],
      [
        "re",
        "ad"
      ],
      [
        "Ġl",
        "it"
      ],
      [
        "m",
        "p"
      ],
      [
        "s",
        "k"
      ],
      [
        "ĠW",
        "hy"
      ],
      [
        "f",
        "e"
      ],
      [
        "i",
        "re"
      ],
      [
        "Ġas",
        "k"
      ],
      [
        "r",
        "an"
      ],
      [
        "Ġ",
        "J"
      ],
      [
        "Ġ",
        "en"
      ],
      [
        "Ġh",
        "one"
      ],
      [
        "Ġu",
        "nder"
      ],
      [
        "Ġseem",
        "ed"
      ],
      [
        "t",
        "her"
      ],
      [
        "Ġt",
        "ra"
      ],
      [
        "han",
        "k"
      ],
      [
        "li",
        "ver"
      ],
      [
        "Ġkn",
        "ow"
      ],
      [
        "or",
        "s"
      ],
      [
        "Ġmist",
        "ake"
      ],
      [
        "ĠN",
        "ot"
      ],
      [
        "Ġwind",
        "ow"
      ],
      [
        "Ġre",
        "st"
      ],
      [
        "Ġb",
        "l"
      ],
      [
        "'",
        "t"
      ],
      [
        "Ġt",
        "urn"
      ],
      [
        "Ġgr",
        "ow"
      ],
      [
        "Ġo",
        "ther"
      ],
      [
        "act",
        "ly"
      ],
      [
        "r",
        "ow"
      ],
      [
        "a",
        "g"
      ],
      [
        "a",
        "ble"
      ],
      [
        "Ġforg",
        "ot"
      ],
      [
        "Ġm",
        "ark"
      ],
      [
        "Ġc",
        "our"
      ],
      [
        "Ġre",
        "as"
      ],
      [
        "Ġremember",
        "ed"
      ],
      [
        "est",
        "ion"
      ],
      [
        "Ġqu",
        "estion"
      ],
      [
        "b",
        "e"
      ],
      [
        "Ġs",
        "un"
      ],
      [
        "en",
        "a"
      ],
      [
        "at",
        "ter"
      ],
      [
        "le",
        "s"
      ],
      [
        "ĠH",
        "ow"
      ],
      [
        "ĠC",
        "an"
      ],
      [
        "Ġon",
        "ly"
      ],
      [
        "Ġminut",
        "es"
      ],
      [
        "Ġlit",
        "tle"
      ],
      [
        "Ġmark",
        "et"
      ],
      [
        "c",
        "o"
      ],
      [
        "Ġd",
        "r"
      ],
      [
        "Ġa",
        "pp"
      ],
      [
        "Ġs",
        "ay"
      ],
      [
        "Ġl",
        "et"
      ],
      [
        "Ġg",
        "re"
      ],
      [
        "ic",
        "t"
      ],
      [
        "ct",
        "ed"
      ],
      [
        "Ġs",
        "ha"
      ],
      [
        "Ġcour",
        "se"
      ],
      [
        "Ġm",
        "ade"
      ],
      [
        "Ġd",
        "id"
      ],
      [
        "li",
        "ght"
      ],
      [
        "Ġsh",
        "ort"
      ],
      [
        "Ġj",
        "ust"
      ],
      [
        "Ġb",
        "us"
      ],
      [
        "Ġc",
        "or"
      ],
      [
        "st",
        "ly"
      ],
      [
        "Ġb",
        "o"
      ],
      [
        "ĠR",
        "e"
      ],
      [
        "ĠW",
        "hen"
      ],
      [
        "c",
        "hed"
      ],
      [
        "r",
        "is"
      ],
      [
        "an",
        "ation"
      ],
      [
        "Ġco",
        "ld"
      ],
      [
        "t",
        "s"
      ],
      [
        "Ġp",
        "ut"
      ],
      [
        "ow",
        "n"
      ],
      [
        "Ġat",
        "t"
      ],
      [
        "ent",
        "ion"
      ],
      [
        "Ġany",
        "one"
      ],
      [
        "Ġexpl",
        "anation"
      ],
      [
        "a",
        "ce"
      ],
      [
        "Ġplan",
        "s"
      ],
      [
        "Ġexpl",
        "ain"
      ],
      [
        "he",
        "s"
      ],
      [
        "Ġweather",
        "pr"
      ],
      [
        "Ġwee",
        "k"
      ],
      [
        "Ġweatherpr",
        "oof"
      ],
      [
        "Ġth",
        "ough"
      ],
      [
        "Ġmo",
        "ving"
      ],
      [
        "Ġar",
        "ri"
      ],
      [
        "Ġto",
        "day"
      ],
      [
        "Ġre",
        "t"
      ],
      [
        "lo",
        "ck"
      ],
      [
        "v",
        "i"
      ],
      [
        "u",
        "b"
      ],
      [
        "y",
        "a"
      ],
      [
        "Ġne",
        "ar"
      ],
      [
        "Ġw",
        "all"
      ],
      [
        "n",
        "er"
      ],
      [
        "Ġthe",
        "se"
      ],
      [
        "ay",
        "be"
      ],
      [
        "o",
        "g"
      ],
      [
        "P",
        "au"
      ],
      [
        "z",
        "e"
      ],
      [
        "Ġhe",
        "at"
      ],
      [
        "d",
        "er"
      ],
      [
        "v",
        "en"
      ],
      [
        "ot",
        "her"
      ],
      [
        "Ġdo",
        "es"
      ],
      [
        "os",
        "s"
      ],
      [
        "or",
        "a"
      ],
      [
        "Ġc",
        "all"
      ],
      [
        "Ġd",
        "es"
      ],
      [
        "Ġa",
        "way"
      ],
      [
        "et",
        "ail"
      ],
      [
        "ĠP",
        "eople"
      ],
      [
        "Ġunder",
        "st"
      ],
      [
        "Ġwr",
        "ong"
      ],
      [
        "Ġsa",
        "id"
      ],
      [
        "M",
        "ar"
      ],
      [
        "i",
        "x"
      ],
      [
        "Ġs",
        "he"
      ],
      [
        "it",
        "ed"
      ],
      [
        "Ġex",
        "actly"
      ],
      [
        "t",
        "en"
      ],
      [
        "ĠA",
        "nd"
      ],
      [
        "Ġj",
        "ob"
      ],
      [
        "Ġunderst",
        "and"
      ],
      [
        "Ġd",
        "ri"
      ],
      [
        "Ġst",
        "art"
      ],
      [
        "Ġsound",
        "s"
      ],
      [
        "Ġa",
        "ir"
      ],
      [
        "Ġs",
        "al"
      ],
      [
        "Ġmu",
        "ch"
      ],
      [
        "e",
        "en"
      ],
      [
        "Ġs",
        "er"
      ],
      [
        "Ġd",
        "own"
      ],
      [
        "o",
        "on"
      ],
      [
        "Ġa",
        "c"
      ],
      [
        "Ġk",
        "ind"
      ],
      [
        "Ġany",
        "thing"
      ],
      [
        "i",
        "ve"
      ],
      [
        "Ġs",
        "ur"
      ],
      [
        "Ġs",
        "ide"
      ],
      [
        "o",
        "st"
      ],
      [
        "in",
        "a"
      ],
      [
        "ĠE",
        "very"
      ],
      [
        "i",
        "le"
      ],
      [
        "Ġfor",
        "ward"
      ],
      [
        "ve",
        "l"
      ],
      [
        "Ġhar",
        "d"
      ],
      [
        "o",
        "se"
      ],
      [
        "Ġo",
        "ver"
      ],
      [
        "Ġto",
        "m"
      ],
      [
        "a",
        "ve"
      ],
      [
        "or",
        "row"
      ],
      [
        "Ġdo",
        "or"
      ],
      [
        "av",
        "i"
      ],
      [
        "a",
        "ir"
      ],
      [
        "Ġbr",
        "ing"
      ],
      [
        "ou",
        "ght"
      ],
      [
        "b",
        "or"
      ],
      [
        "Ġin",
        "s"
      ],
      [
        "t",
        "y"
      ],
      [
        "Ġc",
        "are"
      ],
      [
        "Ġd",
        "etail"
      ],
      [
        "op",
        "e"
      ],
      [
        "Ġhe",
        "l"
      ],
      [
        "Ġquiet",
        "ly"
      ],
      [
        "Ġre",
        "p"
      ],
      [
        "ĠA",
        "n"
      ],
      [
        "Ġret",
        "urn"
      ],
      [
        "Ġth",
        "r"
      ],
      [
        "ra",
        "p"
      ],
      [
        "i",
        "ly"
      ],
      [
        "ear",
        "n"
      ],
      [
        "Ġm",
        "is"
      ],
      [
        "Ġin",
        "d"
      ],
      [
        "Ġdiffer",
        "ence"
      ],
      [
        "Ġal",
        "ong"
      ],
      [
        "c",
        "i"
      ],
      [
        "i",
        "g"
      ],
      [
        "Ġ",
        "\""
      ],
      [
        "Ġm",
        "akes"
      ],
      [
        "it",
        "y"
      ],
      [
        "u",
        "nd"
      ],
      [
        "u",
        "ally"
      ],
      [
        "Ġe",
        "as"
      ],
      [
        "al",
        "k"
      ],
      [
        "Ġthr",
        "ough"
      ],
      [
        "Ġf",
        "lo"
      ],
      [
        "Ġu",
        "nt"
      ],
      [
        "Ġwor",
        "ds"
      ],
      [
        "Ġw",
        "ere"
      ],
      [
        "ĠN",
        "o"
      ],
      [
        "x",
        "t"
      ],
      [
        "Ġwork",
        "ing"
      ],
      [
        "Ġpo",
        "in"
      ],
      [
        "Ġp",
        "ie"
      ],
      [
        "an",
        "s"
      ],
      [
        "ak",
        "ing"
      ],
      [
        "Ġunt",
        "il"
      ],
      [
        "Ġw",
        "a"
      ],
      [
        "Ġcor",
        "ner"
      ],
      [
        "V",
        "er"
      ],
      [
        "Ġe",
        "ach"
      ],
      [
        "Ġkeep",
        "s"
      ],
      [
        "ou",
        "d"
      ],
      [
        "Ġatt",
        "ention"
      ],
      [
        "L",
        "u"
      ],
      [
        "Ġf",
        "ind"
      ],
      [
        "Ġafter",
        "ward"
      ],
      [
        "ĠG",
        "ood"
      ],
      [
        "Ġs",
        "ug"
      ],
      [
        "Ġu",
        "n"
      ],
      [
        "Ġhar",
        "bor"
      ],
      [
        "r",
        "oss"
      ],
      [
        "Ġf",
        "l"
      ],
      [
        "Ġm",
        "ind"
      ],
      [
        "al",
        "s"
      ],
      [
        "Ġsh",
        "ow"
      ],
      [
        "opp",
        "ed"
      ],
      [
        "l",
        "er"
      ],
      [
        "Ġ",
        "her"
      ],
      [
        "Ġd",
        "ark"
      ],
      [
        "Ġl",
        "earn"
      ],
      [
        "w",
        "een"
      ],
      [
        "at",
        "ed"
      ],
      [
        "Ġcar",
        "ry"
      ],
      [
        "ot",
        "h"
      ],
      [
        "ĠT",
        "hank"
      ],
      [
        "Ġp",
        "h"
      ],
      [
        "Ġne",
        "w"
      ],
      [
        "Ġarri",
        "ved"
      ],
      [
        "Ġbet",
        "ween"
      ],
      [
        "Ġdetail",
        "s"
      ],
      [
        "G",
        "ra"
      ],
      [
        ".",
        "\""
      ],
      [
        "Ġd",
        "am"
      ],
      [
        "Ġre",
        "ad"
      ],
      [
        "Ġs",
        "omet"
      ],
      [
        "ĠW",
        "e"
      ],
      [
        "ĠA",
        "sk"
      ],
      [
        "res",
        "s"
      ],
      [
        "i",
        "ze"
      ],
      [
        "Ġf",
        "ood"
      ],
      [
        "Ġha",
        "nd"
      ],
      [
        "Ġtra",
        "vel"
      ],
      [
        "Ġs",
        "light"
      ],
      [
        "Ġf",
        "am"
      ],
      [
        "imp",
        "le"
      ],
      [
        "un",
        "e"
      ],
      [
        "ct",
        "ion"
      ],
      [
        "Ġse",
        "c"
      ],
      [
        "og",
        "rap"
      ],
      [
        "Ġslight",
        "ly"
      ],
      [
        "Ġp",
        "ot"
      ],
      [
        "Ġr",
        "i"
      ],
      [
        "Ġwor",
        "ld"
      ],
      [
        "v",
        "es"
      ],
      [
        "ĠI",
        "f"
      ],
      [
        "ĠT",
        "h"
      ],
      [
        "Ġwh",
        "ile"
      ],
      [
        "an",
        "y"
      ],
      [
        "it",
        "ing"
      ],
      [
        "Ġst",
        "ran"
      ],
      [
        "end",
        "s"
      ],
      [
        "S",
        "t"
      ],
      [
        "Ġs",
        "et"
      ],
      [
        "os",
        "a"
      ],
      [
        "Ġafterward",
        "s"
      ],
      [
        "ut",
        "h"
      ],
      [
        "Ġflo",
        "or"
      ],
      [
        "p",
        "t"
      ],
      [
        "Ġh",
        "um"
      ],
      [
        "ĠAn",
        "y"
      ],
      [
        "Ġt",
        "en"
      ],
      [
        "Ġf",
        "our"
      ],
      [
        "Ġc",
        "le"
      ],
      [
        "Ġwor",
        "th"
      ],
      [
        "Ġunderstand",
        "ing"
      ],
      [
        "Ġac",
        "ross"
      ],
      [
        "s",
        "la"
      ],
      [
        "Ġs",
        "in"
      ],
      [
        "on",
        "s"
      ],
      [
        "Ġst",
        "ill"
      ],
      [
        "Ġg",
        "ot"
      ],
      [
        "Ġnot",
        "ice"
      ],
      [
        "Ġslow",
        "ly"
      ],
      [
        "ast",
        "er"
      ],
      [
        "Ġpie",
        "ce"
      ],
      [
        "g",
        "ine"
      ],
      [
        "Ġb",
        "ook"
      ],
      [
        "l",
        "ice"
      ],
      [
        "â",
        "Ģ"
      ],
      [
        "ĠS",
        "t"
      ],
      [
        "Ġte",
        "a"
      ],
      [
        "âĢ",
        "Ķ"
      ],
      [
        "er",
        "c"
      ],
      [
        "Ġbe",
        "g"
      ],
      [
        "Ġr",
        "o"
      ],
      [
        "Ġs",
        "k"
      ],
      [
        "Ġc",
        "r"
      ],
      [
        "Ġbet",
        "ter"
      ],
      [
        "I",
        "t"
      ],
      [
        "Ġco",
        "me"
      ],
      [
        "Ġthan",
        "k"
      ],
      [
        "Ġsomet",
        "hing"
      ],
      [
        "u",
        "d"
      ],
      [
        "Ġs",
        "w"
      ],
      [
        "ĠS",
        "imple"
      ],
      [
        "Ġho",
        "ld"
      ],
      [
        "f",
        "orm"
      ],
      [
        "Ġ",
        "âĢĶ"
      ],
      [
        "Ġde",
        "liver"
      ],
      [
        "Ġturn",
        "ed"
      ],
      [
        "ĠRe",
        "ally"
      ],
      [
        "Ġl",
        "ate"
      ],
      [
        "Ġth",
        "ought"
      ],
      [
        "Ġpo",
        "st"
      ],
      [
        "Ġtom",
        "orrow"
      ],
      [
        "Ġpoin",
        "t"
      ],
      [
        "Ġs",
        "qu"
      ],
      [
        "t",
        "han"
      ],
      [
        "er",
        "ed"
      ],
      [
        "Ġst",
        "ood"
      ],
      [
        "c",
        "le"
      ],
      [
        "ll",
        "ow"
      ],
      [
        "Ġst",
        "ay"
      ],
      [
        "Ġsimp",
        "ly"
      ],
      [
        "g",
        "s"
      ],
      [
        "re",
        "d"
      ],
      [
        "ll",
        "a"
      ],
      [
        "im",
        "on"
      ],
      [
        "N",
        "ina"
      ],
      [
        "Ġs",
        "c"
      ],
      [
        "Ġin",
        "v"
      ],
      [
        "ic",
        "ed"
      ],
      [
        "Ġst",
        "op"
      ],
      [
        "el",
        "en"
      ],
      [
        "Ġv",
        "is"
      ],
      [
        "ard",
        "en"
      ],
      [
        "ĠP",
        "er"
      ],
      [
        "Ġph",
        "ot"
      ],
      [
        "Ġri",
        "ver"
      ],
      [
        "Ġthe",
        "n"
      ],
      [
        "li",
        "as"
      ],
      [
        "Ġc",
        "au"
      ],
      [
        "Ġd",
        "eep"
      ],
      [
        "Ġg",
        "arden"
      ],
      [
        "ke",
        "nd"
      ],
      [
        "ri",
        "ed"
      ],
      [
        "Ġwee",
        "kend"
      ],
      [
        "Ġi",
        "mp"
      ],
      [
        "Ġc",
        "l"
      ],
      [
        "ar",
        "l"
      ],
      [
        "el",
        "t"
      ],
      [
        "ĠO",
        "f"
      ],
      [
        "ĠL",
        "et"
      ],
      [
        "Ġsal",
        "t"
      ],
      [
        "Ver",
        "a"
      ],
      [
        "Ġphot",
        "ograp"
      ],
      [
        "e",
        "ct"
      ],
      [
        "f",
        "ia"
      ],
      [
        "Ġc",
        "ha"
      ],
      [
        "se",
        "lf"
      ],
      [
        "Ġli",
        "fe"
      ],
      [
        "ĠS",
        "ee"
      ],
      [
        "ch",
        "ool"
      ],
      [
        "ĠO",
        "h"
      ],
      [
        "Ġlo",
        "c"
      ],
      [
        "ĠJ",
        "ust"
      ],
      [
        "Ġhone",
        "y"
      ],
      [
        "a",
        "h"
      ],
      [
        "Ġs",
        "chool"
      ],
      [
        "Ġb",
        "read"
      ],
      [
        "Ġm",
        "atter"
      ],
      [
        "Ġnot",
        "iced"
      ],
      [
        "E",
        "very"
      ],
      [
        "Ġm",
        "other"
      ],
      [
        "ĠA",
        "re"
      ],
      [
        "im",
        "es"
      ],
      [
        "Ġhe",
        "ar"
      ],
      [
        "Ġm",
        "ake"
      ],
      [
        "Ġex",
        "erc"
      ],
      [
        "K",
        "ate"
      ],
      [
        "Ġo",
        "p"
      ],
      [
        "me",
        "ll"
      ],
      [
        "ge",
        "st"
      ],
      [
        "ĠH",
        "ave"
      ],
      [
        "I",
        "sla"
      ],
      [
        "n",
        "a"
      ],
      [
        "Ġs",
        "mell"
      ],
      [
        "ing",
        "s"
      ],
      [
        "ĠM",
        "aybe"
      ],
      [
        "ĠB",
        "e"
      ],
      [
        "Ġexerc",
        "ise"
      ],
      [
        "ĠS",
        "h"
      ],
      [
        "Ġwith",
        "in"
      ],
      [
        "Ġmo",
        "stly"
      ],
      [
        "Ġsur",
        "vi"
      ],
      [
        "l",
        "ena"
      ],
      [
        "m",
        "ar"
      ],
      [
        "Ġd",
        "ep"
      ],
      [
        "Ġth",
        "ree"
      ],
      [
        "Ġne",
        "xt"
      ],
      [
        "Gra",
        "ce"
      ],
      [
        "D",
        "ana"
      ],
      [
        "Ġc",
        "he"
      ],
      [
        "Ġnot",
        "hing"
      ],
      [
        "Ġmorning",
        "s"
      ],
      [
        "pe",
        "cted"
      ],
      [
        "o",
        "ve"
      ],
      [
        "Ġl",
        "ar"
      ],
      [
        "et",
        "er"
      ],
      [
        "is",
        "ha"
      ],
      [
        "Ġme",
        "et"
      ],
      [
        "ĠB",
        "y"
      ],
      [
        "U",
        "ma"
      ],
      [
        "g",
        "ers"
      ],
      [
        "Ġy",
        "ears"
      ],
      [
        "'",
        "d"
      ],
      [
        "J",
        "une"
      ],
      [
        "Ġs",
        "it"
      ],
      [
        "Ġe",
        "ar"
      ],
      [
        "'",
        "ll"
      ],
      [
        "K",
        "en"
      ],
      [
        "an",
        "i"
      ],
      [
        "Ġin",
        "form"
      ],
      [
        "ĠW",
        "here"
      ],
      [
        "Ġoff",
        "ice"
      ],
      [
        "o",
        "e"
      ],
      [
        "Ġf",
        "ell"
      ],
      [
        "Ġp",
        "ict"
      ],
      [
        "Ġr",
        "ather"
      ],
      [
        "ĠS",
        "und"
      ],
      [
        "ad",
        "i"
      ],
      [
        "Ġmo",
        "ved"
      ],
      [
        "end",
        "y"
      ],
      [
        "Ġfo",
        "llow"
      ],
      [
        "Ġpict",
        "ure"
      ],
      [
        "ĠSund",
        "ay"
      ],
      [
        "d",
        "am"
      ],
      [
        "n",
        "g"
      ],
      [
        "ust",
        "ed"
      ],
      [
        "Ġho",
        "me"
      ],
      [
        "ĠBe",
        "cause"
      ],
      [
        "W",
        "hen"
      ],
      [
        "u",
        "ck"
      ],
      [
        "Ġf",
        "air"
      ],
      [
        "at",
        "ur"
      ],
      [
        "Ġre",
        "al"
      ],
      [
        "Ġli",
        "ved"
      ],
      [
        "ac",
        "hes"
      ],
      [
        "ff",
        "ee"
      ],
      [
        "av",
        "es"
      ],
      [
        "Ġkeep",
        "ing"
      ],
      [
        "Ġpart",
        "s"
      ],
      [
        "Ġforgot",
        "ten"
      ],
      [
        "Mar",
        "co"
      ],
      [
        "E",
        "than"
      ],
      [
        "H",
        "al"
      ],
      [
        "H",
        "elen"
      ],
      [
        "S",
        "o"
      ],
      [
        "i",
        "ous"
      ],
      [
        "er",
        "t"
      ],
      [
        "Ġn",
        "ight"
      ],
      [
        "Ġr",
        "ain"
      ],
      [
        "Ġr",
        "ough"
      ],
      [
        "Ġde",
        "c"
      ],
      [
        "Ġimp",
        "ort"
      ],
      [
        "M",
        "ona"
      ],
      [
        "w",
        "en"
      ],
      [
        "Ġ",
        "ke"
      ],
      [
        "ĠT",
        "o"
      ],
      [
        "Ġpr",
        "oof"
      ],
      [
        "Ġtr",
        "ue"
      ],
      [
        "Ġsqu",
        "are"
      ],
      [
        "ani",
        "el"
      ],
      [
        "Ġimport",
        "ant"
      ],
      [
        "Z",
        "oe"
      ],
      [
        "l",
        "ara"
      ],
      [
        "Ġthe",
        "ir"
      ],
      [
        "Ġs",
        "at"
      ],
      [
        "ou",
        "p"
      ],
      [
        "Ġf",
        "elt"
      ],
      [
        "ad",
        "ing"
      ],
      [
        "Ġus",
        "ually"
      ],
      [
        "Ġfam",
        "ous"
      ],
      [
        "Ġstran",
        "gers"
      ],
      [
        "Ġphotograp",
        "h"
      ],
      [
        "c",
        "lock"
      ],
      [
        "g",
        "es"
      ],
      [
        "p",
        "ite"
      ],
      [
        "Ġc",
        "at"
      ],
      [
        "Ġc",
        "han"
      ],
      [
        "Ġe",
        "g"
      ],
      [
        "Ġu",
        "se"
      ],
      [
        "Ġco",
        "ver"
      ],
      [
        "Ġwar",
        "ning"
      ],
      [
        "ug",
        "o"
      ],
      [
        "ona",
        "ble"
      ],
      [
        "Ġexplanation",
        "s"
      ],
      [
        "Ġshow",
        "ed"
      ],
      [
        "ĠN",
        "ear"
      ],
      [
        "Ġco",
        "ffee"
      ],
      [
        "ĠY",
        "ears"
      ],
      [
        "Ġtr",
        "usted"
      ],
      [
        "Ġoff",
        "ered"
      ],
      [
        "ount",
        "ain"
      ],
      [
        "Ġreas",
        "onable"
      ],
      [
        "f",
        "way"
      ],
      [
        "o",
        "ors"
      ],
      [
        "en",
        "ry"
      ],
      [
        "Ġe",
        "y"
      ],
      [
        "ri",
        "ya"
      ],
      [
        "Ġdes",
        "pite"
      ],
      [
        "Ġwa",
        "ited"
      ],
      [
        "Ġdam",
        "age"
      ],
      [
        "N",
        "obody"
      ],
      [
        "Ġp",
        "at"
      ],
      [
        "Ġhel",
        "ps"
      ],
      [
        "Ġind",
        "oors"
      ],
      [
        "Ġsurvi",
        "ved"
      ],
      [
        "Hal",
        "fway"
      ],
      [
        "e",
        "li"
      ],
      [
        "i",
        "ld"
      ],
      [
        "re",
        "ction"
      ],
      [
        "ay",
        "a"
      ],
      [
        "Ġwork",
        "s"
      ],
      [
        "So",
        "fia"
      ],
      [
        "eli",
        "x"
      ],
      [
        "N",
        "o"
      ],
      [
        "Ġe",
        "nd"
      ],
      [
        "read",
        "y"
      ],
      [
        "No",
        "ah"
      ],
      [
        "M",
        "ark"
      ],
      [
        "d",
        "e"
      ],
      [
        "o",
        "ke"
      ],
      [
        "u",
        "l"
      ],
      [
        "Ġ",
        "our"
      ],
      [
        "ĠS",
        "atur"
      ],
      [
        "Ġmo",
        "on"
      ],
      [
        "ell",
        "a"
      ],
      [
        "Ġle",
        "ft"
      ],
      [
        "ĠSatur",
        "day"
      ],
      [
        "O",
        "liver"
      ],
      [
        "b",
        "r"
      ],
      [
        "i",
        "er"
      ],
      [
        "Ġf",
        "in"
      ],
      [
        "Ġbe",
        "l"
      ],
      [
        "Ġso",
        "on"
      ],
      [
        "Ġcom",
        "m"
      ],
      [
        "'",
        "m"
      ],
      [
        "e",
        "o"
      ],
      [
        "ĠM",
        "r"
      ],
      [
        "C",
        "arl"
      ],
      [
        "H",
        "ana"
      ],
      [
        "V",
        "ict"
      ],
      [
        "o",
        "es"
      ],
      [
        "u",
        "li"
      ],
      [
        "an",
        "ce"
      ],
      [
        "Ġal",
        "ready"
      ],
      [
        "Ġcom",
        "pl"
      ],
      [
        "Pau",
        "la"
      ],
      [
        "Vict",
        "or"
      ],
      [
        "ar",
        "y"
      ],
      [
        "Ġfor",
        "m"
      ],
      [
        "Ġdeep",
        "er"
      ],
      [
        "A",
        "isha"
      ],
      [
        "S",
        "imon"
      ],
      [
        "at",
        "ure"
      ],
      [
        "as",
        "e"
      ],
      [
        "Pau",
        "l"
      ],
      [
        "Every",
        "one"
      ],
      [
        "D",
        "ora"
      ],
      [
        "L",
        "ena"
      ],
      [
        "R",
        "uth"
      ],
      [
        "Ġs",
        "pe"
      ],
      [
        "Ġp",
        "ass"
      ],
      [
        "Ġso",
        "ft"
      ],
      [
        "ona",
        "h"
      ],
      [
        "adi",
        "ya"
      ],
      [
        "W",
        "endy"
      ],
      [
        "Ġm",
        "any"
      ],
      [
        "Ġo",
        "b"
      ],
      [
        "ĠA",
        "ll"
      ],
      [
        "Ġco",
        "l"
      ],
      [
        "Ġpr",
        "oud"
      ],
      [
        "Ġlook",
        "ing"
      ],
      [
        "Ġgo",
        "ing"
      ],
      [
        "Ġquestion",
        "s"
      ],
      [
        "ub",
        "y"
      ],
      [
        "E",
        "lena"
      ],
      [
        "i",
        "am"
      ],
      [
        "m",
        "ma"
      ],
      [
        "Ġf",
        "ence"
      ],
      [
        "Ġd",
        "on"
      ],
      [
        "Ġpl",
        "ace"
      ],
      [
        "Ġsimp",
        "ler"
      ],
      [
        "Ġeas",
        "y"
      ],
      [
        "Ġey",
        "es"
      ],
      [
        "E",
        "lias"
      ],
      [
        "Ġex",
        "pected"
      ],
      [
        "am",
        "es"
      ],
      [
        "ĠO",
        "n"
      ],
      [
        "A",
        "dam"
      ],
      [
        "T",
        "hen"
      ],
      [
        "Ġ",
        "very"
      ],
      [
        "il",
        "k"
      ],
      [
        "Ġgr",
        "ate"
      ],
      [
        "ere",
        "ly"
      ],
      [
        "Ġcon",
        "fu"
      ],
      [
        "Ġcall",
        "ing"
      ],
      [
        "Ġrough",
        "ly"
      ],
      [
        "av",
        "id"
      ],
      [
        "ara",
        "h"
      ],
      [
        "ie",
        "ld"
      ],
      [
        "Ġbus",
        "y"
      ],
      [
        "Ġgrate",
        "ful"
      ],
      [
        "A",
        "n"
      ],
      [
        "J",
        "ake"
      ],
      [
        "T",
        "hank"
      ],
      [
        "e",
        "or"
      ],
      [
        "i",
        "es"
      ],
      [
        "v",
        "y"
      ],
      [
        "Ġf",
        "ire"
      ],
      [
        "ur",
        "ch"
      ],
      [
        "our",
        "s"
      ],
      [
        "Ġag",
        "ree"
      ],
      [
        "Ġle",
        "aves"
      ],
      [
        "Ġhum",
        "ans"
      ],
      [
        "eor",
        "ge"
      ],
      [
        "R",
        "osa"
      ],
      [
        "S",
        "am"
      ],
      [
        "i",
        "p"
      ],
      [
        "r",
        "ound"
      ],
      [
        "ent",
        "s"
      ],
      [
        "am",
        "p"
      ],
      [
        "Ġwr",
        "iting"
      ],
      [
        "Ġhour",
        "s"
      ],
      [
        "Ġapp",
        "re"
      ],
      [
        "A",
        "lice"
      ],
      [
        "P",
        "riya"
      ],
      [
        "l",
        "ish"
      ],
      [
        "re",
        "t"
      ],
      [
        "ic",
        "ated"
      ],
      [
        "Ġg",
        "l"
      ],
      [
        "Ġsug",
        "gest"
      ],
      [
        "Ġbeg",
        "in"
      ],
      [
        "O",
        "mar"
      ],
      [
        "c",
        "om"
      ],
      [
        "Ġday",
        "s"
      ],
      [
        "Ġch",
        "urch"
      ],
      [
        "D",
        "ear"
      ],
      [
        "D",
        "aniel"
      ],
      [
        "I",
        "ris"
      ],
      [
        "T",
        "ara"
      ],
      [
        "Y",
        "ours"
      ],
      [
        "a",
        "x"
      ],
      [
        "c",
        "erely"
      ],
      [
        "m",
        "er"
      ],
      [
        "Ġl",
        "ast"
      ],
      [
        "Ġdiffer",
        "ent"
      ],
      [
        "Ġshe",
        "lf"
      ],
      [
        "Ġsin",
        "cerely"
      ],
      [
        "Ġbel",
        "ong"
      ],
      [
        "An",
        "na"
      ],
      [
        "Ġsuggest",
        "s"
      ],
      [
        "A",
        "sk"
      ],
      [
        "c",
        "as"
      ],
      [
        "Ġb",
        "ir"
      ],
      [
        "Ġme",
        "an"
      ],
      [
        "Ġevery",
        "one"
      ],
      [
        "Ġrep",
        "ly"
      ],
      [
        "Ġloc",
        "als"
      ],
      [
        "Ġreal",
        "ize"
      ],
      [
        "uli",
        "a"
      ],
      [
        "Ġcompl",
        "icated"
      ],
      [
        "i",
        "ence"
      ],
      [
        "Ġs",
        "ent"
      ],
      [
        "Ġy",
        "ard"
      ],
      [
        "Ġevery",
        "day"
      ],
      [
        "ĠE",
        "ar"
      ],
      [
        "Ġdi",
        "rection"
      ],
      [
        "B",
        "ella"
      ],
      [
        "L",
        "eo"
      ],
      [
        "Ġm",
        "ilk"
      ],
      [
        "Ġin",
        "c"
      ],
      [
        "ri",
        "ght"
      ],
      [
        "ĠF",
        "r"
      ],
      [
        "Ġcom",
        "p"
      ],
      [
        "Ġlo",
        "ve"
      ],
      [
        ".",
        "."
      ],
      [
        "o",
        "l"
      ],
      [
        "Ġw",
        "alk"
      ],
      [
        "Ġha",
        "lf"
      ],
      [
        "ĠW",
        "ell"
      ],
      [
        "ĠE",
        "ng"
      ],
      [
        "Ġgo",
        "es"
      ],
      [
        "ĠEar",
        "th"
      ],
      [
        "F",
        "elix"
      ],
      [
        "o",
        "y"
      ],
      [
        "s",
        "c"
      ],
      [
        "ĠT",
        "ake"
      ],
      [
        "ess",
        "a"
      ],
      [
        "ĠEng",
        "lish"
      ],
      [
        "O",
        "wen"
      ],
      [
        "Ġ",
        "'"
      ],
      [
        "Ġn",
        "ice"
      ],
      [
        "Ġh",
        "ist"
      ],
      [
        "here",
        "d"
      ],
      [
        "Ġad",
        "d"
      ],
      [
        "Ġser",
        "ious"
      ],
      [
        "C",
        "lara"
      ],
      [
        "H",
        "ugo"
      ],
      [
        "M",
        "aya"
      ],
      [
        "e",
        "f"
      ],
      [
        "Ġl",
        "and"
      ],
      [
        "ĠS",
        "omet"
      ],
      [
        "Ġus",
        "ed"
      ],
      [
        "h",
        "ris"
      ],
      [
        "r",
        "ot"
      ],
      [
        "in",
        "es"
      ],
      [
        "Ġw",
        "ent"
      ],
      [
        "Ġm",
        "aybe"
      ],
      [
        "Ġse",
        "a"
      ],
      [
        "Ġse",
        "ed"
      ],
      [
        "Ġsp",
        "oon"
      ],
      [
        "ĠNot",
        "hing"
      ],
      [
        "Lu",
        "is"
      ],
      [
        "Ġdep",
        "ends"
      ],
      [
        "Ġconfu",
        "se"
      ],
      [
        "Ġhist",
        "ory"
      ],
      [
        "E",
        "lla"
      ],
      [
        "i",
        "an"
      ],
      [
        "w",
        "here"
      ],
      [
        "Ġi",
        "ma"
      ],
      [
        "ic",
        "es"
      ],
      [
        "ion",
        "s"
      ],
      [
        "Ġv",
        "al"
      ],
      [
        "b",
        "ot"
      ],
      [
        "Ġdr",
        "opped"
      ],
      [
        "Ġins",
        "ide"
      ],
      [
        "Ġbelong",
        "ed"
      ],
      [
        "ĠSomet",
        "imes"
      ],
      [
        "R",
        "avi"
      ],
      [
        "Ġp",
        "ap"
      ],
      [
        "Ġe",
        "ven"
      ],
      [
        "ĠC",
        "ould"
      ],
      [
        "ast",
        "e"
      ],
      [
        "Ġtr",
        "ain"
      ],
      [
        "Ġte",
        "aches"
      ],
      [
        "Ġun",
        "bot"
      ],
      [
        "Ġcle",
        "an"
      ],
      [
        "sc",
        "ar"
      ],
      [
        "Ġunbot",
        "hered"
      ],
      [
        "N",
        "adiya"
      ],
      [
        "h",
        "ind"
      ],
      [
        "u",
        "p"
      ],
      [
        "er",
        "day"
      ],
      [
        "re",
        "ts"
      ],
      [
        "Ġm",
        "et"
      ],
      [
        "en",
        "se"
      ],
      [
        "Ġy",
        "est"
      ],
      [
        "an",
        "e"
      ],
      [
        "Ġlar",
        "ge"
      ],
      [
        "Ġyest",
        "erday"
      ],
      [
        "J",
        "onah"
      ],
      [
        "d",
        "ire"
      ],
      [
        "v",
        "a"
      ],
      [
        "Ġ",
        "ed"
      ],
      [
        "at",
        "s"
      ],
      [
        "an",
        "k"
      ],
      [
        "Ġbe",
        "hind"
      ],
      [
        "Ġh",
        "ope"
      ],
      [
        "all",
        "s"
      ],
      [
        "la",
        "id"
      ],
      [
        "Ġcare",
        "ful"
      ],
      [
        "Ġmis",
        "dire"
      ],
      [
        "Ġmis",
        "laid"
      ],
      [
        "Ġsec",
        "rets"
      ],
      [
        "Ġcau",
        "ght"
      ],
      [
        "Ġsmell",
        "ed"
      ],
      [
        "Ġmisdire",
        "cted"
      ],
      [
        "Ġf",
        "low"
      ],
      [
        "ĠM",
        "ost"
      ],
      [
        "Ġhappen",
        "s"
      ],
      [
        "Mar",
        "ia"
      ],
      [
        "ĠEvery",
        "one"
      ],
      [
        "F",
        "arah"
      ],
      [
        "M",
        "ia"
      ],
      [
        "ha",
        "ps"
      ],
      [
        "Ġm",
        "ix"
      ],
      [
        "Ġl",
        "amp"
      ],
      [
        "ĠA",
        "round"
      ],
      [
        "ĠN",
        "ow"
      ],
      [
        "ink",
        "s"
      ],
      [
        "Ġgre",
        "en"
      ],
      [
        "Ġvis",
        "ited"
      ],
      [
        "Ġke",
        "pt"
      ],
      [
        "b",
        "s"
      ],
      [
        "t",
        "ing"
      ],
      [
        "Ġw",
        "on"
      ],
      [
        "ĠW",
        "h"
      ],
      [
        "Ġsh",
        "op"
      ],
      [
        "Ġqu",
        "ite"
      ],
      [
        "avi",
        "er"
      ],
      [
        "ĠPer",
        "haps"
      ],
      [
        "Ġval",
        "ue"
      ],
      [
        "X",
        "avier"
      ],
      [
        "Y",
        "ara"
      ],
      [
        "Ġto",
        "p"
      ],
      [
        "Ġe",
        "ver"
      ],
      [
        "O",
        "scar"
      ],
      [
        "m",
        "ost"
      ],
      [
        "Ġt",
        "ake"
      ],
      [
        "Ġw",
        "ise"
      ],
      [
        "Ġb",
        "oth"
      ],
      [
        "Ġc",
        "ook"
      ],
      [
        "id",
        "ge"
      ],
      [
        "ill",
        "age"
      ],
      [
        "ak",
        "er"
      ],
      [
        "Ġgr",
        "ay"
      ],
      [
        "ĠD",
        "o"
      ],
      [
        "Ġeg",
        "gs"
      ],
      [
        "Ġima",
        "gine"
      ],
      [
        "D",
        "avid"
      ],
      [
        "H",
        "enry"
      ],
      [
        "r",
        "ic"
      ],
      [
        "E",
        "mma"
      ],
      [
        "G",
        "eorge"
      ],
      [
        "R",
        "uby"
      ],
      [
        "T",
        "om"
      ],
      [
        "c",
        "er"
      ],
      [
        "d",
        "le"
      ],
      [
        "on",
        "d"
      ],
      [
        "Ġf",
        "ast"
      ],
      [
        "ĠA",
        "h"
      ],
      [
        "e",
        "ed"
      ],
      [
        "in",
        "s"
      ],
      [
        "Ġb",
        "ody"
      ],
      [
        "Ġlike",
        "ly"
      ],
      [
        "L",
        "ily"
      ],
      [
        "N",
        "ora"
      ],
      [
        "Ġt",
        "alk"
      ],
      [
        "Ġa",
        "p"
      ],
      [
        "Ġb",
        "ag"
      ],
      [
        "Ġf",
        "ield"
      ],
      [
        "Ġm",
        "ust"
      ],
      [
        "Ġl",
        "ess"
      ],
      [
        "et",
        "s"
      ],
      [
        "Ġe",
        "ight"
      ],
      [
        "Ġwon",
        "der"
      ],
      [
        "s",
        "es"
      ],
      [
        "Ġ",
        "1"
      ],
      [
        "an",
        "c"
      ],
      [
        "Ġst",
        "and"
      ],
      [
        "Ġh",
        "ill"
      ],
      [
        "Ġli",
        "br"
      ],
      [
        "Ġal",
        "most"
      ],
      [
        "Ġv",
        "illage"
      ],
      [
        "us",
        "hed"
      ],
      [
        "Ġdri",
        "ver"
      ],
      [
        "Lu",
        "cas"
      ],
      [
        "P",
        "eter"
      ],
      [
        "Z",
        "ane"
      ],
      [
        "g",
        "et"
      ],
      [
        "Ġd",
        "ry"
      ],
      [
        "ent",
        "y"
      ],
      [
        "fe",
        "ct"
      ],
      [
        "Ġbl",
        "ue"
      ],
      [
        "Ġhel",
        "p"
      ],
      [
        "Ġop",
        "en"
      ],
      [
        "N",
        "ot"
      ],
      [
        "Ġt",
        "in"
      ],
      [
        "Ġe",
        "mp"
      ],
      [
        "ĠThe",
        "n"
      ],
      [
        "Ġd",
        "is"
      ],
      [
        "es",
        "day"
      ],
      [
        "Ġst",
        "opped"
      ],
      [
        "Ġplan",
        "t"
      ],
      [
        "ĠD",
        "an"
      ],
      [
        "Ġar",
        "g"
      ],
      [
        "Ġcon",
        "t"
      ],
      [
        "Ġforg",
        "et"
      ],
      [
        "L",
        "iam"
      ],
      [
        "Ġc",
        "lo"
      ],
      [
        "Ġgr",
        "ass"
      ],
      [
        "Ġhone",
        "st"
      ],
      [
        "C",
        "hris"
      ],
      [
        "M",
        "ax"
      ],
      [
        "Ġs",
        "ix"
      ],
      [
        "Ġf",
        "ri"
      ],
      [
        "ll",
        "y"
      ],
      [
[...]
